{
    "(sample": 34068,
    "\u0120sacr": 17475,
    "Chooser": 37657,
    "\u0120hip": 18638,
    "\u0120Caption": 38700,
    "\u0120\u00d8\u00af\u00d9\u0126": 105905,
    "\u0120pulumi": 89656,
    "illi": 58268,
    "a\u00c5\u00bed": 103059,
    "\u00e3\u0123\u00be\u00e3\u0123\u013d\u00e3\u0124\u0135": 107515,
    "Isn": 89041,
    "REAT": 31832,
    "\u0120Strategies": 56619,
    "-\u00d1\u0126": 121910,
    "\u0120Lic": 33675,
    "consider": 25742,
    "\u0120harder": 16127,
    "Led": 61950,
    "\u0120penny": 50169,
    "\u00d9\u012a\u00d9\u0124": 100967,
    "\u0120\u00d8\u00a8\u00d8\u00a7\u00d8\u00b9": 110540,
    "\u0120FEMA": 92789,
    "\u0120M\u00c3\u00bcnchen": 90366,
    "_ISR": 71778,
    "\u0120Coy": 63073,
    "JNIEnv": 89214,
    "ffiti": 56426,
    "(saved": 14551,
    "\u00e0\u00a4\u013e": 100346,
    "\u0120proposals": 25243,
    ".dep": 84787,
    "evice": 65024,
    "\u0120owns": 25241,
    "\u0120restrictions": 17294,
    "\u0120\u00c5\u0141ekil": 102013,
    "\u00e3\u0125\u00a9": 32131,
    "Cerrar": 80533,
    "\u0120Paso": 67429,
    "\u00d1\u0124\u00d0\u00b0\u00d0\u00b1": 116004,
    "\u0120\u00e0\u00a4\u0131\u00e0\u00a4\u00ae": 115853,
    "\u0120fragile": 45350,
    "\u0120goodies": 70855,
    "\u0120V\u00e1\u00ba\u0143y": 125193,
    "d\u00c3\u00bcm": 120161,
    "_ros": 80315,
    "Instead": 31887,
    "/dat": 38666,
    "\u00c3\u0138": 64461,
    "\u00d1\u0126\u00d0\u00b5\u00d0\u00ba\u00d1\u0124\u00d0\u00b8\u00d0\u00b2": 105203,
    "\u0120\u00d0\u00ba\u00d0\u00b8\u00d1\u0123": 107249,
    "option": 2091,
    "\u0120yap\u00c4\u00b1lacak": 115294,
    "_steps": 23566,
    "\u0120AWS": 24124,
    "/email": 62749,
    "(CultureInfo": 78041,
    "gren": 75365,
    "\u0120king": 11734,
    "\u0120vegan": 30249,
    "]>\u010a": 65177,
    "\u0120nghi\u00e1\u00bb\u0129": 100999,
    "\u0120kar\u00c5\u0141\u00c4\u00b1s\u00c4\u00b1nda": 120778,
    "\u00d9\u0128\u00d8\u00b9": 127511,
    "\u0120\u00c3\u00a7o\u00c4\u0141": 124399,
    "\u0120y\u00c3\u00b6netic": 124739,
    "\u0120Predator": 88287,
    "\u0120vib": 56400,
    "\u00e3\u0122\u0124\u00ef\u00bc\u012a": 59459,
    "(program": 37927,
    "\u00d1\u0122\u00d1\u0138": 100563,
    "\u0120jetzt": 38799,
    "\u00e6\u0130\u00a1": 118935,
    "\u0120metav": 78620,
    "\u0120atop": 47088,
    "\u0109up": 60910,
    "marvin": 51376,
    "\u00d1\u0133\u00d1\u0122": 110211,
    "_TYPE": 4283,
    "atetime": 28762,
    "\u0120Principles": 58014,
    "\u0120gi\u00c3\u0142nh": 125170,
    "zim": 118301,
    "listening": 75919,
    "\u00e4\u00b8\u0122\u00e4\u00b8\u012d": 111230,
    "\u0120Alloc": 47785,
    "\u0120classifier": 34465,
    "orio": 50931,
    "\u00eb\u012d\u00a4\u00eb\u00a9\u00b4": 115300,
    "\u0120Prevent": 39168,
    "/work": 36162,
    "-suite": 92674,
    "\u0120bolts": 49939,
    "\u00d0\u00be\u00d0\u00b2\u00d0\u00b0\u00d0\u00bd\u00d0\u00be": 106667,
    "\u0120\u00e5\u013d\u00bd": 103774,
    "\u0120revital": 79955,
    "elerinden": 121192,
    "\u0120m\u00c3\u00b4n": 107551,
    "\u0120Getter": 57230,
    "\u00ef\u00bc\u012b\u00e3\u0122\u0124": 75376,
    "\u0120lista": 14456,
    "raft": 3017,
    "feas": 90377,
    "_UNKNOWN": 32646,
    "\u0120flights": 25952,
    "\u0109tag": 61539,
    "ERROR": 3767,
    "\u0120DEAD": 79169,
    "maps": 18106,
    "\u0120\u00d0\u00bf\u00d0\u00be\u00d1\u0124\u00d1\u0138\u00d0\u00bc": 112875,
    "\u0120Ph\u00c3\u00b2ng": 115317,
    "autoreleasepool": 88522,
    ".cache": 20688,
    "\u0120\u00d8\u0143\u00d8\u00af\u00d9\u012c\u00d8\u00ab": 126698,
    "\u00e6\u0143\u00a6\u00e5\u013b\u00a8": 123655,
    "\u0120programmed": 56168,
    "issional": 90680,
    "\u00b9": 117,
    "\u0120compat": 12413,
    "\u0120Meg": 28443,
    "\u0120helpful": 11190,
    "\u0120seams": 74788,
    "Autoresizing": 48386,
    "\u0120bilm": 110269,
    "\u0120Nigel": 66916,
    "\u0120Datagram": 97904,
    "NET": 15734,
    ")initWith": 40378,
    "dda": 72587,
    "Runs": 75020,
    "\u0120tram": 53345,
    "\u0120\u00d0\u00b3\u00d0\u00b4\u00d0\u00b5": 105019,
    "charm": 99509,
    "hasMany": 49396,
    "\u0120\u00e0\u00a4\u0128\u00e0\u00a4\u00b8": 108992,
    "\u00e0\u00a5\u012b\u00e0\u00a4\u00a1": 119376,
    "\u0120d\u00c3\u00bc\u00c5\u0141\u00c3\u00bcnc": 121671,
    ".visible": 27763,
    "\u0120m\u00c3\u0143r": 121473,
    "\u0120swal": 50454,
    "GRAY": 58257,
    "bh": 52971,
    ".mozilla": 54934,
    "\u0120offsetY": 69138,
    "RECT": 45940,
    "\u0120chimney": 90151,
    "Feature": 14180,
    "\u0120Brewer": 84067,
    "\u0120dynamically": 43111,
    "\u0120sexdate": 63002,
    "FEATURE": 73013,
    "elfast": 47125,
    "\u00e3\u0124\u00af": 29220,
    "\u0120\u00ed\u0123": 46413,
    "al\u00c4\u00b1m": 111448,
    "\u00c3\u00b1": 5771,
    "=DB": 90749,
    "\u00e0\u00a5\u0129\u00e0\u00a4\u00a6": 103764,
    "_HANDLE": 24611,
    "\u0120\u00da\u00af\u00d8\u00b1\u00d8\u00af\u00d8\u00b4": 120472,
    "\u0120Military": 28058,
    ")&&(": 51969,
    "525": 18415,
    "-S": 6354,
    "\u0120\u00c3\u0138zellikle": 120946,
    "\u0120Turkish": 24666,
    "($(\".": 98839,
    ".expected": 57935,
    "\u0120catchy": 86605,
    "MZ": 98088,
    "Margins": 67557,
    ")./": 90586,
    "\u0120Language": 11688,
    "PHPExcel": 49127,
    "\u0120autonom": 95103,
    "\u0120LJ": 97788,
    "\u00ea\u00b0\u013e\u00ec\u013d\u0136": 125085,
    "\u0120Verify": 26504,
    "\u0120glossy": 74156,
    "employee": 13243,
    "_IRQn": 53457,
    "(worker": 74848,
    "_website": 80132,
    ".datasource": 78078,
    "\u0120resume": 16063,
    "\u0120ASS": 36660,
    "\u0120')\u010a": 22428,
    "owering": 90714,
    "\u0120pubs": 74862,
    "\u0120unwitting": 95119,
    "ussy": 13753,
    "-google": 63745,
    "\u00db\u012e\u00d8\u00b1": 90920,
    "\u0120Cly": 69388,
    "\u0120ITEM": 37032,
    "\u00e0\u00a5\u012b\u00e0\u00a4\u00b2": 105451,
    "\u0120kalp": 124846,
    "_MR": 83253,
    "\u0120\u00d0\u00bc\u00d0\u00bd": 103817,
    "while": 3556,
    "rist": 2889,
    "Descriptions": 69245,
    "/filepath": 97542,
    "\u0120vieille": 70311,
    "lator": 22582,
    "\u0120seviy": 110410,
    "\u0120\u00d8\u00b9\u00d8\u00b6\u00d9\u012a": 109855,
    "\u00d9\u0128\u00d8\u00af\u00db\u012e": 104095,
    "\u00ec\u00a1\u012e": 106872,
    "\u0120Nichols": 81250,
    ".filename": 31982,
    "\u0120resid": 21836,
    "\u0120unemployment": 26690,
    ".wind": 90076,
    "\u0120subtly": 87417,
    "\u0120dequeueReusableCell": 66482,
    "\u0120\u00e6\u00b7": 107798,
    "])[": 41105,
    "asil": 30149,
    "\u0120Publications": 62770,
    "\u0120Vs": 44082,
    "\u0120Facial": 75622,
    "\u0120\u00d0\u00b8\u00d1\u0123\u00d1\u0127\u00d0\u00be\u00d0\u00b4": 124096,
    "\u0120Ethernet": 46508,
    "acf": 63694,
    "\u0120resil": 37130,
    "\u0120Lightweight": 84367,
    "\u00d8\u00ba\u00d8\u00b7": 114501,
    "rowData": 99059,
    "iosk": 76017,
    ".self": 28248,
    "\u0120\u00d9\u00be\u00d8\u00b1": 104000,
    "\u0120pathMatch": 87118,
    "az\u00c4\u00b1": 102840,
    "equiv": 58417,
    ";<": 36158,
    "jump": 44396,
    "_handler": 10393,
    "\u00d0\u00b6\u00d0\u00b5\u00d0\u00bd\u00d0\u00bd\u00d1\u0131": 102642,
    "lar\u00c4\u00b1m": 124941,
    "\u00d0\u0128\u00d0\u0128": 122348,
    "514": 20998,
    "Directive": 63176,
    "\u00e0\u00a5\u0124\u00e0\u00a4\u00a6": 108892,
    "{}\\": 89063,
    "\u0120Dort": 59716,
    "\u00e3\u0123\u00aa\u00e3\u0123\u012e\u00e3\u0124\u012b": 106272,
    "\u0120lightning": 33538,
    "bei": 63501,
    "=X": 62445,
    "\u00e5\u0127\u00ac\u00e9\u0138\u012d": 121298,
    "_CSV": 97694,
    "\u00e0\u00b8\u00a5": 32882,
    "\u0120\u00d0\u00b7\u00d0\u00b3\u00d0\u00be\u00d0\u00b4": 122044,
    "\u00e3\u0125\u00bb\u00e3\u0125\u00bb": 16449,
    "\u0120trie": 60167,
    "\u0120interle": 96068,
    "lacak": 102139,
    "\u0120timing": 18912,
    "\u0120\u00d0\u00b4\u00d0\u00be\u00d0\u00ba\u00d0\u00b0\u00d0\u00b7": 118182,
    "_station": 45898,
    "\u0120march\u00c3\u00a9": 84751,
    "\u0120deem": 82577,
    "ypse": 48578,
    "_sql": 18554,
    "pletion": 14723,
    "\u0120Freight": 91338,
    "cimiento": 67137,
    ".RequestMapping": 38472,
    "=format": 92762,
    "\u00cf\u0123\u00ce\u00b5": 101435,
    "\u00cf\u0126\u00cf\u012e": 101957,
    "\u0120cryptocurrencies": 45074,
    "\u0120\u00d1\u0123\u00d0\u00bf\u00d0\u00b8\u00d1\u0123": 46730,
    "\u0120documentaries": 88466,
    "\u0120aprove": 88901,
    "\u0120doom": 59714,
    "_distance": 20029,
    "\u0120loot": 46403,
    "urus": 56266,
    "ido": 5362,
    "\u00c3\u0125": 19321,
    "\u0120'+'": 34488,
    "\u0120\u00d1\u0123\u00d0\u00be\u00d0\u00b1": 101285,
    "\u0120QDom": 99623,
    "nym": 49221,
    "\u0120lorem": 93485,
    "\u0120\u00e3\u0123\u00a7": 113699,
    "emble": 92729,
    "\u00e5\u00ae\u0141": 103350,
    "\u0120faint": 38678,
    "_tp": 56291,
    "LinkId": 67496,
    "')\u010d\u010a": 7849,
    "fork": 45838,
    "\u0120Ta\u00c5\u0141": 126118,
    ".Suppress": 53388,
    "(tableView": 69876,
    "\u0120aqu": 15715,
    "/version": 65513,
    "ieri": 55039,
    "\u00ed\u0136": 100593,
    "(bbox": 88159,
    "\u00e0\u00b8\u00a1\u00e0\u00b8\u013b\u00e0\u00b8\u0137\u00e0\u00b8\u00a3": 123383,
    "\u00e0\u00b9\u0129\u00e0\u00b8\u012a": 107262,
    "tasks": 25792,
    "\u0120Reply": 18321,
    "\u0120\u00c2\u00b4": 106415,
    "\u0120****************************************************************": 23089,
    "\u00d1\u0122\u00d0\u00be\u00d0\u00b1": 101045,
    "\u0120ini": 17225,
    "\u0120CARD": 42800,
    "\u0120establishments": 63337,
    "\u0120fulfill": 21054,
    "#__": 45187,
    "ducation": 34985,
    "HCI": 83013,
    ":\\\"": 76135,
    "arsing": 29698,
    "prefer": 81160,
    "prep": 72874,
    ".FromArgb": 20496,
    "ref": 1116,
    "\u0120laundry": 35189,
    "\u00e0\u00a5\u012f\u00e0\u00a4\u0141\u00e0\u00a4\u00b0": 105461,
    "\u0120universe": 15861,
    "321": 14423,
    "\u0120Registro": 84737,
    "\u0120nhi\u00e1\u00bb\u0123u": 100937,
    "earth": 28641,
    "\u0120compra": 58729,
    "Hits": 63283,
    "\u0120Mayor": 22868,
    "\u0120\u00d0\u00b4\u00d0\u00b5\u00d0\u00bf": 108336,
    "bee": 33131,
    "i\u00c4\u0129": 68929,
    "(UnmanagedType": 69851,
    "([...": 83566,
    "\u0120\u00d0\u0141\u00d0\u00be\u00d1\u0129": 114103,
    "Edward": 85601,
    "\u0120listItem": 73232,
    "istas": 27771,
    "\u0120cazzo": 90633,
    "\u0120Amount": 26868,
    "\u00d0\u00ba\u00d0\u00b0\u00d1\u0123": 127680,
    "-w": 2695,
    "\u00c3\u00a1lu": 108374,
    "\u0120\u00c4\u0132\u00e1\u00bb\u012dnh": 122865,
    "_estimate": 79818,
    "\u0120\u00d8\u00af\u00d8\u00b4": 116437,
    ")\"},\u010a": 97873,
    "_RETURNTRANSFER": 72265,
    "ewitness": 71996,
    "\u0120heeft": 38498,
    "itas": 21920,
    "\u0120STOCK": 83751,
    "\u0120p\u00c4\u013dt": 114846,
    "\u0120yerle\u00c5\u0141tir": 119643,
    "-log": 47432,
    "\u00e5\u0123\u013c": 102210,
    "nickname": 40513,
    "(elm": 90783,
    "\u0109u": 10905,
    "\u0133\u013e": 72543,
    "\u00e6\u013a\u00af\u00e5\u0132\u00a6": 65571,
    "\u0120personalised": 85348,
    "!\u010d\u010a": 46726,
    "\u0120header": 4342,
    "\u0120Stress": 51568,
    "\u0120Longer": 94426,
    "oodle": 31707,
    "\u0120\u00c4\u0133\u00e1\u00bb\u00a9": 106727,
    "\u0120Fee": 41558,
    "amespace": 1714,
    "\u0120`.": 75190,
    ".team": 29063,
    "\u0120incidents": 24455,
    "\u0120finances": 40382,
    "\u0120Metal": 19757,
    "captures": 67426,
    "\u00ce\u00af\u00ce\u00bf\u00cf\u0127": 102524,
    "\u0120RT": 10860,
    "\u0120\u00ce\u00b5\u00ce\u00b3\u00ce\u00ba\u00ce\u00b1": 126983,
    "\u0120Obst": 95944,
    "Driving": 94936,
    "\u0120PERMISSION": 97640,
    "\u0120\u00d8\u00af\u00d8\u00a7\u00d8\u00b1\u00d9\u0128\u00d8\u00af": 107088,
    "-os": 83528,
    "\u0120squads": 78296,
    "\u0120valeurs": 97035,
    "\u00e4\u00bb\u00a5\u00e5\u0131\u012c": 109717,
    "626": 22385,
    "\u0120V\u00c3\u00a1clav": 123677,
    "\u0120redhead": 92805,
    "\u0120TOOL": 93913,
    "\u0120recreated": 37680,
    "\u0120MYSQL": 55297,
    "\u0120eventual": 42835,
    "productId": 47266,
    "\u0120\u00cf\u0125\u00ce\u00ba\u00ce\u00bf": 124985,
    "\u0120scen": 7681,
    "liv\u00c4\u013d": 119551,
    "\u0120garg": 97183,
    "\u00c3\u00acn": 105145,
    "\u00d8\u00a8\u00d8\u00af\u00d8\u00a3": 127239,
    "\u0120sold": 6216,
    "(volume": 75806,
    "\u0120\u00ec\u00b6\u0136\u00ea\u00b0\u0122": 69508,
    "pcl": 78953,
    "\u00e6\u00b3\u0137\u00e5\u00be\u012d": 112424,
    "\u0120celle": 73103,
    "\u0120\u00ec\u0142\u0126\u00ec\u00b2\u00b4": 110078,
    "Um": 45767,
    "\u0120Editorial": 66233,
    "-Out": 85615,
    "_when": 48736,
    "\u0120preceding": 38846,
    "\u0120p\u00c5\u013bisp": 127201,
    "\u0120bookings": 59620,
    "\u00eb\u00b3\u00b5\u00ec\u00a7\u0122": 119510,
    "\u0109CC": 77906,
    "\u00e7\u00a2\u00bc": 118715,
    "\u00e6\u00b0\u0131": 105514,
    "\u00d1\u0129\u00d0\u00b8\u00d1\u0123": 113001,
    "\u0120Pune": 76338,
    "indexes": 72327,
    "\u0120\u00d0\u00b1\u00d0\u00be\u00d0\u00bb\u00d1\u012e\u00d1\u012a\u00d0\u00b8\u00d0\u00bd": 116088,
    "bps": 32280,
    "ackers": 88512,
    ".requestFocus": 73680,
    "\u0120x\u00c3\u00bac": 114762,
    "\u0120\u00d0\u00bf\u00d1\u0122\u00d0\u00be\u00d0\u00b6": 110727,
    "\u00ed\u0125\u0122": 101109,
    "\u00c4\u00b1lacak": 126866,
    "_lens": 82742,
    "\u00e0\u00b8\u013b\u00e0\u00b8\u00b2\u00e0\u00b8\u00a2": 112646,
    "\u0120continuar": 72107,
    "\u0120\u00d0\u00ba\u00d0\u00be\u00d0\u00bc\u00d0\u00b0\u00d0\u00bd": 109912,
    "\u0120Caucus": 80117,
    "\u0120Tail": 37179,
    "\u0120\u00d0\u00b2\u00d0\u00b8\u00d0\u00b2": 114242,
    "\u00e3\u0124\u0131\u00e3\u0124\u012e\u00e3\u0123\u0141": 125167,
    "\u0120Fluent": 60897,
    "(th": 25364,
    "Available": 16892,
    "brightness": 100156,
    "\u0120robber": 71650,
    "\u00c3\u00bdmi": 101550,
    "\u0120\u00ea\u00b2\u00b0\u00ed\u013a\u00bc": 123651,
    "nim": 57851,
    "\u0120scenarios": 26350,
    "594": 23428,
    "AppBundle": 73988,
    "\u0120JFK": 84399,
    "case": 5756,
    "\u0120\u00d0\u00bd\u00d0\u00b5\u00d1\u0123\u00d0\u00ba": 103957,
    "\u0120soci\u00c3\u00a9t\u00c3\u00a9": 77824,
    ".parameters": 28427,
    "\u0120oversized": 62305,
    "+-": 22192,
    "\u0120IRQ": 42768,
    "\u0120\u00ec\u00b6\u0136\u00ec\u00b2\u013e": 109336,
    "\u00e7\u0142\u0136": 101772,
    ".Windows": 1970,
    "__,": 10662,
    "h\u00c3\u00b5es": 94330,
    "cj": 80546,
    "\u00e3\u0125\u00bc\u00e3\u0125\u0135\u00e3\u0124\u00b9": 121098,
    "\u0120hips": 43523,
    "\u0120Decimal": 27826,
    "\u0120morning": 6693,
    "esh": 4385,
    "\u0120popul": 32849,
    "\u0120matchups": 79458,
    "\u0120impres": 77998,
    "\"\"\"\u010a": 7275,
    "_right": 10762,
    "\u00ec\u0142\u00a4": 126341,
    "\u0120reporters": 19578,
    "\u0120\u00d9\u0127\u00d8\u00b4\u00d8\u00aa\u00d8\u00b1": 114180,
    "\u0120glamour": 80049,
    "instrument": 67468,
    "\u0120raid": 25834,
    "\u0120realizado": 84145,
    ".WebControls": 33657,
    "ollection": 1947,
    "\u0120dudes": 73222,
    "Marks": 90470,
    "\u0120privateKey": 71665,
    "\u0120N": 452,
    "\u00e0\u00b9\u012b\u00e0\u00b8\u00b2\u00e0\u00b8\u0123": 122380,
    "\u00cf\u0126\u00cf\u0123\u00ce\u00b1": 106321,
    "nehmer": 89587,
    "\u0120\u00e2\u0124\u00ac": 13281,
    "\u00d0\u00b0\u00d1\u0122\u00d1\u0124\u00d0\u00b0\u00d0\u00bc": 121175,
    "\u0120pitch": 9846,
    "-focused": 52373,
    "\u0120DIC": 98860,
    "grades": 23142,
    "_picture": 43506,
    "-t": 2442,
    "ScreenWidth": 70914,
    "\u00d0\u00bf\u00d0\u00b8\u00d1\u0123\u00d0\u00b0\u00d0\u00bd\u00d0\u00b8\u00d0\u00b5": 94722,
    "\u00e0\u00a9": 66977,
    "Saudi": 88317,
    "],$": 70006,
    "\u0120managed": 9152,
    "\u0120Modular": 85948,
    "\u0120wei\u00c3\u0141": 68378,
    "_private": 27345,
    "ligt": 59256,
    "gende": 59873,
    "roadcast": 19650,
    "\u0120Neu": 45950,
    "IMO": 84504,
    "aviour": 9073,
    "\u0120decentral": 39205,
    "\u0120\u00d0\u00be\u00d0\u00b4\u00d0\u00bd\u00d0\u00be\u00d0\u00b9": 110768,
    "\u0120datum": 42656,
    "statusCode": 45580,
    "_UTF": 56161,
    "\u0120Coordinate": 42135,
    "\u0120Detective": 56379,
    "\u00c4\u013c": 108195,
    "/screens": 60486,
    "(byte": 20318,
    "arius": 41321,
    "\u0120imaginary": 51052,
    "dependence": 91746,
    "\u00d0\u00bd\u00d0\u00b0\u00d1\u0122": 116202,
    "\u0120\u00ec\u0124\u00ac\u00ea\u00b1\u00b4": 117906,
    "Ens": 97296,
    "present": 29844,
    ".notes": 55787,
    "gunta": 61010,
    "\u0120ve\u00c4\u012fer": 120148,
    "i\u00e1\u00ba\u00bfng": 109120,
    "\u00c3\u00a1z": 60921,
    "\u00ec\u0138\u00b4\u00ec\u00a7\u0126": 125441,
    "\u00d9\u012a\u00d8\u00b7": 102991,
    "\u00d1\u0125\u00d0\u00b9\u00d1\u0124\u00d0\u00b5": 127725,
    "\u0120Beg": 44793,
    "progressbar": 82683,
    "\u0120\u00d9\u0129\u00d8\u00b0\u00d8\u00a7": 103341,
    "Range": 6174,
    "\u0120Pep": 54086,
    "(limit": 53362,
    "\u0120lawsuit": 19831,
    "\u00d1\u0123\u00d0\u00b0\u00d0\u00bc": 127958,
    "\u0120intercepted": 70474,
    "\u0120exceedingly": 76821,
    "Insp": 74640,
    "\u0120Kelly": 19178,
    "changes": 19926,
    "\u0120swamp": 67172,
    "\u0120applying": 19486,
    "erli": 107603,
    "\u0120g\u00c3\u00a9n\u00c3\u00a9ral": 89175,
    "Creates": 55968,
    "pag": 18926,
    "\u0120heraus": 84480,
    "\u00e8\u00bf\u0132\u00e5\u012c\u00a8": 114253,
    "\u00e8\u00bb\u00a2": 108436,
    "\u0120Assurance": 84882,
    "\")}": 68555,
    "\u0120Principal": 37409,
    "\u0120injust": 98753,
    "_ACTIVITY": 43545,
    "\u0120STRING": 36355,
    "\u0120Developed": 80110,
    "_BROWSER": 73600,
    "\u0120Agricult": 29000,
    "\u0120\u00ec\u00b2\u013a\u00eb\u00a6\u00ac": 82158,
    "\u0120Neue": 76663,
    "_chg": 97376,
    "\u0109rect": 66172,
    "\u0120divider": 49795,
    "ittal": 83223,
    "\u0120CGFloat": 16310,
    "<|reserved_special_token_225|>": 128233,
    "nih": 87165,
    "\u00c4\u00b1n\u00c4\u00b1zda": 121651,
    "\u0108": 196,
    "usalem": 25245,
    "\u0120do\u00c4\u0141rult": 127460,
    "\u00ef\u00bc\u0123\u00e2\u0122\u013f\u010a\u010a": 115684,
    "\u00e0\u00a5\u012f\u00e0\u00a4\u00a1\u00e0\u00a4\u00b2": 123241,
    "\u0120hissed": 122807,
    "_all": 5823,
    "_real": 15624,
    "i": 72,
    "\u0120crus": 62818,
    "\u00e3\u0130": 105017,
    "\u0120grounding": 95841,
    "\u0120dotenv": 92386,
    "\u00e2\u0122\u013bex": 94345,
    "rada": 102841,
    "unci": 18931,
    "\u0120Blake": 31994,
    "\u0120Noon": 83956,
    "\u0120increment": 16650,
    "\u0120dare": 33304,
    "\u0120interacts": 84261,
    "\u0120KERNEL": 80791,
    "<Button": 51832,
    "\u0120Reserve": 25820,
    "\u0120square": 9518,
    "\u0120harness": 33508,
    "\u00d9\u012a\u00d8\u00ac\u00d9\u012a\u00d8\u00af": 123312,
    "hou": 18664,
    "\u0120\u00d8\u00b4\u00d9\u0128\u00d8\u00a7\u00d8\u00b3\u00db\u012e": 126473,
    "\u0120Cumhuriyet": 118972,
    "APIView": 90950,
    "\u0120responding": 30438,
    "\u0120emiss": 99763,
    "\u00e0\u00b9\u012b\u00e0\u00b8\u00b3\u00e0\u00b8\u00ab\u00e0\u00b8\u013b": 117017,
    "(\u00e6\u013e\u012a": 112100,
    "\u0120\u00d1\u0126\u00d1\u0138\u00d0\u00b7": 110910,
    "\u0120tablesp": 38190,
    "\u00d1\u0138\u00d0\u00b1": 101826,
    "\u0120\u00da\u00af\u00d9\u0126": 106619,
    "\u0120flight": 11213,
    "_direction": 26515,
    "_sheet": 44212,
    "ym": 1631,
    "\u00d0\u00b0\u00d0\u00bd": 7486,
    "related": 9920,
    "\u00e6\u013f\u0141": 64063,
    "Ground": 31814,
    "\u0120visit": 4034,
    "approx": 49153,
    "\u0120realizar": 42658,
    "\u00d0\u00b0\u00d0\u00b9\u00d1\u0124\u00d0\u00b5": 106606,
    "\u0120advocates": 28424,
    "\u00e2\u0122\u012e\u00da\u00a9\u00d8\u00b1\u00d8\u00af": 116397,
    "\u0120Survival": 54451,
    "\u0120ment": 11540,
    "\",\"\",\"": 60959,
    "rant": 35534,
    "\u0120d\u00c3\u00b5i": 117275,
    "\u0120carried": 11953,
    "act": 533,
    "\u0120spoof": 88990,
    ".Kind": 55299,
    "saving": 84157,
    ".setCellValue": 64986,
    "Temperature": 41790,
    "\u0120ICON": 60424,
    ".of": 10440,
    "\u0120synthesis": 39975,
    "egt": 51759,
    "()": 368,
    "_Class": 48638,
    "\u0120titul": 123852,
    "alie": 75618,
    "\u0120hx": 54314,
    "ogra": 92241,
    ".uniform": 36878,
    "\u0120Kh": 20774,
    "\u0120arrested": 12800,
    ".Bad": 47046,
    "rites": 24143,
    "\u0120fabrication": 59251,
    "))*(": 84838,
    "\u0120execution": 11572,
    "\u00e8\u00af": 6744,
    "\u0120computing": 25213,
    "\u0120PARAMETERS": 69179,
    "\u0120AssertionError": 67326,
    "_GPU": 69816,
    "\u0120format": 3645,
    "\u0120even": 1524,
    "-services": 59392,
    "\u00d9\u0125\u00d9\u012c": 102848,
    "\u0120Winter": 20704,
    "=path": 83040,
    "\u0120reproduce": 23645,
    "\u0120treated": 12020,
    "\u0120Adds": 25483,
    "\u0120vene": 77851,
    "\u0120respectable": 62486,
    "\u0120Dining": 39190,
    "\u00c3\u00b2ng": 64875,
    "\u00c4\u0135": 79083,
    "_component": 24297,
    "\u0120\u00d8\u00a7\u00d9\u0126\u00d8\u00a8\u00d9\u012c": 107546,
    "asyarak": 91422,
    "\u00e8\u00be\u00be\u00e5\u012a\u00b0": 124546,
    "National": 31912,
    "k\u00c5\u00af": 101316,
    "(problem": 82381,
    "\u0120Isa": 29105,
    "\u0120NON": 21219,
    "\u0120\u00d9\u0124\u00d8\u00a8": 107681,
    ".GetProperty": 97231,
    ".routes": 40406,
    ".renderer": 41252,
    "\u0120onstage": 93635,
    "\u0120$__": 26020,
    "\u0120ihnen": 75121,
    "\u0120dai": 63492,
    "\u0120dick": 27075,
    "\u0120parking": 13217,
    "utzer": 60622,
    "\u0120`{": 54792,
    "\u0120responseObject": 70140,
    "\u0120hwnd": 53932,
    "\u0120\u00d1\u0123\u00d1\u0129": 104096,
    "\u00eb\u00af\u00b8": 57139,
    "\u0120Moment": 40096,
    "\u0120Reputation": 89180,
    "<|reserved_special_token_47|>": 128055,
    ",bool": 64734,
    "Loss": 40938,
    "\u0120emit": 17105,
    "\u00e0\u00a5\u012f\u00e0\u00a4\u0137": 100915,
    "\u0120\u00d7": 17732,
    "\u0120\u00e0\u00a4\u013e\u00e0\u00a4\u00ac": 103369,
    "Previously": 83039,
    "\u0120dbName": 76664,
    "\u0120ADC": 22858,
    "HWND": 98119,
    "<t": 63852,
    "\u0120Zhu": 68844,
    "shoot": 68392,
    "\u00e9\u0122\u0123\u00e6\u0138\u013b": 100066,
    "857": 20907,
    "\u0120Wishlist": 85857,
    "\u0120\u00d1\u0123\u00d1\u0122\u00d0\u00b0\u00d0\u00b2": 116631,
    "\u0120defaultValue": 20771,
    "\u0120approving": 77258,
    "\u0120LEFT": 22684,
    "\u0120sting": 55413,
    "\u0120Hyundai": 60940,
    "\u0120ger\u00c3\u00a7ekle\u00c5\u0141": 111655,
    "acas": 78283,
    "\u0120setuptools": 64897,
    "\u0120amour": 99253,
    "ToLocal": 97956,
    "\u0120back": 1203,
    "\u0120vacation": 20769,
    "\u0120\u00d1\u0122\u00d0\u00be\u00d0\u00b7\u00d1\u0122\u00d0\u00be\u00d0\u00b1": 113881,
    ".semantic": 95139,
    ".PI": 21010,
    "\u0120versions": 11028,
    "\u0120\u00d8\u00a7\u00d9\u0126\u00d9\u012a\u00d8\u00b2": 121706,
    "<|reserved_special_token_125|>": 128133,
    "\u00ce\u0142": 100888,
    "curve": 51151,
    "\u0120hunting": 23330,
    "\u00d1\u0125\u00d0\u00b2\u00d0\u00b0\u00d1\u0124\u00d0\u00b8\u00d1\u0123\u00d1\u0131": 112162,
    ".queue": 30698,
    "\u0120\u00eb\u0132\u013e": 107382,
    "riger": 65044,
    "formatter": 34041,
    "\u0120l\u00e1\u00bb\u00a5c": 120593,
    "\u0120Lafayette": 78281,
    "\u0120sv\u00c3\u00bdm": 113036,
    "\u0120nth": 56229,
    "\u0120csv": 13448,
    "\u0120\u00d0\u00ba\u00d0\u00b8\u00d1\u0123\u00d0\u00bb": 122007,
    "banks": 80046,
    "748": 20338,
    "\u0120solicitud": 96957,
    "\u00d9\u0126\u00d8\u00a9": 101428,
    "ERSION": 9694,
    "erek": 28726,
    "\u0120\u00d9\u0128\u00d8\u00b4\u00d8\u00a7\u00d9\u0128": 107223,
    "\u0120spike": 37393,
    "\u00e0\u00b9\u012a\u00e0\u00b8\u00b2\u00e0\u00b8\u0129\u00e0\u00b9\u0128": 116306,
    "_skip": 45930,
    "dont": 78125,
    "\u0120anatomy": 62690,
    "\u00e6\u00bf\u0122": 106266,
    "\u0120\u00e4\u00b8\u0129\u00e5\u0128\u0128": 118940,
    "\u0120\u00ec\u0131": 125906,
    ".texture": 47327,
    "Reader": 5172,
    ":'.$": 77084,
    "\u0120Cv": 53842,
    "Sell": 69633,
    "FileDialog": 27694,
    "\u0120exchanges": 30098,
    "\u0120Von": 43179,
    "an\u00c3\u00a7a": 92098,
    "\u0120a\u00c3\u00b1os": 27846,
    "\u0120roulette": 49211,
    "_mag": 49410,
    "\u0120setObject": 40083,
    "?\u010a\u010a": 1980,
    "\u0120n\u00c3\u00a2ng": 107514,
    "\u0120bouts": 96271,
    "\u0109Mono": 90661,
    "\u0120seized": 31589,
    "\u0120pr\u00c3\u00b3ximo": 71898,
    "\u0120Instructions": 39397,
    "_convert": 36010,
    "\u0109typedef": 32299,
    "\u0120Psychiat": 61764,
    "\u0109random": 84728,
    "\u0120\u00e8\u0129\u00aa\u00e5\u012c\u00a8\u00e7\u0136\u0141\u00e6\u012a\u0132": 98128,
    "_scores": 28297,
    "\u0120chubby": 94878,
    "\u0120summit": 30048,
    "early": 22928,
    ".CommandText": 40166,
    "\u0120Levin": 67977,
    "\u0120cater": 29068,
    "LY": 9109,
    "\u0120contar": 89805,
    "\u0120instructors": 54918,
    "iving": 2299,
    "uy\u00e1\u00bb\u0125n": 101695,
    "\u0120Minority": 71158,
    "\u0120professional": 6721,
    "-worker": 66616,
    "\u00db\u012e\u00d9\u0126\u00db\u012e": 120083,
    "\u00e0\u00a5\u0123\u00e0\u00a4\u0143": 110297,
    "\u00e2\u0122\u012e\u00d8\u00a7\u00d9\u0126": 109111,
    "\u0120\u00d0\u00bd\u00d0\u00b0\u00d0\u00bf\u00d1\u0122\u00d1\u0131\u00d0\u00bc": 117601,
    "340": 13679,
    "ok": 564,
    "\u0109table": 27579,
    "\u0120\u00d1\u0123\u00d0\u00bc\u00d0\u00b5\u00d1\u0122": 106749,
    "\u00e0\u00b8\u00aa\u00e0\u00b8\u00b2\u00e0\u00b8\u00a1\u00e0\u00b8\u00b2\u00e0\u00b8\u00a3\u00e0\u00b8\u0138": 104204,
    "uma": 13722,
    ">\".": 54046,
    "aska": 17309,
    "Describe": 75885,
    "Location": 4812,
    "astered": 88473,
    "italize": 35413,
    "\u0120Assertions": 60906,
    "__/": 48472,
    "_using": 76280,
    "\u0120transports": 69169,
    "\u0120finally": 5616,
    "l\u00c3\u00a1da": 117509,
    "uniq": 55498,
    "hung": 57932,
    ".Ag": 50950,
    "hiba": 79576,
    "Comments": 17828,
    "\u0120\u00d9\u0127\u00d8\u00ac\u00d9\u0127\u00d9\u012a\u00d8\u00b9\u00d8\u00a9": 117517,
    "ifty": 39724,
    "\u0120ceramics": 96806,
    "\u0120MyApp": 55116,
    "\u0120instantiation": 82228,
    "\u00d8\u00b1\u00d9\u012c": 100438,
    "\u0120H\u00c3\u00bck": 123223,
    "\u0120TypeName": 98825,
    "osci": 85728,
    "#\"": 56643,
    "GPU": 50991,
    "infos": 57065,
    "Appe": 85463,
    "\u0120regexp": 42977,
    "');": 4772,
    "_CSR": 82549,
    "vote": 30458,
    "-loaded": 79170,
    "\u0120rop": 49495,
    "\u0120UnityEditor": 76517,
    "&C": 70881,
    ".sin": 16719,
    "\u0120namedtuple": 81636,
    "_own": 83200,
    "AlgorithmException": 72486,
    "reatment": 35320,
    "\u0120map": 2472,
    "\u0120Coco": 84482,
    "\u00e5\u0131\u0139\u00e5\u012a\u00b0": 116576,
    "<": 27,
    "\u0120frankfurt": 83275,
    ".Sequential": 44923,
    "dealloc": 76760,
    "mj": 78930,
    "bucket": 31510,
    "DNS": 62188,
    "\u0120eine": 10021,
    "\u0120exclusion": 42308,
    "\u0120practical": 15325,
    "\u0120Union": 9323,
    "_node": 5194,
    "\u0120trang": 103763,
    "Hang": 58138,
    "\u0120\u00e6\u012a": 50534,
    "\u0120glaring": 72221,
    "STAT": 23417,
    "']):\u010a": 55802,
    "\u0120\u00c3\u00a7ek": 102565,
    "\u0120Slow": 39247,
    "\u0120Macron": 63401,
    "\u00d0\u00b0\u00d1\u0124\u00d0\u00b5\u00d0\u00b3\u00d0\u00be\u00d1\u0122": 83338,
    "\u0120y\u00c3\u00b6nelik": 110692,
    "125": 6549,
    "\u0120b\u00e1\u00bb\u0133": 105900,
    ".ComponentModel": 7249,
    "llib": 21408,
    "<View": 56818,
    "\u0120\u00e0\u00a4\u0135\u00e0\u00a4\u00b0": 109476,
    "\u0120interesting": 7185,
    "\u0120Employer": 75952,
    "<stdio": 38597,
    "MMdd": 71667,
    "\u0128\u0134": 101445,
    "\u0120===": 2093,
    "(\"\"": 39746,
    "Sac": 94528,
    "\u00d1\u012e\u00d0\u00be\u00d0\u00bc\u00d1\u0125": 105746,
    "\u0120DataAccess": 69655,
    "\u0120LIS": 100126,
    "\u00ed\u0138\u012a\u00ea\u00b3\u0142": 122196,
    "branch": 18424,
    "\u00ce\u00b5\u00ce\u00b2": 114544,
    "\u0120\u010a\u0120\u0120\u0120\u0120\u0120\u0120\u0120\u0120\u0120\u0120\u0120\u0120\u010a": 85013,
    ".ol": 91465,
    "imei": 98961,
    "recognized": 47167,
    "\u0120shed": 25351,
    "/pdf": 48851,
    "\u0120\"_": 9177,
    "\u0120\u00d0\u00b2\u00d0\u00be\u00d0\u00bb": 108092,
    "\u0120\u00e5\u00bc\u00b5": 125339,
    "\u00e5\u0127\u00ac\u00e5\u0133\u012c": 114969,
    "_frontend": 94933,
    "\u00d8\u00b1\u00d9\u012c\u00d8\u00b9": 127904,
    "_instr": 63674,
    "oundingBox": 58604,
    "\u0120\u00d0\u00b1\u00d0\u00bb\u00d0\u00b0": 105749,
    "ensburg": 78029,
    "\u0120Unity": 22462,
    "toHaveBeenCalledWith": 57247,
    "\u0120serotonin": 77130,
    "\u0120affair": 31017,
    "\u0120Madame": 84276,
    "\u00ce\u0137\u00ce\u013c": 119597,
    "\u00c4\u013dl": 100599,
    "Granted": 56581,
    "\u00e5\u00b0\u012f": 104314,
    "\u0120\u00d1\u0123\u00d0\u00bb\u00d1\u0125": 101156,
    "\u0109tab": 59249,
    "\u0120Billion": 66809,
    "_workspace": 76660,
    "\u00e7\u0143\u012d": 119049,
    "\u0120Overwatch": 73438,
    "\u0120nec": 19591,
    "\u0120thrott": 81072,
    "uforia": 70854,
    "<|reserved_special_token_215|>": 128223,
    "\u0120ioutil": 44244,
    "806": 22397,
    "Center": 9577,
    "\u0120Alibaba": 55464,
    "Minnesota": 93465,
    "-Le": 47268,
    "\u0120sufferers": 96460,
    "\u0120SPEED": 74943,
    "Tho": 99247,
    "20": 508,
    "\u0120getter": 34529,
    "\u00da\u00a9\u00d8\u00a7\u00d8\u00b1\u00d8\u00a7\u00d9\u0128": 126607,
    "ogenic": 29569,
    "\u00e8\u00b5\u0126": 52225,
    "ql": 1498,
    "\u0120tik": 87272,
    "\u0120becer": 125866,
    "Approved": 60751,
    "licants": 62932,
    "_Se": 28018,
    "\u00e0\u00b9\u0129\u00e0\u00b8\u013b\u00e0\u00b8\u0140": 127106,
    "_spot": 85866,
    "\u0120storm": 13766,
    "\u0120\u00d0\u00a4\u00d0\u00be\u00d1\u0122": 127745,
    "\u0120LES": 97529,
    "PRETTY": 97516,
    "\u00e0\u00b8\u00ab\u00e0\u00b8\u013b\u00e0\u00b8\u0136": 113189,
    "\u0120lord": 38031,
    "\u00e6\u012b\u012d\u00e6\u013e\u00ba\u00e5\u0131\u00b7": 76455,
    "\u00e3\u0125\u012d\u00e3\u0125\u012d": 102602,
    "\u0120Lif": 65863,
    "CAST": 35263,
    "\u00e6\u012b\u0122\u00e4\u00bb\u00a5": 105123,
    "Shortly": 79143,
    "\u0120alphanumeric": 100079,
    "soc": 58121,
    "\u0120\u00d0\u00be\u00d1\u0126\u00d0\u00b8\u00d1\u0128\u00d0\u00b8": 122869,
    "dsl": 82974,
    "}}\">\u010a": 43279,
    "\u0120\u00d0\u00bc\u00d0\u00b0\u00d1\u0123\u00d0\u00bb\u00d0\u00be": 117477,
    "088": 25620,
    "\u0120avg": 20291,
    "\u0120seriousness": 75481,
    "iglia": 81096,
    "\u0120populist": 70068,
    "annels": 6819,
    "\u0120'\".": 65150,
    "\u00d8\u00a8\u00d9\u012c\u00d8\u00b1\u00d8\u00a9": 119048,
    "civil": 94230,
    "\u0120yyyy": 59089,
    "\u0120\u00d9\u00be\u00d8\u00b4\u00d8\u00aa": 120662,
    "\u0120\u00d0\u0133\u00d0\u00be\u00d0\u00b3": 112654,
    "\u0120\u00d8\u00a7\u00d9\u0127\u00db\u012e\u00d8\u00b1": 122742,
    "\u00e5\u00b9\u00bc": 113261,
    "lpVtbl": 56238,
    "\u0120suit": 7937,
    "\u00d0\u00be\u00d0\u00b2\u00d0\u00b0\u00d1\u0127": 116130,
    "\u0120\u00d0\u00b1\u00d1\u0125\u00d0\u00b4\u00d0\u00b5\u00d1\u0124": 69923,
    "Degrees": 66219,
    "\u0120v\u00c3\u00bdj": 122949,
    "\u0120\u00e0\u00a4\u00b8\u00e0\u00a4\u00ae\u00e0\u00a4\u00b8": 112460,
    "\u0120mong": 75642,
    "\")\u010a": 1158,
    "_COLOR": 14810,
    "\u0120Divider": 48557,
    "\u0120Slide": 44464,
    "\u00cf\u0125\u00ce\u00ba\u00ce\u00b5\u00cf\u0127": 109869,
    "\u00eb\u00b3\u00b4\u00ed\u0139\u013a": 111070,
    "\u00c3\u013c": 71594,
    "styled": 23696,
    "\u0120conferred": 91670,
    "tha": 23218,
    "));\u010a\u010a": 3317,
    "\u0120frequencies": 34873,
    "\u0120tomto": 108716,
    "STA": 81978,
    "<int": 4252,
    "_calibration": 100186,
    "\u0120pledges": 79118,
    "\u0120s\u00e1\u00bb\u0143a": 109289,
    "Smoke": 77980,
    "\u0120keep": 2567,
    "\u0120conservation": 29711,
    "jourd": 69572,
    "ungen": 11856,
    "\u0120Pavel": 79369,
    "\u0120terse": 51637,
    "\u0120Audio": 12632,
    "\u0120\u00d8\u00aa\u00d9\u0127": 101705,
    "\u00d9\u0124\u00d9\u0126": 101471,
    "(indexPath": 95845,
    "\u0120Merr": 48961,
    "\u00e8\u0133\u00a3": 114840,
    "\u00d0\u00bc\u00d0\u00be\u00d1\u0122": 112695,
    "\u0120IMPLIED": 13163,
    "\u0120uchar": 62746,
    "\u0120\u00ec\u012c": 80307,
    ".Models": 10572,
    "inverse": 62582,
    "\u00e4\u00bf\u00a1\u00e7\u0136\u00a8": 122975,
    "\u0120GI": 49609,
    "\u0120Progress": 16418,
    ".getFloat": 91672,
    "_visitor": 82464,
    "\u00e6\u00ae\u00b5": 38574,
    "\u00a7\u00e8\u00a1\u012e": 59622,
    "ABC": 26484,
    "Pres": 14704,
    "finished": 12402,
    "SON": 2770,
    "\u0109Gtk": 76459,
    "\u0120Madd": 44637,
    "NDAR": 78741,
    "(MediaType": 47648,
    "ppy": 35063,
    "\u0120REP": 50360,
    "_unpack": 55989,
    "\u0120Dans": 46706,
    "][\"": 10069,
    "prs": 85405,
    "alysis": 9270,
    ",input": 55444,
    "\u0120jour": 9880,
    "\u0120Trinidad": 86230,
    "DATE": 7242,
    "stateProvider": 80449,
    "Regular": 31504,
    "\u00d0\u00b0\u00d0\u00bd\u00d1\u012e": 102515,
    "\u0120\u00cf\u0122\u00cf\u0123\u00ce\u00b1\u00ce\u00b3\u00ce\u00bc\u00ce\u00b1": 119914,
    "\u0120seins": 55428,
    "\u0120\u00ec\u0138": 80402,
    "\u0120sal": 4371,
    "Api": 6700,
    "\u0120respect": 5201,
    "ates": 988,
    "\u0120registers": 25771,
    "abs": 3518,
    ":::::::::::": 110819,
    "\u0120vrouw": 37479,
    "\u00c3\u00b1os": 18720,
    "\u0120couch": 27240,
    "\u0120converter": 28157,
    "\u0120\u00ec\u013f\u00b4\u00eb\u0142\u0129\u00ea\u00b2\u012e": 116816,
    "Peripheral": 88504,
    "\u00d9\u012a\u00d8\u00aa\u00db\u012e": 111713,
    "\u0120A\u00c5\u0141": 121858,
    "\u0120severity": 31020,
    "_LOGIN": 39414,
    "************": 103173,
    "\u0120Adult": 22919,
    "__)\u010a": 24010,
    "_O": 2281,
    "\u0120\u00d0\u00bd\u00d0\u00b5\u00d1\u0123\u00d0\u00ba\u00d0\u00be\u00d0\u00bb\u00d1\u012e\u00d0\u00ba\u00d0\u00b8\u00d1\u0127": 121368,
    "-we": 62441,
    "\u012a\u00eb\u012d\u00a4": 20541,
    "\u00d1\u0126\u00d1\u0122\u00d0\u00b0": 121293,
    "\u0120srd": 118484,
    "/event": 41863,
    "=*/": 82913,
    "\u00e3\u0122\u0122\u00e3\u0122\u0122\u0120\u00e3\u0122\u0122": 104135,
    "CASCADE": 86931,
    "\u0120funcs": 77971,
    "/photo": 52492,
    "\u0120dile": 44261,
    "\u00e5\u00b2\u0139\u00e4\u00bd\u012f": 118469,
    "Cour": 44349,
    "\u0120\u00eb\u0131\u013b\u00ec\u0137\u012a": 113401,
    "\u00e0\u00a5\u012f\u00e0\u00a4\u00af\u00e0\u00a4\u0137": 102107,
    "\u0120hintText": 67328,
    "_CITY": 86410,
    "-login": 36148,
    "imps": 67758,
    "\u0120\u00d0\u00b3\u00d0\u00be\u00d0\u00b4\u00d1\u012d": 120649,
    "_ERR": 10076,
    "UIScreen": 65419,
    "comboBox": 69686,
    "\u0120Sister": 48368,
    "\u0120Reese": 82639,
    "\u0120gentleman": 46229,
    "(productId": 99062,
    "\u0109reader": 62577,
    "\u0120keypoints": 88992,
    "\u0120Garland": 80074,
    "\u0120fusion": 37608,
    "\u0120campos": 51369,
    "\u0120rodiny": 125794,
    "\u0120\u00cf\u0129\u00cf\u0123\u00ce\u00b7\u00cf\u0125\u00ce\u00b9\u00ce\u00bc\u00ce\u00bf\u00cf\u0122\u00ce\u00bf\u00ce\u00b9": 116175,
    "\u0120Hos": 65090,
    "andid": 4654,
    "\u0120Kuzey": 121488,
    "\u0120\u00e5\u013d\u013d": 107730,
    "\u00e3\u0125\u0123": 78459,
    "\u0120reuse": 27068,
    "(range": 23147,
    "\u0120seu": 20607,
    "\u0120Dean": 25028,
    "afari": 60739,
    "([(": 59690,
    "ahren": 21865,
    "Article": 17064,
    "\u0120Depend": 99428,
    "\u0120homosexuality": 53451,
    "59": 2946,
    "iphy": 61330,
    "leyici": 123414,
    "\u0120\u00e0\u00a4\u013c\u00e0\u00a4\u00b2\u00e0\u00a4\u00a4": 116920,
    "ONGODB": 93701,
    "\u0120setup": 6642,
    "\u0120gm": 38979,
    "\u0120hemat": 96849,
    "achment": 9064,
    "exception": 7959,
    "\u0120bytecode": 76229,
    "\u0120\u00d1\u0125\u00d1\u0129\u00d0\u00b0\u00d1\u0123\u00d1\u0124\u00d0\u00b8\u00d0\u00b5": 124499,
    "\u0120smlouvy": 116182,
    "\u0120\u00d0\u00b1\u00d0\u00be\u00d0\u00bb\u00d1\u012e\u00d1\u012a": 103816,
    "oc": 511,
    "\u0120Pussy": 47945,
    "_Checked": 49718,
    "\u00e3\u0125\u012d\u00e3\u0125\u00a1": 120292,
    "\u00ce\u00bd\u00cf\u0130": 121487,
    "\u0120burden": 23104,
    "\u0120IRepository": 67576,
    "\u0120faker": 65186,
    "\u0120redis": 21540,
    "531": 20823,
    "\u00d9\u0130\u00d8\u00b3": 113519,
    ".DataBindings": 84601,
    "ahr": 15464,
    "\u0120\u00d1\u0126\u00d1\u0125\u00d0\u00bd\u00d0\u00b4\u00d0\u00b0\u00d0\u00bc\u00d0\u00b5\u00d0\u00bd\u00d1\u0124": 127417,
    "CTS": 95837,
    "Io": 43899,
    "\u0120useForm": 92026,
    "Unsigned": 57521,
    "\u0120Gardner": 57729,
    "EPHIR": 82670,
    "({\u010d\u010a": 19276,
    "_HEL": 70335,
    "\u0120impuls": 97879,
    "\u0120Fist": 82519,
    "=\\\"\"": 42545,
    "adf": 97389,
    "registr": 49564,
    "_RADIO": 75515,
    "\u0120\u00d1\u0124\u00d0\u00b8\u00d1\u0127": 109071,
    "449": 21125,
    "\u00ef\u00bd\u00a4": 100516,
    "Reviews": 46306,
    "formats": 64582,
    "\u0120rebels": 36723,
    "\u0120Roth": 37512,
    "\u0120CHANNEL": 59856,
    "rom\u00c4\u013d": 110130,
    "\u0120kvinde": 79592,
    "\u00c2\u0142\u00d0\u00b3": 123354,
    "ereotype": 16119,
    "\u0120guitar": 17418,
    "\u0120doInBackground": 72940,
    "\u0120collusion": 69437,
    "\u0120central": 8792,
    "\u0120estudio": 80036,
    "\u0120missiles": 34441,
    "agina": 81701,
    "_InitStructure": 61199,
    "\u00ea\u00b9\u00a8": 123849,
    "-monitor": 92734,
    "beits": 65102,
    "\u0120Sund": 37902,
    "\u0120Kund": 93987,
    "\u0109W": 17749,
    "Ide": 75344,
    "\u00e6\u00b1\u012b": 108850,
    "_tracking": 67205,
    "\u0120\u00ec\u0140\u0127\u00eb\u012d\u012a\u00eb\u012d\u00a4": 119519,
    "===": 8880,
    "_CONNECTED": 70534,
    "WEEN": 45448,
    "_IGNORE": 51074,
    "\">\u00c3\u0139</": 87324,
    "\u0120at\u00c3\u00a9": 39583,
    "Touches": 84841,
    "\u0120hmac": 84456,
    "\u0120\u00d1\u0127\u00d0\u00be\u00d0\u00b7\u00d1\u0131": 111645,
    "\"\",\u010a": 40780,
    "\u0120rigid": 33956,
    "rectangle": 56416,
    "Raw": 20613,
    "\u0120mtx": 82622,
    "\u0120etkisi": 121875,
    "osloven": 114691,
    "\u0109offset": 41768,
    "\u0120assays": 99592,
    "\u0120Ideas": 23748,
    "\u00ed\u013e\u00b4": 117467,
    "\u0120Maker": 41628,
    "aver": 7403,
    "\u0120handful": 23810,
    "(con": 18350,
    "bohydr": 34658,
    "\u0120\u00ec\u00b1\u0127": 110080,
    "\u0120nguy": 112208,
    "_Max": 59943,
    "OutOfBoundsException": 65909,
    "iffs": 19383,
    "ITION": 7237,
    "\u0120\u00e0\u00a4\u0142": 107219,
    "\u0120\u00cf\u0129\u00cf\u012b": 111313,
    "\u00d0\u00bd\u00d0\u00b8\u00d1\u0128\u00d1\u0138": 113014,
    "ulatory": 38220,
    "_appro": 37157,
    "\u0120\u00ec\u00a2\u012e": 122691,
    "\u0109\u010a": 1602,
    "/search": 24042,
    "off": 1885,
    "\u0120m\u00c3\u00bcd\u00c3\u00bcr": 127027,
    "\u0120honest": 10978,
    "\u0120HG": 70497,
    "\u0120CONSTRAINT": 94863,
    "Bean": 10654,
    "Acknowled": 91336,
    "\u00e0\u00b8\u0143\u00e0\u00b8\u0143\u00e0\u00b8\u0123": 103863,
    "\u0120getContext": 67275,
    "\u0120\u00d8\u00aa\u00d8\u00ac\u00d9\u0129\u00db\u012e\u00d8\u00b2\u00d8\u00a7\u00d8\u00aa": 121838,
    "\u0120amplifier": 61166,
    "Linear": 32998,
    ".randomUUID": 62942,
    "\u0120\u00d0\u00b1\u00d1\u0125\u00d0\u00b4\u00d0\u00b8\u00d0\u00bd\u00d0\u00ba\u00d1\u0125": 126359,
    "\u0120Jeb": 71196,
    "\u0120\u00d0\u00bf\u00d0\u00bb\u00d0\u00be\u00d0\u00b4": 119916,
    "_pick": 59268,
    "**\u010a\u010a": 57277,
    "\u00d8\u00a7\u00d9\u012a\u00db\u012e": 116143,
    "\u0120All": 2052,
    "\u0120NN": 45778,
    "_fake": 57981,
    "\u0109cb": 64910,
    "\u0120Destructor": 60168,
    "\u00c2\u0142\u00d0\u00af": 114865,
    "conversation": 62737,
    "CHILD": 100219,
    "\u0120\u00d0\u00bf\u00d0\u00bb\u00d0\u00be\u00d1\u012b": 111015,
    "\u0120Ka": 23109,
    "productName": 89526,
    "ictory": 91133,
    "RESULT": 14430,
    "\u0120\u00d1\u0124\u00d0\u00be\u00d0\u00bc\u00d1\u0125": 103175,
    "rganization": 69464,
    "\u00d8\u00ac\u00d8\u00a9": 105009,
    ".setColumns": 97514,
    "\u0120\u00d1\u0125\u00d1\u0123\u00d0\u00bb\u00d1\u0125\u00d0\u00b3": 124072,
    "_singleton": 83219,
    "\u0120denn\u00c4\u013d": 125574,
    "\u00e3\u0123\u00be\u00e3\u0123\u013c": 126843,
    "\u0120Within": 25218,
    "(forKey": 46057,
    "\u0120influx": 53952,
    "/********": 67821,
    "\u0120empir": 38969,
    "\u0120\u00d9\u0124\u00d8\u00b1\u00d8\u00a7\u00d8\u00b1": 102940,
    "\u0109Returns": 77186,
    "rage": 48468,
    "\u0109mysql": 58055,
    "recision": 21759,
    "\u0120navigationOptions": 100221,
    "rians": 36268,
    "atemala": 54550,
    "Common": 11076,
    "\u0120\u00c3\u00a7a": 39043,
    "trad": 48126,
    "45": 1774,
    "\u0120substit": 32434,
    "\u0120vern": 72693,
    "riterion": 12614,
    "\u0120\u00da\u00a9\u00d9\u012a\u00da\u0128": 112433,
    "\u0120replacing": 25935,
    "_UFunction": 95649,
    "SOC": 80168,
    "ecedor": 66135,
    "\u0120guru": 60526,
    ".ResponseWriter": 38608,
    "sockets": 77829,
    ":]\u010a\u010a": 65731,
    "\u00e8\u00b4\u0143": 78272,
    "\u0120mapping": 13021,
    "\u0120\u00d0\u00b4\u00d0\u00be\u00d0\u00b2\u00d0\u00be\u00d0\u00bb\u00d1\u012e\u00d0\u00bd\u00d0\u00be": 116362,
    "\u0120\u00e9\u0125\u00bd": 117303,
    "Iraq": 97818,
    "ViewSet": 77526,
    "\u0120entail": 87092,
    "\u0120simplex": 92751,
    "\u0120\u00eb\u00a8": 103273,
    "\u0120\u00d1\u012f\u00d0\u00bb\u00d0\u00b5\u00d0\u00ba": 105447,
    "\u0120d\u00c4\u013dl": 106597,
    "_Thread": 97176,
    "\":\"": 3332,
    "\u00d9\u012a\u00db\u012e\u00d8\u00af": 109239,
    "UNG": 61102,
    "\u0120\u00d0\u00b0\u00d1\u0123": 113371,
    "\u00e0\u00b8\u00b0\u00e0\u00b9\u0123\u00e0\u00b8\u013b\u00e0\u00b8\u013b": 116647,
    "680": 17814,
    "\u0120Pul": 35962,
    ".unknown": 94951,
    "\u0120\u00d9\u0128\u00d8\u00b8\u00d8\u00b1": 104005,
    "863": 26051,
    ".confirm": 34505,
    "Tag": 5786,
    "\u0120bonds": 27460,
    "\u0120p\u00c5\u013be": 115726,
    "\u0120\u00cf\u0126\u00cf\u0123\u00ce\u00bf": 124171,
    "\u00ef\u00bc\u012e\u00e8\u00a6\u0123": 114985,
    "\u0120bulunmaktad\u00c4\u00b1r": 111040,
    "scheduled": 94685,
    ".between": 97483,
    "\u0120Fo": 32757,
    "tran": 44469,
    "\u0120pwm": 65651,
    "\u00c4\u00b0M": 108479,
    "\u00e5\u00bd\u00b1\u00e5\u0135\u012f": 109829,
    "\u0120Dealers": 79289,
    "\u0120Funk": 40710,
    "toBeDefined": 68638,
    "\u00e8\u0125\u00bd\u00e6\u00ba\u0132": 126369,
    "\u0120bargaining": 55309,
    "Marvel": 83676,
    "asuring": 69774,
    ".RemoveAt": 55083,
    "\u0120Replacement": 47312,
    "\u0120rit": 21889,
    "\u00e3\u0122\u0123\u00e4\u00bb\u012c": 115515,
    "ponent": 1166,
    "creates": 59619,
    "primaryKey": 55613,
    "'action": 91655,
    "wstring": 44990,
    "mares": 63636,
    "\u0120Angeles": 12167,
    "\u00e6\u00ae\u012c": 114491,
    "rnd": 65969,
    "-month": 23086,
    "\u00be": 122,
    "uja": 89808,
    "\u0120dataGridViewCellStyle": 27539,
    "allel": 8116,
    "\u00d0\u00b5\u00d1\u0122\u00d0\u00b8\u00d1\u0123\u00d1\u0124\u00d0\u00b8": 110043,
    "\u0120spine": 35776,
    "\u0120\u00d1\u0125\u00d0\u00b4\u00d0\u00b8\u00d0\u00b2": 126371,
    ".RUN": 65843,
    "\u00e4\u00b9\u00b0": 106191,
    "\u0120Vin": 21016,
    "\u0120migrate": 45666,
    "218": 13302,
    "mination": 33196,
    "_sim": 18819,
    "\u0120dansk": 50420,
    "\u00ef\u00bc\u013c\u010a": 29411,
    "\u0120\u00d1\u0131\u00d0\u00b2": 102020,
    "\u0120aup": 98544,
    "\u00c3\u00bcnde": 98410,
    "\u0120Ens": 58968,
    "Around": 44680,
    "-State": 87615,
    "\u0120Attacks": 67242,
    "\u0120kijken": 79057,
    "\u0120cultured": 89948,
    "')}}\">\u010a": 55886,
    "arra": 80130,
    "\u0120zah\u00c3\u00a1j": 119086,
    "\u00ef\u00bc\u012b\u00e3\u0122\u0124\u010a": 123505,
    "STYPE": 78159,
    "\u0120Church": 9441,
    "\u0120humble": 39612,
    "(Document": 61980,
    "\u0120\u00ce\u0133\u00ce\u00bb": 121809,
    "none": 6836,
    "lessons": 73412,
    "\u0120waive": 91383,
    "\u0120browsers": 33957,
    "glomer": 76146,
    "_Helper": 68928,
    "\u00d0\u00be\u00d0\u00bb\u00d0\u00b8\u00d1\u0124": 126151,
    "\u00c4\u00b1nma": 125763,
    "IDL": 51038,
    "\u0120Focus": 26891,
    "\u0120incl": 18916,
    "\u0120fractured": 80208,
    ".\"',": 62244,
    "oldt": 94144,
    "262": 14274,
    "_progress": 28299,
    "\u00ec\u013f\u00b4\u00ec\u012c\u00a4": 107128,
    "byterian": 80436,
    "hum": 28400,
    "\u0120n\u00c3\u00b3": 101176,
    "avin": 35716,
    "Menus": 79044,
    "Telephone": 68491,
    "\u0120rhyme": 98034,
    "\u0120interpretations": 58689,
    "\u0120Important": 44921,
    "RNA": 31820,
    "UE": 2279,
    "\u0120\u00d0\u00bc\u00d0\u00b5\u00d1\u0122\u00d0\u00b5\u00d0\u00b6": 120957,
    "\u0120Chains": 82869,
    "\u0120respond": 6013,
    ">Select": 63505,
    "\u0120qui": 7930,
    ")</": 12817,
    "\u00ef\u00bc\u012b\u00ef\u00bc\u012a": 116729,
    "Install": 25718,
    "ynom": 62220,
    "alice": 64295,
    "CB": 13276,
    "535": 20618,
    "Fi": 23550,
    "\u00e4\u00b8\u0129\u00e5\u0128\u0128": 110743,
    ".clientX": 73569,
    "unchecked": 32784,
    "\u0120Bod": 45702,
    "/block": 61081,
    "_city": 26019,
    "_Manager": 48673,
    ".exe": 19963,
    "\u00e3\u0125\u00bc\u00e3\u0124\u00af": 105048,
    "\u0120th\u00c6\u00b0\u00e1\u00bb\u013fng": 102127,
    "\u00e6\u0131\u00b4": 110238,
    "GLIGENCE": 29481,
    "\u0120Been": 51678,
    "\u0120\u00d0\u00bd\u00d0\u00b5\u00d0\u00bf\u00d1\u0122\u00d0\u00b0\u00d0\u00b2\u00d0\u00b8\u00d0\u00bb\u00d1\u012e": 126431,
    "Unmount": 60639,
    ".SetValue": 43826,
    "\u0120make": 1304,
    "\u0120pr\u00c3\u00a8s": 84364,
    ".array": 7382,
    "\u0120motiv": 12521,
    "\u0120haunted": 57775,
    "(Keys": 58823,
    "NotFound": 10588,
    "Intent": 11797,
    "/Area": 86441,
    "\u0120ValidationError": 54129,
    ".UserInfo": 97056,
    "\u0120suction": 84878,
    "today": 31213,
    "'))": 3874,
    "\u0120Babylon": 64678,
    "\u0120GUIContent": 83620,
    "education": 37838,
    "elseif": 27107,
    "\u00d1\u0123\u00d0\u00b5": 102121,
    "\u0120Claud": 62412,
    "Prime": 33406,
    "navbar": 10040,
    "\u00d9\u0130\u00d8\u00b9": 108579,
    "[ii": 31924,
    "(ConfigurationManager": 99148,
    ".getLocal": 67041,
    "\u0120studi": 106204,
    "\u00e7\u00bc": 25906,
    "Clear": 14335,
    "nton": 56453,
    "\u00d0\u00b8\u00d0\u00b2\u00d0\u00b0\u00d0\u00bd\u00d0\u00b8\u00d1\u0131": 121562,
    "\u0120thang": 122036,
    "\u0120sa\u00c4\u0141lam": 116355,
    "\u0120string": 925,
    ".core": 4976,
    "\u0120SJ": 69323,
    "thenReturn": 27940,
    "\u0120VK": 22285,
    ".EXIT": 65323,
    "\u0120Costs": 64141,
    "]int": 64125,
    "\u0120Skywalker": 77762,
    "397": 20698,
    "\u0120Deutschland": 46079,
    "\u0120llevar": 70680,
    "\u0120spree": 79728,
    "\u0120Scots": 75367,
    "\u0120AssemblyCopyright": 95117,
    "\u0120overloaded": 75691,
    "\u00e0\u00a5\u012a,": 101411,
    "_quick": 83194,
    ".UIManager": 56973,
    "\u00ce\u00af\u00cf\u012b\u00ce\u00bd": 110131,
    "DEFINE": 36972,
    "uel": 4088,
    "\u00e5\u013f\u0122": 41723,
    "\u00e6\u00ac\u00a3": 122987,
    "darwin": 99865,
    "consult": 49512,
    "@index": 46862,
    "\u0109edit": 87726,
    "\u0120dishonest": 60016,
    "(jq": 97987,
    "\u0120Operation": 17145,
    "enefit": 89729,
    "\u0120passengers": 22961,
    "\u0120rollback": 61514,
    "\u0120member": 4562,
    "\u0120@\"": 7243,
    "_entries": 27184,
    "\u0120Donna": 47863,
    "\u0120attach": 15866,
    "_normalize": 81907,
    "\u0120TERM": 89652,
    "\u0120stalled": 68941,
    "\u0120Show": 7073,
    "\u0120kom": 11129,
    "coordinates": 35839,
    "\u00e8\u012e\u0124": 122447,
    "<|reserved_special_token_172|>": 128180,
    ")})": 99429,
    "_destroy": 18557,
    "\u0120actress": 24577,
    "\u00eb\u00a8\u00b8\u00eb\u012d\u012a": 111341,
    "clamp": 86553,
    "_reaction": 97731,
    "\u00cf\u012b\u00cf\u0124": 101459,
    "plain": 21435,
    "_genre": 92422,
    ".Actions": 73144,
    "\u00e0\u00a5\u0124\u00e0\u00a4\u00a1": 122930,
    "\u0120interiors": 74564,
    "\u0120dumb": 30355,
    "\u0120\u00d1\u0123\u00d0\u00be\u00d1\u0123\u00d1\u0124\u00d0\u00b0\u00d0\u00b2\u00d0\u00bb\u00d1\u0131\u00d0\u00b5\u00d1\u0124": 114551,
    "\u0120prevState": 76046,
    ")]\u010d\u010a": 30629,
    "\u0120democrat": 97167,
    "du\u00c4\u0141": 106709,
    "\u0120\u00c5\u013b\u00c3\u0143j": 111741,
    "\u0120p\u00c3\u00a1": 65845,
    "UDP": 42748,
    "GetType": 59164,
    "annies": 94342,
    "\u0120fittings": 70026,
    "\u0109BOOL": 45106,
    "\u00c2\u0142\u00d9\u0127": 124817,
    "\u0120initiator": 99140,
    "conom": 45317,
    "Interactive": 72786,
    "lage": 56854,
    "\u00d1\u0122\u00d1\u0125\u00d0\u00b3": 65489,
    "_CBC": 91864,
    "queueReusableCell": 39659,
    "\u0120Regel": 98604,
    "\u0120bola": 98287,
    "\u0120currency": 11667,
    "\u00d8\u00b6\u00d8\u00a7\u00d9\u0128": 118137,
    "\u00b4\u013f": 104074,
    "spaces": 45385,
    "_en": 6337,
    "-note": 68338,
    "pd": 15720,
    "notations": 14632,
    "\u0120silenced": 92781,
    "\u0120\u00d9\u00be\u00db\u012e\u00d8\u00a7\u00d9\u0127\u00d8\u00a8\u00d8\u00b1": 124316,
    "-too": 94679,
    "\u00ec\u0139\u0128\u00ec\u013f\u00b4": 117226,
    "\u0120wires": 36108,
    ".buf": 45585,
    "207": 12060,
    "\u0120baja": 88748,
    "\u0120support": 1862,
    "\u00e5\u012f\u0122": 103051,
    "BOUND": 80851,
    "\u00d8\u00b4\u00d8\u00a7\u00d9\u0129": 110586,
    "locale": 14824,
    "\u0120trim": 11259,
    ".Named": 58972,
    "173": 11908,
    "\u00e0\u00b8\u013d\u00e0\u00b8\u00a3\u00e0\u00b8\u00b0\u00e0\u00b8\u00aa\u00e0\u00b8\u013c": 123161,
    "\u0120_(\"": 25853,
    "_percent": 30983,
    "(d": 1528,
    "\u0120sacks": 57871,
    "\u00e6\u012e": 30775,
    "-prev": 68112,
    "]][": 28819,
    "\u0120necklace": 55547,
    "\u0120Joan": 51206,
    "\u0120shook": 36014,
    "aturdays": 70804,
    ".DateFormat": 96954,
    "\u0120tx": 10055,
    "-standing": 56703,
    "\u0120sage": 39361,
    "(ids": 44548,
    "\u0120widening": 85500,
    "_inverse": 64433,
    ".postValue": 98449,
    ".icon": 21677,
    "ativos": 64545,
    "\u0120surre": 25139,
    "RYPTO": 60694,
    "\u0120Lam": 33794,
    "Transport": 28660,
    "\u0120\u00d8\u00a7\u00d8\u00b3\u00d8\u00aa\u00d8\u00a7\u00d8\u00af": 121375,
    "\u0120streamed": 74345,
    "\u0120\u00d9\u0124\u00d8\u00b7": 105077,
    "UsageId": 68080,
    "\u0120honeymoon": 84893,
    "\u0120vending": 86144,
    "\u0120\u00d1\u0123\u00d0\u00b2\u00d1\u0131\u00d0\u00b7": 104764,
    "Virginia": 81696,
    "\u0120Debian": 57707,
    "clarsimp": 79260,
    "Circular": 83540,
    "Groups": 22962,
    "\u00ce\u00b5\u00cf\u0124": 100624,
    "\u0120Russo": 93991,
    "\u0120nedok": 127855,
    "dge": 92791,
    "\u0120\u00ec\u0139\u0128\u00ec\u0139\u012a\u00eb\u012d\u00a4": 113298,
    "SELECT": 4963,
    "\u0120behand": 73302,
    "\u0120horny": 38307,
    "(Roles": 81416,
    "\u0120journal": 8486,
    "_Man": 72728,
    ".MiddleRight": 75434,
    "\u0120manslaughter": 89339,
    "onian": 76591,
    "\u0120mAdapter": 63976,
    "Wall": 33697,
    "\u0120\u00e5\u00b1\u00b1": 105731,
    "\u00d1\u012f\u00d1\u0124\u00d0\u00be\u00d0\u00bc\u00d1\u0125": 104411,
    "\u0120per\u00c3\u0143": 77182,
    "redo": 64661,
    ".private": 62703,
    "$('": 37188,
    "occup": 24719,
    "*\u010d\u010a": 27064,
    "<tr": 11526,
    "\u00c2\u0142B": 108693,
    ".'),\u010a": 81381,
    "\u0120\u00c4\u0132\u00c3\u00b4ng": 108625,
    "\u0120{(": 33898,
    "\u0120piano": 27374,
    "\u0120motivo": 79564,
    "\u0120fiscal": 20323,
    "Invalid": 8087,
    "\u0120signaling": 43080,
    ".include": 30745,
    "(\"//*[@": 82709,
    "\u00a3\u00bc": 36246,
    "\u0120pact": 60821,
    "ULT": 3616,
    "\u0109job": 69677,
    "\u0120\u00d0\u00b7\u00d0\u00bd\u00d0\u00b0\u00d1\u0129\u00d0\u00b5\u00d0\u00bd\u00d0\u00bd\u00d1\u0131": 116884,
    ".smtp": 95277,
    "\u0120d\u00c3\u00b3": 77514,
    "\u0120activated": 22756,
    ".pack": 21472,
    "\u00d1\u0124\u00d0\u00b8\u00d0\u00bd": 105558,
    "\u0120pilgr": 55698,
    "\u00ea\u00b2\u0142\u00eb\u012d\u00a4": 125684,
    "\u00e0\u00b9\u0122\u00e0\u00b8\u00a7\u00e0\u00b8\u0143\u00e0\u00b8\u00a3": 114749,
    "\u0120fd": 12696,
    "\u0120illumin": 44087,
    "ptype": 73914,
    "\u0120exclusively": 24121,
    "\u00e8\u00b0\u0135": 126589,
    "\u00e0\u00b8\u00aa\u00e0\u00b8\u00b3": 102092,
    "\u0120fair": 6762,
    ".track": 41894,
    "\u0120H\u00c3\u00b6": 71364,
    "\u0120trouv\u00c3\u00a9": 100162,
    "lilik": 112770,
    "erse": 113305,
    "(canvas": 37306,
    "\u0120cargo": 26735,
    "\u00d8\u00ab\u00d8\u00a7\u00d8\u00b1": 110652,
    "\u0120\u00d0\u00ba\u00d0\u00be\u00d0\u00bb\u00d0\u00b8\u00d1\u0129": 105305,
    "\u00e5\u012c\u0142\u00e8\u00bd\u00bd": 59914,
    "\u0120Walk": 12839,
    "\u0120dn": 48588,
    "\u0120h\u00c3\u00a2l\u00c3\u00a2": 125977,
    "\u0120\u00ce\u00bc\u00ce\u00b9\u00ce\u00ba": 115458,
    "\u00e9\u0129\u0133\u00e9\u00a2\u013f": 81194,
    "\u0120downfall": 88867,
    "\u0120SUP": 54722,
    "-hole": 87693,
    "\u0120louis": 97230,
    "\u0120CrossAxisAlignment": 44389,
    "205": 10866,
    "ctp": 79041,
    "\u0120ko\u00c5\u0141ul": 113398,
    "Appro": 29688,
    "enh": 40967,
    "\u0120rapid": 11295,
    "\u00e1\u00bf\u0138": 117532,
    "ologies": 9268,
    "IDGET": 38735,
    "\u00e3\u0125\u012b\u00e3\u0125\u00a9": 115173,
    "\u0120Mumbai": 35812,
    "play": 1387,
    "_destination": 57444,
    ".Sys": 60518,
    "wine": 72537,
    "\u0120ambit": 30498,
    "PAL": 74442,
    "atori": 51737,
    "\u00ea\u00b1\u00b0\u00eb\u0124\u013a": 109745,
    "\u0120hurd": 48581,
    "\u0120philosopher": 55475,
    "\u0120technologies": 14645,
    "\u0120UIImagePickerController": 78833,
    "\u00e3\u0122\u012e": 13177,
    "\u0120Toolbar": 45384,
    "Every": 11769,
    "olic": 7918,
    "Translatef": 79950,
    "\u0120stay": 4822,
    "_initialize": 41989,
    "\u0120faces": 12580,
    "_unc": 77676,
    "[id": 14839,
    "ieurs": 46138,
    "\u0120Customer": 12557,
    "\u0120PROPERTY": 56740,
    "\u0120\u00ea\u00b5\u0143": 102160,
    "\u0120Ph\u00e1\u00ba\u0143t": 111856,
    "mad\u00c4\u00b1\u00c4\u0141\u00c4\u00b1": 123430,
    "\u00e7\u0135\u013e": 124743,
    "HexString": 50237,
    "\u00d8\u00b1\u00d8\u00a8\u00db\u012e": 107615,
    "clid": 76144,
    "\u0120contributions": 19564,
    "\u0120Penis": 54418,
    "\u0120wipe": 40194,
    "\u0120sched": 5692,
    "_means": 81966,
    "ak": 587,
    "\u00c2\u0139": 115677,
    "\u0120CUT": 73957,
    "\u0120dir": 5534,
    "BIND": 92896,
    ".Mark": 76988,
    "*w": 60476,
    "slide": 19902,
    ".override": 97902,
    "\u0120rho": 32481,
    "\u0120motivate": 62425,
    "\u0120Croatia": 58311,
    "\u0120active": 4642,
    "\u00e8\u00bf\u013b\u00e9\u0129\u012e": 107599,
    "\u00ce\u0137": 100477,
    "oked": 11059,
    "\u0120mortar": 58560,
    "taxonomy": 54104,
    ".header": 17531,
    "/general": 67061,
    "_subplot": 58078,
    "\u0120PAL": 52569,
    "\u0120vanilla": 33165,
    "stoi": 88341,
    "\u0120Ace": 38807,
    "\u0109bit": 81080,
    "\u0120baru": 69443,
    "\u0120k\u00c5\u00af": 127343,
    "/>\\": 99508,
    "\u0120whence": 88549,
    "\u0120der": 2761,
    "\u0120unser": 24843,
    "\u00e2\u0122\u0136if": 90863,
    "\u0120Lose": 61789,
    ".Shared": 34069,
    "\u0120planets": 33975,
    "\u0120salv": 28158,
    "\u00e4\u00b9\u013f": 103178,
    "apes": 9521,
    "mond": 12669,
    "\u0120Somerset": 72232,
    "\u0120BILL": 93746,
    "\u0120feder": 42207,
    "AXB": 48996,
    "UFFER": 11491,
    "\u0120Christopher": 26035,
    "\u0120T\u00e1\u00bb\u012bnh": 118879,
    "-open": 26770,
    "176": 10967,
    "airy": 22704,
    "_examples": 46379,
    "\u0120leak": 24237,
    ".ScrollBars": 94070,
    "_least": 89816,
    "ANE": 28919,
    "\u0120calendar": 13470,
    "\u0120\u00eb\u00aa\u0129": 113156,
    "\u0120glEnable": 65371,
    "<ArrayList": 72335,
    "optimized": 99968,
    "\u00eb\u00af": 50273,
    "takes": 79079,
    "\u010b": 199,
    "proved": 96608,
    "\u0120southeastern": 83209,
    "\u0120Jackie": 51965,
    "ig": 343,
    "\u0120Deg": 58337,
    "Deck": 40468,
    "\u0120sideline": 80053,
    "\u00d8\u00aa\u00d8\u00b5": 102372,
    ">');\u010d\u010a": 80016,
    "riendly": 18260,
    "zech": 26835,
    "ACHER": 99236,
    "\u0120casi": 62353,
    "attrib": 45213,
    "\u0120excess": 13937,
    "\u00e0\u00b8\u00b1\u00e0\u00b8\u013d\u00e0\u00b8\u0136\u00e0\u00b8\u00b2\u00e0\u00b8\u00ab": 125618,
    "\u0120varieties": 36680,
    "\u00e6\u013a\u00af\u00e4\u00b8\u00aa": 123779,
    "\u0120emphasizes": 66159,
    "\u00e8\u00bf\u0127": 118649,
    "\u00d1\u0126\u00d1\u0124": 118895,
    "\u0120\u00c4\u012eesk\u00c3\u00a9": 107358,
    "\u0120Typed": 51654,
    "\u0120Supply": 30909,
    ".zeros": 13064,
    "\u00e7\u0130\u00bb\u00e7\u0134\u0125": 126870,
    "\u00e8\u0124\u00b2": 101662,
    "\u0120Eld": 27965,
    "(tree": 22003,
    "540": 17048,
    "alement": 54960,
    "\u00e8\u00b7": 36596,
    "\u0120\"\\<": 24328,
    "%\u010a\u010a": 15804,
    "\u0120Difference": 56180,
    "Visual": 9789,
    "\u0120stir": 23935,
    "\u0120universities": 23978,
    "\u0120lr": 28159,
    "\u0120curled": 92626,
    "uptools": 52381,
    "\u0120\u00d1\u0123\u00d0\u00bb\u00d0\u00b8\u00d1\u012a\u00d0\u00ba\u00d0\u00be\u00d0\u00bc": 114938,
    "\u0120Transparent": 90968,
    "SM": 9691,
    "\u0120kraje": 122070,
    "\u0120\u00cf\u0122\u00ce\u00bb\u00ce\u00b7": 110083,
    "()\u010a": 746,
    "\u0120\u00c4\u0125n": 102607,
    "\u0120empath": 36681,
    "\u0120zem\u00c3\u0143": 122762,
    "\u0120signin": 89092,
    "\u0120\u00d8\u00ac\u00db\u012e": 125047,
    "\u0120Omn": 90934,
    "_ONLY": 32363,
    "\u0120Senate": 10092,
    "\u0120\u00d0\u0135\u00d0\u00be\u00d1\u0123\u00d0\u00bf": 119438,
    "\u0120insanlar": 113425,
    "\u0120listBox": 80428,
    "Khi": 115114,
    "\u00e3\u0122\u0122\u00e3\u0122\u0122": 44529,
    "=\"//": 45266,
    "\u00d0\u00bd\u00d1\u0130": 101644,
    "ube": 3845,
    "\u00e2\u0122\u0130": 79338,
    "\u0120\u00ed\u012e\u012e": 56069,
    "u\u00c3\u0143": 65225,
    "\u0120swift": 30462,
    "***\u010a": 34184,
    "\u00ec\u00b2\u013b": 120714,
    "----------------------------------------------------------------": 3597,
    "\u0120transcript": 36815,
    "_md": 34094,
    "n\u00c3\u00a9ho": 101928,
    "\u0120Eck": 82740,
    "\u0120assigns": 51012,
    "andles": 20729,
    "\u0120Levy": 68290,
    "\u0120EFI": 40182,
    "Ass": 5733,
    "\u00d0\u00bb\u00d0\u00b5\u00d1\u0124": 103140,
    "sj": 23760,
    "ryan": 57858,
    ".Sleep": 32686,
    "\u00d1\u012b\u00d0\u00b5": 100588,
    "\u0120\u00ce\u0137": 100567,
    "LineStyle": 81633,
    "\u0120\u00e7\u00ae\u00a1": 114611,
    "\u0120cursor": 8291,
    "\u0120pregn": 12191,
    "%'": 28337,
    "\u00e7\u013d\u013d": 109466,
    "\u00e4\u00bc\u00b0": 112494,
    "\u0120propose": 30714,
    "\u00d8\u00a7\u00d8\u00b3\u00d9\u012c\u00d8\u00a9": 111605,
    "\u0120Pharmaceuticals": 91771,
    "\u0120hefty": 65242,
    "rices": 25423,
    "\u0120droits": 97222,
    "\u00d0\u00b8\u00d1\u0124\u00d0\u00b8": 100559,
    "toDate": 80559,
    "ton": 783,
    "\u00ce\u00b9\u00cf\u0125": 100831,
    "\u00e8\u00af\u0128": 105388,
    "\u00e0\u00b9\u0122\u00e0\u00b8\u012b\u00e0\u00b8\u0140\u00e0\u00b8\u00b2\u00e0\u00b8\u00b0": 114661,
    "\u0109\u0109\u0109\u0109\u0109\u010a\u0109\u0109\u0109\u0109\u0109\u010a": 97190,
    "\u00e7\u013b\u0124": 109519,
    "\u0120[:": 21534,
    "_temperature": 54625,
    "\u0120alguns": 78369,
    "\u0120desired": 12974,
    "TEL": 48904,
    "\u0120sistemi": 113725,
    "\u0120CIT": 98577,
    "trans": 1485,
    "\u0120comando": 50968,
    "oplan": 94560,
    "\u0120DERP": 72129,
    "WidthSpace": 113639,
    "\u00e1\u00ba\u00b7c": 100784,
    "\u0120adventures": 32078,
    "\u0120\u00ea\u00b0\u012a": 112219,
    "GetMethod": 86173,
    "ysis": 4548,
    "\u0120Teach": 70377,
    "chts": 55427,
    "ori": 13915,
    "\u0120capable": 13171,
    ".receiver": 81718,
    "\u0120foam": 32183,
    "\u0120SOCK": 35651,
    "\u0120curt": 44278,
    "\u0120Chest": 42871,
    "\u0120\u00d1\u0126\u00d1\u0138\u00d0\u00bd\u00d0\u00b0\u00d0\u00bd\u00d1\u0123\u00d0\u00be\u00d0\u00b2": 115084,
    "\u0120\u00d1\u0131\u00d0\u00ba\u00d0\u00b8\u00d1\u0127": 106729,
    "leading": 21307,
    "_PRO": 5875,
    "\u00d0\u00b8\u00d0\u00bd\u00d1\u0125\u00d0\u00b2": 126848,
    "\u0109glEnable": 73913,
    "jh": 75406,
    "(pic": 82165,
    ".prob": 93838,
    "\u0120{!!": 22064,
    "\u0120gyro": 67968,
    "\u0120Gesture": 50964,
    "(Main": 27594,
    "unifu": 23036,
    "\u0120pathname": 40783,
    "\u0120outlines": 50729,
    "\u0120nackt": 57768,
    "\u0120contract": 5226,
    "thy": 27520,
    "\u00cf\u0123\u00ce\u0143\u00cf\u0122\u00ce\u00b5\u00ce\u00b9": 116410,
    "\u0120\u00d1\u0123\u00d0\u00bb\u00d1\u0125\u00d1\u0129\u00d0\u00b0\u00d0\u00b5\u00d0\u00b2": 125680,
    ".manager": 33915,
    "$where": 52620,
    "\u00e0\u00a5\u0122\u00e0\u00a4\u0139": 125016,
    "\u0120Abraham": 37488,
    "\u0120Interracial": 98163,
    "\u0120getMessage": 58853,
    "\u00d0\u00bc\u00d0\u00b0\u00d0\u00b7": 117835,
    "(proxy": 66887,
    "dess": 34107,
    ".FloatField": 75798,
    "\u0120\"<": 4145,
    "\u0120Plane": 44144,
    "Entre": 71688,
    "Support": 8075,
    "\u00e6\u0123\u012d": 111943,
    "\u00d0\u00b4\u00d0\u00be": 105472,
    "\u00eb\u012b\u00b4": 109687,
    "meth": 69991,
    "Dashboard": 28045,
    "\u0120refused": 16436,
    "\u0120curs": 24018,
    "}}{{": 78386,
    "\u0120\u00ed\u0124\u00a4": 108652,
    "\u0120description": 4096,
    "\u0120nuclear": 11499,
    "\u0120mines": 34757,
    "\u00e5\u0132\u0125": 105271,
    "\u0120assists": 29944,
    "/bin": 8923,
    "irmed": 8600,
    "\u0120Graphics": 20914,
    "\u0120conseguir": 77959,
    "\u0120nfl": 86904,
    "\u0120watering": 73841,
    "\u0120cui": 39044,
    "Proxy": 16617,
    "_ser": 76961,
    "\u0120gears": 54260,
    "\u0120Zu": 61182,
    "\u00d8\u00a7\u00d9\u0129\u00d9\u0127": 110694,
    "ethereum": 68222,
    "reference": 16690,
    "charged": 38061,
    "\u0120HE": 11947,
    "\u0120indicated": 16717,
    "\u0120carnival": 94496,
    "\u0120aroused": 92624,
    "\u0120cadre": 60697,
    "\u0120proxies": 60465,
    "\u0120NAN": 93229,
    ".Uri": 36877,
    "HttpPost": 24092,
    "Validator": 14591,
    "\u0120btc": 87137,
    "ROADCAST": 70619,
    "\u0120\u00d8\u00aa\u00d9\u0128\u00d8\u00b8": 115658,
    "\u0120axs": 76262,
    "-yard": 37839,
    "\u0120Leaf": 27967,
    "\u00e0\u00b9\u0126\u00e0\u00b8\u0141": 104757,
    "\u0120sanki": 125163,
    "\u0120Util": 10377,
    ".Score": 83180,
    ".AddField": 88544,
    "\u00ec\u013a\u0123\u00ec\u0125\u0123": 117568,
    "Met": 35773,
    "\u0120kube": 82058,
    "Inst": 8897,
    "\u0120managerial": 91250,
    ".Question": 59621,
    "ForObject": 95704,
    "\u0120\u00d0\u00bf\u00d1\u0122\u00d0\u00be\u00d1\u0126": 103665,
    "lename": 30218,
    "\u0120Feather": 79976,
    "\u0120\u00d0\u00b4\u00d0\u00be\u00d1\u0123\u00d1\u0124\u00d0\u00b0\u00d1\u0124": 106757,
    "\u0120findOne": 79630,
    "aktu": 51754,
    "\u0120adc": 48545,
    "888": 12251,
    "\u0120proporcion": 80943,
    "\u00e0\u00b8\u0124\u00e0\u00b8\u0135\u00e0\u00b8\u00b0\u00e0\u00b8\u0139": 127705,
    "\u0120\u00d8\u00a7\u00d9\u0126\u00d8\u00a7\u00d8\u00b3\u00d8\u00aa": 107640,
    "\u0120Metric": 53558,
    "\u0120hostile": 33615,
    "[q": 42193,
    "OUCH": 94580,
    "\u0120outputFile": 63943,
    "\u0109\u0109\u0109\u0120\u0120": 18492,
    "//\u010a\u010a\u010a": 85841,
    "\")!=": 99498,
    "\u0120dope": 92412,
    "_business": 67098,
    "\u00cf\u0126\u00ce\u00ae\u00cf\u0125\u00ce\u00b5\u00ce\u00b9\u00cf\u0124": 127182,
    "\u0120\u00e4\u00ba\u0133": 115765,
    "\u0120\u00d0\u00bb\u00d0\u00b5\u00d1\u0123": 114707,
    "\u0120\u00ce\u00bc\u00cf\u0122\u00ce\u00bf\u00cf\u0123\u00ce\u00b5\u00ce\u00af": 112723,
    "\u0120olmam": 115781,
    "_macros": 87004,
    "\u00eb\u00aa\u0127\u00ec\u013f\u013a": 123286,
    "\u00e5\u0131": 5877,
    "observeOn": 96159,
    "\u0120m\u00c3\u00a9": 32118,
    "\u00e3\u0123\u012d\u00e3\u0123\u00a3\u00e3\u0123\u0141": 102518,
    "\u00e0\u00b9\u012a\u00e0\u00b8\u00b2\u00e0\u00b8\u0143": 126023,
    "\u0120\u00d1\u0124\u00d0\u00b5\u00d1\u0122": 102031,
    "URL": 3222,
    "\u00e5\u00ba\u012c": 107918,
    "\u0120Alexandra": 75116,
    "\u0120trail": 9025,
    "\u0120detal": 53252,
    ".Documents": 56083,
    "\u0120/>}\u010a": 37881,
    "\u0120fulfilling": 50698,
    "ords": 2311,
    "\u0120kra": 97511,
    "\u0120yi": 62797,
    "\u0120Liberation": 72984,
    "\u0120Hung": 26604,
    "\u0109y": 14862,
    ".touch": 43229,
    "\u0120score": 5573,
    "BigInteger": 54319,
    "\u00e7\u00be\u00a4": 104336,
    "\u0120\u00d0\u00bd\u00d0\u00b0\u00d1\u0129\u00d0\u00b5": 127831,
    "(math": 38370,
    ".from": 6521,
    "MarshalAs": 87830,
    "076": 26247,
    "bole": 61175,
    "DOMNode": 87840,
    "<()>": 72798,
    "y\u00c3\u00bck": 89655,
    "materials": 78672,
    "\u0120Beijing": 27647,
    "_='": 89362,
    "Sport": 59837,
    "\u0120nieu": 54901,
    "\u0120Bureau": 22555,
    "\u0109Default": 92184,
    "\u0109yield": 46191,
    "(levels": 99108,
    "\u0120grocery": 30687,
    "_CC": 32431,
    ".getBlock": 54541,
    "\u0120\u00d9\u00be\u00d9\u012a\u00d8\u00b3\u00d8\u00aa": 120042,
    "\u0120tabBar": 77881,
    "\u0120facilitates": 73633,
    "applications": 83553,
    "\u0120\u0120\u0120\u0120\u0109\u010a": 35583,
    "scriptId": 49955,
    "\u0120enemies": 14207,
    "\u0120\u00d0\u00b4\u00d0\u00be\u00d1\u0123\u00d1\u0124\u00d0\u00b8\u00d0\u00b3": 126540,
    "\u0120\u00e7\u00a4\u00ba": 80804,
    "TeV": 99244,
    "(desc": 38773,
    "tickets": 69827,
    "_IMETHOD": 77879,
    "issor": 71450,
    "DTD": 43119,
    "\u0120Night": 13120,
    "\u0120Hao": 94809,
    "\u0120haci": 78003,
    "Rejected": 78793,
    "\u0120selector": 9551,
    "\u00e5\u00ae\u012d\u00e4\u00bd\u0135": 78111,
    "\u0120BT": 21795,
    "algorithm": 20266,
    "een": 15258,
    "'])\u010a\u010a\u010a": 90046,
    "\u0120LEN": 84199,
    "Registered": 42530,
    "\u0120Army": 13309,
    "\u0120\u00ec\u013a\u0123\u00ea\u00b5\u0143": 121883,
    "\u0120demonstration": 30816,
    "'ils": 85217,
    "\u0120\u00ec\u00a7\u0126\u00ed\u0138\u012b": 111809,
    "\u0120\u00e5\u0140": 124066,
    "\u0120originated": 44853,
    "Repo": 26309,
    "_FILENO": 76638,
    "\u00e5\u00af": 15973,
    "\u00e5\u0128\u00b2": 110158,
    "\u0120gx": 62133,
    "\u0120staggering": 55944,
    "\u0120\u00d0\u00b3\u00d0\u00b5": 111794,
    "\u00d1\u0125\u00d0\u00ba\u00d0\u00b8": 110873,
    "\u0120say\u00c4\u00b1s\u00c4\u00b1": 111192,
    ".Guna": 89541,
    "_FL": 23408,
    "\u0120\u00d1\u0129\u00d0\u00b0\u00d1\u0123\u00d1\u0125": 111940,
    "\u0120\u00c3\u00b6l\u00c3\u00a7\u00c3\u00bcde": 126244,
    "\u0120Presbyterian": 86464,
    "_ble": 71813,
    "\u0120llvm": 35764,
    "\u0120unrest": 59322,
    "\u0120\u00d1\u0124\u00d0\u00b0\u00d0\u00ba\u00d1\u0138": 111742,
    "tered": 34259,
    "\u0120Hairst": 89415,
    ".Application": 17980,
    "\u0120rempl": 69241,
    "\u0120block": 2565,
    "Talking": 91057,
    "\u00e0\u00b8\u00b5\u00e0\u00b8\u00a7": 103690,
    "\u0120Ike": 99734,
    "\u0120assessed": 32448,
    "\u00e4\u00b8\u0123\u00e7\u013d\u00ae": 113576,
    "\u0120ransom": 58686,
    "+\"/\"+": 63431,
    "\u0120Choosing": 77351,
    "\u00e6\u013e\u0122\u00e5\u0132\u0130": 112271,
    "]}\u010a": 24333,
    "\u0120Sikh": 83662,
    "\u0120Heads": 71607,
    "\u0120ekonom": 104779,
    "\u0120Pew": 57717,
    "\u0120scar": 23087,
    "Plain": 28080,
    "\u0120v\u00e1\u00bb\u0131": 121259,
    "irectional": 45770,
    "-list": 9206,
    "y": 88,
    "'n": 44886,
    "ajs": 24652,
    "\u0120asl\u00c4\u00b1nda": 116591,
    "\u0120\u00d0\u00bf\u00d0\u00be\u00d1\u0131\u00d0\u00b2": 106443,
    "_Con": 15450,
    "Drag": 18389,
    "/users": 19728,
    "trash": 69926,
    "_US": 13775,
    "-q": 52708,
    "\u0120waktu": 86982,
    "\u0120Dup": 51383,
    "\u0120schop": 110360,
    "\u0120kunt": 62877,
    "\u0120referrals": 70401,
    "\u00d0\u00bb\u00d1\u0125\u00d0\u00b3\u00d0\u00b8": 114143,
    "Snackbar": 75663,
    "/sw": 44034,
    ".clock": 51646,
    "\u00d8\u00b3\u00d9\u0128\u00da\u00af": 118098,
    "stops": 99120,
    "composition": 77907,
    "\u00e3\u0127\u012d\u00e3\u0127\u012d\u00e3\u0127\u012d\u00e3\u0127\u012d": 108737,
    "o\u00c5\u013dci": 90156,
    "Authentication": 19855,
    "_console": 52824,
    "\u00e9\u0133\u0133": 124140,
    "_ti": 99899,
    "\u0120Results": 18591,
    "\u0120\u00d0\u0142\u00d0\u00b0": 124037,
    "\u0120\u00ec\u0135": 120657,
    "ir\u00c3\u00a1": 84662,
    "Backing": 41432,
    "\u00d0\u0140\u00d1\u0123": 108942,
    "\u0120ontology": 84369,
    "\u0120ceilings": 56814,
    "\u00e0\u00a4\u0141\u00e0\u00a4\u00b0": 118381,
    "\u0120fert": 21900,
    "\u0120Ders": 126528,
    "\u00d8\u00a7\u00d8\u00af": 66498,
    "tener": 74600,
    "\u0120Cheryl": 80937,
    "\u00d0\u00b0\u00d0\u00bc": 24697,
    "\u0120\u00d0\u00b2\u00d0\u00b8\u00d0\u00ba\u00d0\u00be": 114673,
    "\u0120hat": 9072,
    "\u0120\u00d1\u0123\u00d1\u0126": 112485,
    "\u0120shooter": 32671,
    "\u0120HEIGHT": 43000,
    "\u0120IPAddress": 84396,
    "sorry": 68697,
    "PARAM": 20810,
    "\u00d0\u00b4\u00d1\u0131": 109412,
    "\u0120phones": 18084,
    "\u0120fetish": 40252,
    "\u00d0\u00ba\u00d0\u00b0\u00d0\u00b6": 119921,
    "@js": 76474,
    "h\u00c3\u00a1": 119009,
    ".VERTICAL": 66382,
    "\u0120da\u00c3\u0141": 95667,
    "},{": 16970,
    "ideas": 94784,
    "('>": 87658,
    ";\",": 33603,
    "\u0120\u00d1\u0123\u00d0\u00b2\u00d0\u00be\u00d1\u0136": 110817,
    "Cipher": 80560,
    "\u00d0\u00b8\u00d0\u00ba\u00d0\u00be\u00d0\u00bc": 127613,
    "\u0120Firebase": 20261,
    "_LIBRARY": 55210,
    "/arch": 61073,
    "\u0120Creator": 36778,
    "\u0120th\u00c3\u0143ch": 104672,
    "\u00e8\u012f\u00a3": 116930,
    ".cell": 25606,
    "\u0120Attribution": 59418,
    "ket\u00c3\u00b8y": 81885,
    "\u0120districts": 27536,
    "\u0120farmer": 37500,
    "\u0120\u00d1\u0123\u00d0\u00be\u00d0\u00be\u00d1\u0124\u00d0\u00b2\u00d0\u00b5\u00d1\u0124": 105602,
    "erta": 23463,
    "_sec": 17687,
    "\u0120naopak": 124062,
    "(cuda": 63318,
    "\u0120\u00d0\u00be\u00d0\u00b1\u00d0\u00bb\u00d0\u00b8\u00d1\u0129\u00d1\u0129\u00d1\u0131": 125471,
    "\u0120Fixes": 87063,
    "\u0120wallpapers": 82995,
    "\u0120pert": 18713,
    "\u0120quotes": 17637,
    "-Day": 56012,
    "\u0120strong": 3831,
    "elik": 102182,
    "\u0120ENGINE": 49460,
    "/be": 59789,
    "_contin": 70048,
    "\u0120Mez": 117214,
    "\u0120dow": 57587,
    "\u0120eux": 84440,
    "\u0120Public": 3142,
    "\u0120u\u00c5\u00be": 101754,
    "\u0120\u00d8\u00aa": 40534,
    "\u0120enters": 29933,
    "});\u010d\u010a": 16638,
    "cycle": 22352,
    "OUNTER": 36119,
    "\u0120-->\u010a\u010a\u010a": 71752,
    "\u0120\u00d1\u0122\u00d0\u00b5\u00d0\u00bc\u00d0\u00be\u00d0\u00bd\u00d1\u0124": 122847,
    "PostalCodes": 84845,
    "ermint": 94932,
    "\u0120Kenny": 49419,
    "\u0120\u00d8\u00a7\u00d9\u0128\u00d8\u00af": 102652,
    "\u00d9\u0123\u00d9\u0129": 104653,
    "igsaw": 88024,
    "AutoresizingMask": 58449,
    "\u0120\u0120\u0120\u0120\u0120\u0120\u0120\u0120\u0120\u0120\u0120\u0120\u0120\u0120\u0120\u0120\u0120\u0120\u0120\u0120\u010a": 10912,
    "either": 50998,
    "MessageType": 83207,
    "\u00e2\u0122\u013a": 14336,
    "\u00d1\u013e": 116725,
    "assessment": 65772,
    "Yahoo": 97427,
    "ush": 1136,
    "tml": 3949,
    "\u0120worried": 18290,
    "\u0120!!": 11261,
    "\u0120enjoys": 32838,
    "\u00e3\u0123\u00b2\u00e3\u0123\u00a8": 115303,
    "ournals": 33714,
    "\u0120erotisch": 97663,
    "\u00e2\u0124\u0122": 90769,
    "ooth": 6627,
    "\u0120fakat": 114395,
    "\u00ce\u00bd\u00cf\u0126": 102619,
    "_ack": 49547,
    "\u0120sinful": 97727,
    "\u0120lawsuits": 43986,
    "\u0120c\u00e1\u00ba\u00a1nh": 106811,
    "\u0109auth": 79111,
    "\u0120exhib": 12532,
    "duced": 54478,
    "(define": 69647,
    "\u0120Scores": 71094,
    "ceries": 56282,
    "us": 355,
    "\u00d0\u00be\u00d1\u0123\u00d1\u0124\u00d0\u00b8": 85864,
    "BBC": 67855,
    "LANGADM": 76371,
    "UMP": 24662,
    "\u0120meetup": 96257,
    "\u0120STDERR": 69737,
    "\u00e8\u012b\u00af\u00e3\u0123\u0126": 126521,
    "\u0120\u00ce\u00b5\u00ce\u00bc\u00cf\u0128": 124006,
    "\u0120expressions": 24282,
    "orrent": 49809,
    "\u00d0\u00b2\u00d0\u00b0\u00d0\u00bb\u00d0\u00b0": 113142,
    "stru": 103452,
    "\u0120unrelated": 46305,
    "\u0120\u00e8\u012a": 108834,
    "\u0120pm": 9012,
    "\u0120holland": 65764,
    "\u0120\u00c3\u00a9l": 33013,
    "\\r": 12285,
    "IZES": 90515,
    "\u0120Cargo": 62388,
    "\u0120llam": 51204,
    "\u0120im": 737,
    "\u0120Champions": 29908,
    "_aux": 31568,
    "Jones": 73198,
    "nth": 52838,
    "\u0120ami": 52827,
    "\u0109actual": 89914,
    "Ignore": 12780,
    "\u00e6\u012e\u0123": 69978,
    "\u0120t\u00e1\u00bb\u013bc": 114227,
    "\u0120wrist": 33271,
    "\u00c3\u00a9r": 14081,
    "\u0120yakla\u00c5\u0141\u00c4\u00b1k": 112518,
    "(va": 84023,
    "Static": 11952,
    "\u0120abuses": 50162,
    "\u0120\u00e6\u0138\u00bc": 121392,
    "\u0120Jew": 8117,
    "/fire": 54110,
    "gener": 7642,
    "amera": 3519,
    "\u0120\u00d0\u00b3\u00d0\u00b0\u00d1\u0122\u00d0\u00b0\u00d0\u00bd": 123774,
    "\u0120Probably": 38254,
    "AK": 12173,
    "\u0120Poison": 52212,
    "\u0120extrad": 67902,
    "reset": 9915,
    "(layer": 33685,
    "\u0120S\u00c3\u00b6z": 114017,
    "Russian": 48807,
    "button": 2208,
    "vy": 14029,
    "_fc": 47606,
    "\u0120Panthers": 45267,
    "theros": 91882,
    "ablytyped": 81998,
    "\u0120improvis": 80163,
    "\u0120compromises": 92546,
    "\u00eb\u0135\u013e\u00eb\u00a6\u00bd\u00eb\u012d\u012a\u00eb\u012d\u00a4": 109616,
    "_TARGET": 30399,
    "\u0120postav": 108344,
    "\u00d0\u00b0\u00d0\u00bb\u00d1\u012e\u00d0\u00bd\u00d0\u00be\u00d1\u0139": 107073,
    "\u0120\u00e3\u0123\u0135\u00e3\u0123\u00ae": 116056,
    "awaii": 72054,
    "\u0120virtue": 35460,
    "\u0120Zealand": 17340,
    "\u0120locom": 63907,
    "\u0120\u00ec\u013f\u00bc\u00eb\u00b6\u0122": 116686,
    "ActivityIndicatorView": 90393,
    "\u0120lifetime": 19569,
    "-di": 51389,
    "\u00d1\u0122\u00d1\u0125": 20346,
    "<Expression": 92022,
    "\u0109frame": 35565,
    "\u0120juga": 43469,
    "\u0120agricult": 17744,
    ".strokeStyle": 76252,
    "\u0120\u00e0\u00a4\u012c\u00e0\u00a4\u00aa\u00e0\u00a4\u00b0": 117146,
    "\u0120\u00d9\u0127\u00d8\u00b1\u00d8\u00a8\u00d9\u012a\u00d8\u00b7": 109576,
    "\u0120Din": 45873,
    "}\u010a\u010a\u010a\u010a\u010a\u010a": 58451,
    "\u0120ChatColor": 80420,
    "NON": 30663,
    "\u00c2\u00b0\u00d0\u00a1": 125988,
    "\u0120MICRO": 87265,
    ".group": 6306,
    "_RANGE": 29370,
    "\u0120Vegetable": 95392,
    "\u0120tar": 12460,
    "\u00e8\u00a6\u013c": 112854,
    ".setMessage": 42274,
    "\u0120pian": 60166,
    "Jackson": 62382,
    "/render": 84301,
    ",r": 16262,
    "\u0120FileSystem": 54561,
    "_invoice": 40325,
    "opia": 30651,
    "\u00e7\u00bd\u0133\u00e7\u00ab\u013b": 106374,
    "\u00c4\u00b1s\u00c4\u00b1nda": 110112,
    "\u0120velkou": 127148,
    "Charlie": 73728,
    "\u0120yard\u00c4\u00b1mc\u00c4\u00b1": 110324,
    "\u00d1\u0125\u00d0\u00b7": 101647,
    "-video": 42411,
    "\u0120Duration": 21722,
    "\u0120correction": 27358,
    "\u0120pandemic": 28522,
    "\u0120Jahren": 46606,
    "\u0120\u00d9\u012a\u00d8\u00ac\u00d9\u012a\u00d8\u00af": 103447,
    "\u0120Continent": 98845,
    "\u0120Bean": 34823,
    "\u00d2": 142,
    "\u0120\u00d9\u0129\u00d9\u0128\u00da\u00af\u00d8\u00a7\u00d9\u0127": 117404,
    "_HOT": 92423,
    "\u00eb\u00a5\u00b4": 100968,
    "SuppressLint": 75849,
    "InputModule": 81333,
    "[type": 22283,
    "\u0120fatalError": 58963,
    "wake": 91019,
    "\u0120assms": 42171,
    "\u0120\u00ec\u0137\u0126\u00ec\u013f\u00b4\u00ec\u00bd\u013a": 103408,
    "\u0120Rel": 6649,
    ":\u010a": 512,
    "ANGED": 37403,
    "\u00e9\u00a1\u0136\u00e3\u0124\u0134": 115499,
    "\u0120ammunition": 37768,
    "lij": 23808,
    "(pc": 48180,
    ".notify": 25708,
    "asks": 4707,
    "\u0120preferred": 15236,
    "\u0120\u00ec\u0140\u0132\u00ec\u012d\u0142\u00ec\u013f\u013a": 115968,
    "<|reserved_special_token_140|>": 128148,
    "_udp": 70532,
    "stat": 10079,
    ".wordpress": 40750,
    "\u00e0\u00b8\u00b2\u00e0\u00b8\u0123\u00e0\u00b8\u00a5": 116426,
    "\u0120Vacc": 59788,
    "\u0120\u00d0\u00bd\u00d0\u00b0\u00d1\u0122\u00d0\u00b5\u00d0\u00b7": 126785,
    "\u0120formidable": 54829,
    "\u00eb\u00b2\u00bd": 114149,
    "\u0120fictional": 44682,
    "doctor": 38083,
    "\u00d8\u0143\u00d8\u00b1": 103751,
    "-reaching": 87248,
    "\u0120essay": 9071,
    "677": 24375,
    "\u0120Luk": 55757,
    "ncpy": 36350,
    "','$": 22880,
    "@author": 36534,
    "iVar": 82985,
    "\u00db\u00b2\u00db\u00b9": 119675,
    "\u0120Sara": 44020,
    "\u0120WHY": 82794,
    ".ga": 97424,
    "\u00e9\u013f\u0140\u00e5\u00b8\u00b8": 108008,
    "\u0120Cem": 122989,
    "\u0120\u00e3\u0124\u0143": 109949,
    "\u0120kuru": 123528,
    "krv": 108811,
    "CRC": 84439,
    "/Index": 89251,
    "\u0120*\\": 88887,
    ",count": 58007,
    "',\u010d\u010a": 5667,
    "_throw": 73261,
    "\u0120\u00e3\u0122\u0123": 101511,
    "\u0120Terms": 20163,
    "\u0120Average": 24478,
    "\u0109put": 46162,
    "\u0120QQ": 74215,
    "Properties": 8062,
    "\u0120CSA": 94507,
    "ucle": 22935,
    "\u0120hearty": 82651,
    "setFlash": 63489,
    "778": 23592,
    "\u0120caratter": 91750,
    "\\L": 76238,
    "\u00c4\u0141ini": 101588,
    "\u0120other": 1023,
    "\u0120a\u00c5\u0141a\u00c4\u0141\u00c4\u00b1daki": 120125,
    "\u0120mechan": 7852,
    "\u0120spender": 84988,
    "\u0120z\u00c3\u0143skal": 125585,
    "\u0120Coord": 48949,
    "\u0120Maurice": 68529,
    "\u0120Norman": 41168,
    "\u0120formatDate": 87872,
    "\u0120complex": 6485,
    "\u0120bloggers": 50343,
    "als": 1147,
    "\u0120xx": 21578,
    "(','": 63419,
    "\u0120\u00d9\u0128\u00d9\u0124\u00d8\u00a7\u00d8\u00b7": 125432,
    "\u0120pioneers": 83407,
    "//---------------------------------------------------------------------------\u010a\u010a": 95564,
    "\u0120honestly": 27136,
    "\u0120rut": 55719,
    "\u0120hit": 4295,
    "util": 1338,
    "\u0120\u00ec\u0140\u012a\u00ec\u0139\u012a\u00eb\u012d\u00a4": 104816,
    "\u0120Validate": 24163,
    "\u0120\u00d8\u00a7\u00d8\u00aa\u00d8\u0143\u00d8\u00a7\u00d8\u00af": 122057,
    "\u0120joe": 94441,
    "\u0120benefit": 8935,
    ">&": 5909,
    "(vp": 92967,
    "?option": 86375,
    ":^{\u010a": 50448,
    "\u0120EST": 26963,
    "_atts": 96870,
    "\u0120to\u00c3\u00a1n": 104529,
    "-g": 2427,
    "_AS": 29128,
    "}}\"": 24275,
    "\u0120tackle": 22118,
    "_interaction": 98494,
    "\u0120germ": 82986,
    "\u0120reigning": 91056,
    "ewan": 53398,
    "\u00d0\u00b5\u00d1\u0122\u00d1\u0138\u00d0\u00b3": 115817,
    "\u0120ComboBox": 55253,
    "\u0120rotary": 62917,
    ".setLayoutParams": 87499,
    "\u0120silicone": 54025,
    "sk\u00c3\u00bd": 101670,
    "ullivan": 37141,
    "\u0120equipment": 7241,
    "belie": 32898,
    "_CALLBACK": 36873,
    ":\")": 91320,
    "Ja": 53545,
    "\u0120copp": 57100,
    "\u00d0\u00b5\u00d0\u00b4\u00d0\u00b8": 108566,
    "\u0120pix": 32674,
    "\u0120**************************************************************************": 17994,
    "\u0120Ethi": 45158,
    ".boost": 86158,
    "\u0120\u00cf\u0126\u00ce\u00b7": 100587,
    "\u0120Swedish": 31209,
    ":animated": 60500,
    "Kent": 85856,
    "\u00ea\u00bc": 115175,
    "_DESC": 24353,
    "\u0120\u00d0\u00bf\u00d1\u0122\u00d0\u00b0\u00d1\u0128\u00d1\u0130": 108110,
    "\u0120exemp": 94320,
    "_beg": 92267,
    "ltra": 40469,
    "\u00ec\u013e\u0142\u00eb\u00a8\u00b8": 125537,
    "\u0120Overflow": 71547,
    "config": 1710,
    "MAP": 18082,
    "\u0120DOES": 58363,
    ".Exp": 50944,
    "\u0120Share": 12037,
    "EntryPoint": 98516,
    "\u0120gente": 44142,
    "\u0120baz\u00c4\u00b1": 104866,
    "(df": 16446,
    "\u00e0\u00a5\u012a\u00e0\u00a4\u00b2": 105076,
    "\u0120preserves": 75998,
    "\u00e7\u013c\u0126\u00e5\u00b0\u0131": 114788,
    "Now": 7184,
    "\u0120exec": 3969,
    "\u0120\u00d1\u0123\u00d0\u00b0\u00d0\u00bc\u00d0\u00be\u00d0\u00bc": 118580,
    "\u0120deformation": 91621,
    "\u00e3\u0122\u012d\u010a": 115597,
    "\u0120?>\">": 38851,
    "mas\u00c4\u00b1": 77024,
    "Hi": 13347,
    "\u0120\u00c4\u0133\u00e1\u00ba\u00a1o": 103919,
    "\u0120\u00d9\u0125\u00d9\u0129": 102330,
    "\"io": 43300,
    "_enc": 14100,
    "HIP": 69154,
    "indrome": 37158,
    "NDER": 36789,
    "\u00e4\u00bb": 6271,
    "\u0120maximum": 7340,
    "ategorie": 38573,
    "#ad": 68968,
    "State": 1423,
    "\u00d0\u00b5\u00d0\u00bc\u00d0\u00b0\u00d1\u0124\u00d0\u00b8": 119922,
    "\u0120Bootstrap": 27151,
    ".gateway": 81392,
    "\u0120Prix": 44394,
    "achelor": 25767,
    "\u0120Cowboy": 96122,
    "terrain": 47882,
    "\u00e0\u00a5\u012b\u00e0\u00a4\u00ae": 121005,
    ".Font": 4454,
    "\u0120\u00ec\u0139\u00b0\u00ea\u00b2\u00b0": 121365,
    ".VERSION": 32472,
    "\u0120tennis": 32515,
    "/uploads": 30681,
    "\u0120devam": 103412,
    "\u0120\u00d0\u00be\u00d1\u0129\u00d0\u00b5\u00d0\u00bd\u00d1\u012e": 103407,
    "macen": 65701,
    "\u0120massa": 71942,
    "\u0120hassle": 47947,
    ");;\u010a": 94997,
    "Capture": 28529,
    ".Event": 7049,
    "\u0120punk": 36858,
    "\u0120ethanol": 62772,
    "<Test": 72373,
    "\u0120LLC": 15620,
    "\u00ed\u013a\u00b9": 127412,
    ".Assertions": 47412,
    "<typeof": 76721,
    "fall": 13772,
    "Hip": 91638,
    "ONS": 30626,
    "\u0120abych": 114158,
    "\u0120Frances": 43833,
    "\u0120Saves": 66667,
    "/\"": 11474,
    "\u0120Vita": 55724,
    ".basic": 34357,
    "-random": 92775,
    "breadcrumb": 25216,
    "\u0120expansions": 78588,
    "IMPLIED": 94959,
    "\u0120drones": 38332,
    "Register": 8861,
    "('.')[": 67212,
    "armac": 72482,
    "\u0120\u00e5\u0127\u00a8": 105228,
    "\u0120CW": 41135,
    "\u0120\u00c2\u00a5": 72588,
    "\u0120bas\u00c4\u00b1n": 119143,
    "<|reserved_special_token_48|>": 128056,
    "\u0120\u00d1\u0125\u00d1\u0127\u00d0\u00be\u00d0\u00b4": 117796,
    "\u0120jas": 111806,
    "\u0120trib": 14121,
    "\u0120Giz": 67388,
    "\u0120\u00d1\u0126\u00d1\u0125\u00d0\u00bd\u00d0\u00b4\u00d0\u00b0": 117784,
    "\u0120:-\u010a": 63444,
    "implode": 56677,
    "\u00e5\u0128\u0128": 35757,
    "POINTS": 99928,
    "\u0120kuk": 94377,
    "\u0120clay": 37148,
    "\u0120persuasion": 98224,
    "+-+-": 26820,
    "\u00e2\u0124\u00ac": 15406,
    "(mean": 46776,
    "MeasureSpec": 71520,
    "\u0120ara": 120499,
    "\u00e0\u00a4\u0124\u00e0\u00a4\u0138": 107923,
    "asion": 18239,
    "\u0120kalk": 111538,
    "ritt": 56013,
    "\u00ec\u00a7\u012a": 103194,
    "\u0120unp": 22355,
    "\u0120calibrated": 86085,
    "REATE": 15856,
    "\u0120hybrid": 26038,
    "powered": 52616,
    "\u0120\u00d1\u0129\u00d0\u00b0": 100873,
    "\u0120names": 5144,
    "Other": 11663,
    ".Series": 38228,
    ".Active": 29855,
    "\u0120\u00d0\u013c\u00d1\u0125\u00d1\u0122": 120560,
    "\u0120Battles": 71256,
    "<src": 21392,
    "\u0109TEST": 55735,
    "\u0120\u00ec\u0138\u00b4\u00eb\u00a8\u00b8\u00eb\u012d\u012a": 123742,
    "Versions": 70115,
    "\u0120ham": 13824,
    "\u0120discredit": 88119,
    "\u0120linha": 48773,
    "\u0120swallowed": 64437,
    "\u0120\u00d0\u00b1\u00d0\u00bb\u00d0\u00be\u00d0\u00ba": 113279,
    "\u0120&#": 45633,
    "_centers": 81279,
    "\u0120WebClient": 94454,
    "\u0120viscosity": 99530,
    "\u0120Relations": 32467,
    "\u0120Wade": 43982,
    "\u0120colorful": 34966,
    "_preference": 93818,
    "\u0120//////": 77890,
    "\u0120pr\u00c3\u00a9c": 51625,
    "\u00d0\u00b5\u00d0\u00bd\u00d1\u0124": 19190,
    "PV": 49569,
    "\u0120bord": 39002,
    "orthand": 62779,
    "\u0120quar": 37965,
    "leo": 82863,
    "\u00ec\u00b9\u00a8": 108308,
    "\u0120assertions": 55936,
    "\u0120Jens": 96130,
    "\u0120underscore": 53209,
    "(build": 44433,
    "\u0120UF": 69692,
    "Localized": 30106,
    "ion": 290,
    "_indices": 18839,
    "\u0120dress": 8679,
    "\u0120jeans": 34389,
    "\u0120Visa": 44434,
    "\u0120\u00c6\u00b0u": 107823,
    "\u0120Admiral": 59094,
    "\u0120wz": 64020,
    "\u0120\u00d0\u00b4\u00d1\u0138\u00d0\u00bb\u00d1\u0131\u00d0\u00bd": 120041,
    "\u0120Madagascar": 95728,
    "\u00d1\u0123\u00d1\u0124\u00d0\u00b2\u00d0\u00b5\u00d0\u00bd\u00d0\u00bd\u00d1\u012d\u00d0\u00b9": 112144,
    "\u0120reception": 23991,
    "(preg": 74682,
    "\u0120Webb": 55488,
    "OUTH": 41627,
    ".Criteria": 93689,
    "\u0120equity": 25452,
    "\u0120conglomer": 88751,
    "\u0120INCLUDED": 77551,
    "?><": 56417,
    "Lic": 99241,
    "\u0120Sporting": 65403,
    "\u0120kt": 19050,
    "\u00d0\u00b5\u00d1\u0128": 101401,
    "_preview": 43483,
    "\u0120minWidth": 57198,
    "GPC": 70341,
    "\u00cf\u0128\u00cf\u0127": 118207,
    "Annotations": 22133,
    "\u00b7\u00a8": 73033,
    "\u0120Renaissance": 55383,
    "\u0120\u00d1\u0122\u00d0\u00b0\u00d0\u00b4\u00d0\u00b8": 106174,
    "\u0120Das": 19537,
    "\u0120Kon": 24277,
    "rece": 54487,
    "\u0120protection": 9313,
    ".loaded": 61979,
    "achers": 27618,
    "UNT": 70549,
    "\u00e0\u00b9\u012a\u00e0\u00b8\u00b2\u00e0\u00b8\u0139": 115211,
    "\u0120},\u010a\u010a": 7481,
    "ARGIN": 50768,
    "\u0120clums": 78057,
    "ran\u00c3\u0143": 121763,
    ".xrLabel": 39866,
    "\u00d8\u00a8\u00d8\u00b7": 110184,
    "{%": 67465,
    "_union": 52721,
    "\u0120tendr": 91346,
    "\u00ec\u0128": 35677,
    "_filename": 13626,
    "\u00ce\u00be\u00ce\u00b7\u00cf\u0124": 117049,
    "gili": 122001,
    "\u0120\u00d0\u00b2\u00d0\u00be\u00d0\u00b7\u00d0\u00b4\u00d0\u00b5\u00d0\u00b9\u00d1\u0123\u00d1\u0124\u00d0\u00b2": 114540,
    "\u0120nettsteder": 44832,
    "memory": 17717,
    "\u0120n\u00c3\u00a4ch": 63768,
    "\u00c4\u00b1da": 118250,
    "_gray": 52431,
    "_avatar": 52204,
    "\u0120follic": 82714,
    "Bytes": 7223,
    "\u0120copyrights": 86918,
    "\u0120Cran": 67530,
    "\u0120fireworks": 52933,
    "\u0120shaken": 66900,
    "\u0120mushroom": 58466,
    "\u0120\u00ce\u0143": 100682,
    "onedDateTime": 84559,
    "shutdown": 60647,
    "110": 5120,
    "Camera": 13751,
    "\u00e0\u00b8\u00b8\u00e0\u00b8\u00a3\u00e0\u00b8\u0123": 112331,
    ".pid": 42039,
    "\u0120viral": 29962,
    "Unauthorized": 52281,
    "\u0120colleague": 37444,
    "\u00c4\u0141men": 109851,
    "\u0120yPos": 65779,
    "\u0120Austria": 35998,
    "\u00c3\u0143\u00c5\u00be": 119345,
    "\u0120SOME": 66655,
    "\u00eb\u012d\u00a4\u00ec\u013c\u00b4": 123366,
    "\u0120anarchists": 93134,
    "PECT": 7433,
    "LOTS": 75702,
    "\u0120viene": 56504,
    "\u0120poets": 74072,
    "\u0120\u00d1\u0122\u00d0\u00b5\u00d1\u0129": 106919,
    "\u0120supplementation": 73796,
    "\u0120Kaepernick": 79714,
    "entifier": 7337,
    "\u0120doing": 3815,
    "kish": 74720,
    "\u0120THERE": 62207,
    "belum": 79344,
    "csr": 78951,
    "\u00e6\u0136\u00bf\u00e6\u00b2\u00bb": 110886,
    "\u0120Triumph": 96994,
    "toLocale": 78485,
    "\u00d1\u0128\u00d0\u00b0\u00d1\u0124\u00d1\u012e": 121776,
    "FromBody": 60792,
    "\u0120\u00d9\u0123\u00d9\u012a\u00d9\u0124": 109854,
    "\u00d8\u00b9\u00d9\u0126\u00d8\u00a7\u00d9\u0127": 121963,
    "_proto": 38789,
    "IVITY": 30211,
    "_other": 31556,
    "caster": 33120,
    "ampling": 30809,
    "\u0120\u00e0\u00a4\u012b\u00e0\u00a4\u00a8\u00e0\u00a4\u0137": 102364,
    "tiler": 125513,
    "ospital": 6432,
    ".mar": 57248,
    ".combine": 90390,
    "\u0120\u00c4\u0133\u00e1\u00bb\u0137i": 102951,
    "\u0120Starr": 76122,
    "\u0120strftime": 82500,
    "\u0120enlightened": 82315,
    "\u0120\u00d8\u00a8\u00d9\u0126\u00da\u00a9\u00d9\u0129": 118650,
    "\u00d0\u00b2\u00d0\u00b8\u00d1\u0129\u00d0\u00b0\u00d0\u00b9": 107096,
    "\u0120Sword": 36751,
    "698": 25169,
    "\u0120bisexual": 56832,
    "\u0120latino": 92982,
    "\u0120'\\\"": 85949,
    "\u0120\u00d0\u00b7\u00d1\u0125\u00d1\u0123\u00d1\u0124\u00d1\u0122\u00d1\u0138": 122047,
    "\u0120viewWillAppear": 66765,
    "querque": 68708,
    "(Global": 47844,
    "\u0120pohyb": 114441,
    ".atom": 81859,
    "/pay": 73523,
    "ATTERN": 35543,
    "\u0120edge": 6964,
    "\u0120offensive": 15538,
    "_bound": 20012,
    "\u0120hats": 45526,
    "\u0120Prev": 60101,
    "\u0120t\u00c3\u00a2m": 102748,
    "\u00e8\u0140": 104467,
    "Semaphore": 75714,
    "\u00ef\u00bc\u012e\u00e6\u00af\u0131": 116255,
    "\u0120Colleges": 79219,
    "\u00e5\u013e\u00a7": 121819,
    "_nav": 29333,
    "\u0120sidl": 86891,
    "('</": 74572,
    "\u0120Joined": 41882,
    "\u0120Gdk": 76640,
    "\u0120\u00d8\u00af\u00da\u00a9\u00d8\u00aa\u00d8\u00b1": 112287,
    "\u0120navbar": 15918,
    "(let": 22799,
    "\u0120shortcut": 38215,
    "_dataset": 19536,
    "PRESS": 73630,
    "\u0120Changes": 29240,
    "_globals": 59875,
    "agement": 3531,
    "Amy": 76109,
    "\u0120pow": 7019,
    "FPS": 67841,
    "\u0120Stokes": 98620,
    "'),": 4670,
    "\u0120medicinal": 58041,
    "\u0120Occ": 20522,
    "\u0120dm": 29776,
    "\u0120madde": 118153,
    "\u00ce\u00a9\u00ce\u013f": 102910,
    "\u0120shifts": 29735,
    ".appendChild": 12746,
    "\u0120Barbie": 84339,
    "quipe": 61673,
    "\u0120bietet": 61829,
    ".coroutines": 44542,
    "ilion": 50012,
    "\u00e7\u00ac": 17925,
    "\u0120referring": 22797,
    "ifa": 34918,
    "\u00e5\u00b8\u00af": 115351,
    "\u0120Different": 34496,
    "\u0120RDF": 69499,
    "\u0120cancelling": 98015,
    "\u00cf\u0128\u00ce\u0143\u00cf\u0123\u00ce\u00b5\u00ce\u00b9": 122791,
    "packageName": 92163,
    "\u0120american": 39542,
    "\u00e5\u00bc\u0122\u00e5\u0131\u0133": 110367,
    "\u0120hydr": 45705,
    "ptide": 47309,
    "HIR": 40808,
    "ETF": 43339,
    "\u0120Residence": 72860,
    "\u010a\u010a\u010a\u010a\u010a\u010a\u010a\u010a\u010a": 55160,
    "\u0120Believe": 59121,
    "\u0120Depression": 46904,
    "activex": 37331,
    "\u0120\u00e8\u00bf\u013b": 122255,
    "\u0120\u00d9\u0124\u00d8\u00b3\u00d9\u0127\u00d8\u00aa": 112374,
    "\u00d1\u0129\u00d0\u00b8\u00d0\u00ba": 110272,
    "\u0120Lup": 79803,
    "\u0120prostitutes": 63682,
    ".CL": 37008,
    "kiego": 94837,
    ".Rendering": 54706,
    ".union": 64351,
    "CHOOL": 57920,
    "\u0120}}\u010a\u010a": 68536,
    "\u0120cart": 7558,
    "formace": 105804,
    "amedi": 93006,
    "\u0120LINK": 41591,
    "\u00ce\u00bc\u00ce\u00b5\u00cf\u0123": 108836,
    "bal": 13616,
    "\u0120chiropr": 77301,
    "\u0120walkers": 95737,
    "\u0120isset": 10459,
    "nes": 4978,
    "Else": 23829,
    "\u0120componentWillUnmount": 72676,
    "\u0120dialogs": 87336,
    "fake": 31670,
    ".Create": 7399,
    "-pack": 57610,
    "(lambda": 18705,
    "\u0120Daha": 109865,
    ".sax": 89163,
    "_RC": 42514,
    "\u0120rejected": 18010,
    "\u0120boo": 47370,
    "\u0120Z\u00c3\u00a1p": 122834,
    "\u0120Les": 11876,
    "\u0120elast": 92185,
    "\u00cf\u0128\u00cf\u012b\u00ce\u00bd": 122092,
    "\u0120nighttime": 93744,
    "\u0120\u00d8\u00b4\u00d8\u00ae\u00d8\u00b5": 103859,
    "XM": 53437,
    "\u0120sa\u00c4\u0141l\u00c4\u00b1k": 107946,
    "ysz": 73445,
    "\u0120allerg": 25405,
    "\u0120\u0120\u0120\u0120\u0120\u0120\u0120\u0120\u0109\u0109": 38020,
    "seud": 40512,
    "DEVICE": 42851,
    "estival": 11100,
    "\u0120\u00d1\u0125\u00d0\u00b4\u00d0\u00b0\u00d1\u0122": 126065,
    "\u0120devise": 53165,
    "\u00e8\u012a\u00b0": 125834,
    "\u0120rise": 10205,
    "\u0120illeg": 30067,
    "\u0120ylim": 85014,
    "\u0120bitmap": 20327,
    "\u0120NSCoder": 70062,
    "\u0120Hund": 99014,
    "\u00e5\u00b0\u0131\u00e6\u0139\u00b6": 93636,
    "NG": 6269,
    "\u00ce\u00b8\u00ce\u00b5\u00ce\u00bd": 112679,
    "formData": 53973,
    "\u0120Midwest": 52257,
    "\u0120pissed": 64536,
    "\u0120safer": 30549,
    "\u00e5\u00a4\u013c\u00e3\u0123\u0126": 127181,
    "\u0120trademark": 32464,
    "groundColor": 57816,
    "LAN": 24299,
    "zte": 90382,
    "\u0120\u00d0\u0134\u00d0\u00b0\u00d1\u0123\u00d0\u00b8\u00d0\u00bb\u00d1\u012e": 120877,
    "\u0120Licensed": 10311,
    "\u0120xmax": 53386,
    "::*;\u010a\u010a": 80404,
    "BrowserRouter": 64288,
    "\u00c3\u00a2t": 64272,
    "\u0120{[%": 118749,
    "-general": 69097,
    "\u0120Shed": 95552,
    "\u0120electronically": 71870,
    "/ml": 60648,
    "\u0120Alter": 43951,
    "\u0120plung": 53872,
    "otp": 49808,
    "///\u010d\u010a": 64558,
    "\u0120\u00d8\u00af\u00d9\u012c\u00d8\u00b3\u00d9\u0127\u00d8\u00a8\u00d8\u00b1": 119018,
    "buff": 27066,
    "*)\u010a": 39060,
    "\u0120Kaf": 127914,
    "\u0120\u00d8\u00a7\u00d9\u0126\u00d9\u0129": 103191,
    "\u00c3\u00be": 117457,
    "\u0120\u00ce\u0142\u00ce\u00b1\u00cf\u0123\u00ce\u00b1": 114780,
    "\u0120Permit": 81739,
    "\u00eb\u013f\u00bc\u00ed\u0136\u00bc": 124320,
    "\u00d1\u0133": 45122,
    "\u0120Lines": 39333,
    "orny": 80677,
    ")}}\"": 71887,
    "MediaType": 66100,
    "/cache": 63194,
    "\u00e2\u013a\u0127\u00e2\u013a\u0127": 49617,
    "(sl": 56791,
    "aget": 85163,
    "enance": 10431,
    "annabin": 97853,
    "\u00ef\u00bc\u0123\u00e3\u0122\u012f": 76864,
    "\u0120Pause": 50756,
    "pane": 26393,
    "\u0120b\u00e1\u00bb\u00a5": 115293,
    "\u0120outs": 23651,
    "\u00eb\u00a6\u00ac\u00ec\u012c\u00a4": 107752,
    "\u0120k\u00c3\u0143ch": 108062,
    "']))\u010a": 20084,
    "\u0120internally": 34167,
    "WebKit": 48611,
    "l\u00c4\u00b1klar": 117691,
    "\u0120arithmetic": 35884,
    "spent": 95464,
    "\u0120meeting": 6574,
    "\u00ec\u00b2": 36155,
    "alom": 83128,
    "\u0120hem": 17728,
    "\u0120cyclists": 56183,
    "\u0120genuinely": 36297,
    "uminum": 19344,
    "\u00e6\u013c\u00b4": 110665,
    "(ws": 58886,
    "\u0120weaponry": 78122,
    "\u0120explosive": 34150,
    "\u0120ng\u00c3\u0142nh": 104710,
    "_FULL": 30922,
    ".SaveChangesAsync": 49007,
    "\u00c3\u00a7\u00c4\u00b1": 106610,
    "\u0120\u00d0\u00be\u00d0\u00b4\u00d0\u00bd\u00d0\u00be\u00d0\u00bc\u00d1\u0125": 122461,
    "fails": 60731,
    "AE": 13983,
    "\u00ed\u0133\u013e": 102260,
    "\u0120r\u00c3\u00a8": 83229,
    "\u0120de\u00c4\u0141er": 103069,
    "utch": 14390,
    "ListItemIcon": 96347,
    "\u0120vitality": 75716,
    "\u0120\u00d8\u00a2\u00db\u012e\u00d9\u0128\u00d8\u00af\u00d9\u0129": 123831,
    "\u00e0\u00b9\u012b\u00e0\u00b8\u00b2\u00e0\u00b8\u00aa": 114281,
    "\u0120ativ": 69432,
    "-insert": 75650,
    "\u0120Linh": 126222,
    "_bd": 69599,
    "zan": 50226,
    "_slope": 80843,
    ":F": 70956,
    "\u00e5\u00a5\u0131": 116340,
    "olg": 75163,
    "sty": 79855,
    "\u00ec\u013f\u00b4\u00ec\u0139\u012a": 113743,
    "eah": 10644,
    "Rocket": 81117,
    "H": 39,
    "normal": 8416,
    "\u0120spills": 84051,
    "\u00db\u00b2\u00db\u00b8": 117667,
    "\u0120Mack": 33491,
    "\u0120Comment": 12535,
    "timestamps": 34691,
    "aylor": 14350,
    "\u0120\u00d0\u0134\u00d0\u00be\u00d0\u00b7": 127047,
    "\u0120inaugural": 54559,
    "\u0120CHARSET": 98801,
    "\u0120\u00d0\u00ba\u00d1\u0125\u00d0\u00bb\u00d1\u012e": 104382,
    "-CP": 120529,
    "\u0120Pointer": 22366,
    "apture": 12114,
    "\u0120clo": 5405,
    ".clip": 39842,
    "\u0120\u00d0\u00b6\u00d0\u00b8\u00d0\u00b7": 104287,
    "_credit": 52669,
    "ariance": 38005,
    "quick": 28863,
    "\u0120\u00e9\u0129\u0133": 104614,
    ".vx": 100059,
    "\u00c2\u00a4": 82638,
    "-strong": 96857,
    "\u00e3\u0123\u0124\u00e3\u0124\u012d": 101182,
    "\u0120McGu": 84164,
    "dag": 51741,
    "\u0120heed": 75499,
    "-money": 69092,
    "\u0120editText": 65145,
    "\u0120foundational": 89328,
    "\u0120J": 622,
    ",options": 89832,
    "\u0120exclaimed": 80608,
    "_valid": 8501,
    ".M": 1345,
    "\u0120citation": 45477,
    "\u0120Summary": 22241,
    ".no": 18847,
    "MON": 22053,
    "*time": 78153,
    "von": 59270,
    "\u0120BIN": 83709,
    "Attack": 29702,
    "\u0120\u00d1\u0124\u00d1\u0122\u00d0\u00b0\u00d0\u00b4\u00d0\u00b8": 111954,
    "\u0120(#": 30183,
    "Cx": 92312,
    "-used": 69621,
    "\u0109\u0109\u010d\u010a\u010d\u010a": 93202,
    "\u0120Bylo": 125891,
    "\u0120comma": 32783,
    "\u0120p\u00c5\u013b\u00c3\u0143zn": 117506,
    "\u00e3\u0123\u00a7\u00e3\u0123\u00af\u00e3\u0123\u00aa\u00e3\u0123\u0131": 126194,
    "Inserted": 92369,
    "\u00e6\u0126\u0141\u00e3\u0123\u013a": 112391,
    "\u0120appliance": 56454,
    "_expand": 68975,
    "\u0120localhost": 48522,
    "\u0120poisoning": 52236,
    "kami": 111870,
    "\u0120truths": 53219,
    "\u0109bs": 94901,
    "\u0120Manga": 71035,
    "\u0120tuy\u00e1\u00bb\u0129t": 111258,
    "\u0120Dogs": 39525,
    "dim": 13223,
    ".StringUtils": 50065,
    "\u00e5\u0131\u013a\u00e5\u00be\u0139": 124662,
    "teg": 113592,
    "\u0120hog": 47025,
    ".getP": 49382,
    "(cp": 45175,
    "isNull": 67911,
    "\u0120supervisor": 38419,
    "\u00d9\u0131\u00d9\u0129": 120704,
    "\u00c3\u00abn": 88655,
    "\u0120skype": 87772,
    ".innerHTML": 13502,
    "\u0120\u00da\u00af\u00d8\u00b1\u00d9\u0123\u00d8\u00aa\u00d9\u0128": 124548,
    "\u00ec\u0140\u0127": 44966,
    "638": 24495,
    "\u0120EEPROM": 62295,
    "\u00d0\u00be\u00d0\u00bd\u00d0\u00be\u00d0\u00b2": 109799,
    "ters": 5153,
    "finance": 63775,
    "\u0120premier": 21134,
    "\u0120Brigade": 67314,
    "\u0120LATIN": 93344,
    "segments": 57929,
    "\u0120cran": 70637,
    "\u0120\u00e3\u0122\u0122\u00e3\u0122\u0122\u00e3\u0122\u0122\u00e3\u0122\u0122\u00e3\u0122\u0122\u00e3\u0122\u0122": 108673,
    "-password": 34169,
    "\u0120detector": 32314,
    "\u0120BRO": 78687,
    "\u0120aan": 18962,
    "\u0120Evan": 45043,
    "bnb": 45102,
    "\u0120\u00ce\u00a1": 103174,
    "\u0120ecosystem": 26031,
    "\u0120jt": 92176,
    "\u0120\u00ec\u013f\u00b8\u00ea\u00b8\u00b0": 115613,
    ".opend": 75999,
    "\u0120\u0120\u0120\u0120\u0120\u0120\u0120\u0120\u0120\u0120": 1881,
    "/devices": 81497,
    "\u0120MessageBoxIcon": 35136,
    "posal": 25128,
    "REST": 39407,
    "\u0120rock": 7091,
    "\u0120Opp": 29710,
    "accounts": 27298,
    "erosis": 58881,
    "\u00d0\u00bf\u00d0\u00be\u00d0\u00b4": 120039,
    "arde": 42441,
    "lerinden": 104913,
    "_trade": 53262,
    "\u0120healthier": 39345,
    "\u0120expres": 67605,
    "\u00e3\u0123\u0126\u00e3\u0123\u0141": 102334,
    "\u0120\u00d1\u0125\u00d1\u0123\u00d1\u0124\u00d0\u00b0\u00d0\u00bd": 114977,
    "_nan": 75036,
    "\u0120etmektedir": 120269,
    "loon": 32435,
    "\u0120[(": 18305,
    "\u0120count": 1797,
    "Interop": 95100,
    "\u0120\u00d0\u00b2\u00d0\u00b7\u00d1\u0122\u00d0\u00be\u00d1\u0123": 118268,
    "nav": 3807,
    "\u0120l\u00c3\u0143nea": 56262,
    "\u0120Bollywood": 65286,
    "mongodb": 38297,
    "PreferredGap": 34791,
    "\u0120murderers": 99265,
    "/Search": 79993,
    "\u0120\u00ce\u00b1\u00ce\u00bd\u00ce\u00b1": 102960,
    "VARCHAR": 80751,
    "rafted": 61869,
    "\u0120infile": 50089,
    "(itemId": 100176,
    "\u0120logout": 23161,
    "_taken": 74033,
    "\u0120\u00d0\u00bd\u00d0\u00b5\u00d0\u00bf\u00d1\u0122\u00d0\u00b8\u00d1\u0131\u00d1\u0124": 124404,
    "\u0120psik": 118710,
    "\u00eb\u0142\u00b9": 104366,
    "(Dense": 69341,
    "\u0120lords": 90213,
    "subseteq": 53496,
    "ometers": 33504,
    "\u0120\u00e0\u00b8\u013d\u00e0\u00b8\u00a3\u00e0\u00b8\u00b0\u00e0\u00b8\u0123": 120230,
    "\u0120installer": 44152,
    "\u0120color": 1933,
    "702": 20253,
    ".TIME": 87301,
    "obre": 38708,
    "\u0109T": 10473,
    "\u0120Fifty": 76020,
    "uellen": 71728,
    "\u0120Fu": 30353,
    "\u0120\u00d0\u00b2\u00d0\u00b7\u00d0\u00b0": 107665,
    "\u0120Farmer": 68564,
    "\u0120dps": 95129,
    "\u0120wine": 13378,
    "\u0120by\u00c5\u0124o": 87617,
    "\u0120porch": 45747,
    "\u00c5\u013bit": 110487,
    "\u0120NF": 45827,
    "\u0120killer": 25534,
    "\u0120clans": 87081,
    "(utils": 65266,
    "\u0120sommes": 74533,
    "\u00e2\u0122\u012d\u00e2\u0122\u012d": 88996,
    "unate": 22518,
    "\u0120currentItem": 92727,
    "\u0120openid": 99826,
    "\u0120shader": 21689,
    "ReadStream": 100118,
    "\u0120Npgsql": 79979,
    "enn": 2734,
    "\u00e5\u0128\u00b5": 104116,
    "Kevin": 48781,
    "\u00e5\u013e\u0141\u00e5\u013e\u00b0": 117018,
    "\u0120dots": 32094,
    "\u0120\u00d0\u0139\u00d0\u00b0\u00d0\u00ba": 106962,
    "\u0120eventdata": 45108,
    "Das": 33717,
    "\u00e5\u00a8\u0123": 105578,
    "ibilidad": 57335,
    "\u0120evil": 14289,
    "\u0120\u00eb\u0133": 110347,
    "\u0120Sai": 71841,
    ".RowIndex": 61924,
    "arie": 67545,
    "\u00d0\u00b8\u00d1\u0129\u00d0\u00bd\u00d0\u00be\u00d0\u00b3\u00d0\u00be": 119026,
    "\u0120ObservableCollection": 45564,
    "\u0120Dispose": 16875,
    "MeshPro": 91630,
    "\u0120horr": 26974,
    "nginx": 74661,
    "\u00e5\u012f\u012a": 35424,
    "\u0120rats": 32510,
    "\u00e9\u0129\u0133": 35330,
    "uity": 35594,
    ".ErrorMessage": 74728,
    "hop": 26172,
    "\u0120gehen": 63559,
    "\u0120Grip": 79921,
    "\u0120advertisers": 50270,
    "\u00e0\u00a4\u013e\u00e0\u00a4\u00a8": 109272,
    "\u0120Power": 7572,
    "fund": 58703,
    "Imm": 51839,
    "AIR": 58261,
    "################################################################################": 41586,
    "\u0120notamment": 81186,
    "\u0120posts": 8158,
    "\u0120\u00d1\u0124\u00d0\u00b5\u00d1\u0127\u00d0\u00bd\u00d1\u0138": 125362,
    "\u0120budouc": 123811,
    "(module": 19669,
    "u": 84,
    "\u0120\u00d0\u0134\u00d0\u00b8\u00d0\u00ba": 119832,
    ".CommandType": 46948,
    "/Sh": 77302,
    "ghan": 16083,
    "\u0120Hindu": 36142,
    "achsen": 71587,
    "\u0120Aquarium": 81422,
    "\u00e6\u013e\u00b1": 111412,
    "lemma": 9830,
    "_vec": 13554,
    "\u0120Any": 5884,
    "-In": 32600,
    "\u0120\u00d0\u00bf\u00d1\u0122\u00d0\u00be\u00d1\u0123\u00d1\u0124": 101672,
    ".package": 49728,
    "\u0120})\u010d\u010a": 26906,
    "\u0120Auckland": 54346,
    "\u0120Ukraj": 123873,
    "\u0120dane": 89695,
    "\u0120Hampton": 64774,
    "\u0120memorable": 33596,
    "\u0120integrating": 54952,
    "expected": 7475,
    "\u0120uranus": 96328,
    "\u00d8\u00a7\u00d9\u0126\u00db\u012e\u00d8\u00a7": 116968,
    "\u00d8\u00b1\u00d9\u012c\u00d8\u00b1": 124470,
    "\u00d0\u00ba\u00d1\u0125": 36352,
    "planation": 36990,
    "setImage": 89856,
    "gpu": 43694,
    "\u00e5\u00b1\u0127\u00e6\u00b0\u0133": 125996,
    "\u0120grad": 6117,
    "fk": 42818,
    "\u0120intf": 94806,
    "\u0120\u00e9\u00a6\u00ac": 122498,
    "\u0120Doe": 50728,
    "\u0120){\u010a\u010a": 59277,
    "ostringstream": 60106,
    "\u0120inject": 15921,
    "Yet": 29174,
    "ard": 569,
    "\u00e7\u00bb\u0131\u00e7\u0132\u0128": 124488,
    "\u0120Assembly": 12000,
    "rus": 20962,
    "\u00d8\u00b1\u00db\u012e\u00d9\u0123": 113213,
    "\u0120ng\u00e1\u00bb\u00a7": 112437,
    "\u00c3\u00a9al": 63497,
    "Bien": 82606,
    "\u0120Pokemon": 28831,
    "\u0120edilir": 112137,
    "\u0120Ng\u00c3\u0142y": 114919,
    "\u0120touring": 48551,
    "\u0120Sour": 95588,
    "\u00ec\u0142\u0137": 30381,
    "\u0120\u00ce\u00bf\u00cf\u0122\u00ce\u00bf": 105211,
    "/request": 54107,
    "setValue": 23357,
    "\u0120responseBody": 99165,
    ".datab": 32112,
    "\u0120Opr": 78618,
    "ileri": 102116,
    ".FETCH": 96379,
    "\u0120oslo": 37362,
    "yclerView": 12161,
    "AUDIO": 96766,
    "\u00f8": 180,
    ".examples": 71759,
    "Lu": 50302,
    "\u0120right": 1314,
    ".RowCount": 73878,
    "\u0120stride": 19782,
    "Operating": 59247,
    "\u0120p\u00c5\u013b\u00c3\u0143tom": 120894,
    "\u0120weaving": 84709,
    "ButtonDown": 59953,
    ".bootstrapcdn": 33493,
    "\u0120passphrase": 76593,
    "\u0120\u00eb\u0140": 112451,
    "\u0120Oxford": 26275,
    "_Insert": 77517,
    "\u0120Dickens": 93999,
    "\u0120disrespect": 57309,
    "ModelIndex": 41464,
    "itesse": 87960,
    "_sv": 77908,
    ".handlers": 56101,
    "/group": 54489,
    "\u0120gi\u00e1\u00ba\u00a3i": 101982,
    "_reserve": 90691,
    "\u0120Prahy": 122538,
    "abad": 28447,
    "\u00d0\u00bb\u00d0\u00be\u00d0\u00b2\u00d0\u00b0": 118735,
    "Cube": 44429,
    "**\u010d\u010a": 60579,
    "\u00e4\u00b8\u012f\u00e5\u00ae\u012b": 127408,
    "@Module": 92286,
    "Vi": 36644,
    "\u0120Uzbek": 90959,
    "/Data": 51339,
    "\u0120LAS": 65231,
    "\u0120attracts": 61191,
    "\u0120Ban": 23565,
    "\u0120Polyester": 75949,
    "PEAR": 82355,
    "=self": 7822,
    "\u0120DEFINE": 68014,
    "\u00e7\u00b2": 90397,
    "\u0120currentPage": 40414,
    "itone": 85166,
    "\u0120\u00eb\u0128": 104137,
    "_so": 40933,
    "\u0120Montreal": 30613,
    "/device": 69465,
    "\u0120Partisi": 113448,
    "\u0120band": 7200,
    "\u0120nood": 46895,
    "\u0120Innovation": 38710,
    "atat": 93584,
    "\u0120ayr": 105234,
    "enez": 21198,
    "\u0120\u00d0\u013a\u00d1\u0123": 127681,
    "\u0120\u00ec\u0142\u0126\u00ec\u0141\u0123": 124566,
    "\u0120critic": 9940,
    "\u0120ARRAY": 32212,
    "\u0120\u00ce\u00bf\u00cf\u0122\u00ce\u00bf\u00ce\u00af\u00ce\u00b1": 114493,
    "({\u010a\u010a": 52732,
    "\u00d0\u00bb\u00d0\u00b8\u00d0\u00b7": 102921,
    "\u0120negoci": 82259,
    "trer": 95920,
    "\u0120\u00d9\u0126\u00d9\u0128": 111812,
    "\u00e8\u0141": 125613,
    "\u0120applicationContext": 86399,
    ":[\"": 82362,
    "\u0120abstraction": 59851,
    "\u0120Exit": 19532,
    "tails": 41060,
    "UIImage": 19551,
    "OWN": 7736,
    "\u0120coefficient": 36706,
    "reservation": 48784,
    "\u0120accomp": 58433,
    "\u0120eid": 69431,
    "(\"--": 22274,
    "ub": 392,
    "itioner": 72346,
    "\u00c4\u012fn\u00c3\u0143": 100669,
    "\u0120Darkness": 54796,
    ".'/": 26635,
    "\u0120}\u010a\u010a": 557,
    "/parser": 62870,
    "\u0120gor": 46298,
    "5": 20,
    "\u00e3\u0123\u00a3\u00e3\u0123\u00a1": 120240,
    "Nom": 37412,
    "\u0109try": 6942,
    ".RE": 15056,
    "\u00e2\u0139\u0131": 45048,
    "_schedule": 35630,
    "\u0120persona": 29055,
    "\u0120BST": 44641,
    "\u0120\u00e5\u012b\u012f": 107698,
    "\u00e0\u00b8\u00a5\u00e0\u00b8\u0129": 102541,
    "itimate": 71850,
    "\u00e0\u00a5\u012f\u00e0\u00a4\u00b6\u00e0\u00a4\u00a8": 106735,
    "\u0120Solomon": 50899,
    "\":": 794,
    "\u00e4\u00b8\u012f": 16937,
    "\u0120ende": 29705,
    "\u0120ASD": 78294,
    "jezd": 121701,
    "\u0120Axel": 87779,
    "\u0109BufferedReader": 78036,
    "\u0120forc": 52842,
    "\u0120NavController": 56862,
    "girls": 61296,
    "\u0120systemd": 76066,
    "BigInt": 88574,
    "LER\u00c4\u00b0": 120298,
    "\u0120\u00d8\u00aa\u00d9\u0127\u00d8\u00a7\u00d8\u00b3": 116946,
    "ernals": 90420,
    "\u0120Silence": 69188,
    "_report": 15157,
    "\u0120helmet": 32635,
    "\u0120Urban": 29422,
    "\u0120\u00e1\u00ba\u00a4n": 119466,
    "\u0120frat": 82072,
    "\u00ce\u00ac\u00ce\u00ba": 112706,
    "_Common": 78371,
    "\u0120recher": 88817,
    "\u0120\u00d8\u00aa\u00d8\u00b6": 125968,
    "_LARGE": 84961,
    "\u0120vag": 17764,
    "ised": 4147,
    "entiful": 79820,
    "\u00cf\u0125\u00ce\u00b9\u00ce\u00bc\u00ce\u00bf": 110173,
    "remarks": 14786,
    "\u0120homework": 29559,
    "itte": 97773,
    "LIST": 23699,
    "altimore": 88232,
    "\u0120filmes": 98896,
    "DON": 85741,
    "sk\u00c3\u00bdch": 103052,
    "vent": 688,
    ".mb": 95725,
    "\u0120wirklich": 56913,
    "_cleanup": 43544,
    "\u00d1\u0122\u00d0\u00b8\u00d0\u00b7": 120017,
    "\u0120th\u00c4\u0125m": 121553,
    "_generic": 42332,
    "\u0120missed": 13942,
    "\u0120correctamente": 59607,
    "\u00e0\u00a5\u0123\u00e0\u00a4\u0137": 101530,
    "\u0120Ti\u00e1\u00bb\u0125u": 127349,
    "\u0120TN": 32023,
    "\u0120cores": 36804,
    ".Observable": 55943,
    "\u0120\u00e0\u00b8\u00aa\u00e0\u00b8\u00b3": 107868,
    "\u0120Scenes": 84283,
    "\u0120\u00eb\u00a3": 124761,
    "(be": 67706,
    "\u0120\u00e4\u00ba\u013c": 118806,
    "\u0120['-": 88741,
    "\u0120circum": 10408,
    "\u00e0\u00a5\u0129\u00e0\u00a4\u00ac\u00e0\u00a4\u00b8": 116733,
    "\u00d9\u0128\u00d8\u00b3\u00d8\u00a7\u00d9\u0128": 124654,
    "\u0120resultList": 72696,
    ".\u010a\u010a\u010a\u010a\u010a\u010a": 9772,
    "etik": 112791,
    "latesAutoresizingMaskIntoConstraints": 61207,
    ".cljs": 41879,
    "(props": 9524,
    "-ranking": 72539,
    "\u0120Anton": 17958,
    "_EVENTS": 62457,
    ".:.:.:.:.:.:.:.:": 105356,
    "\u0120Porto": 70798,
    "\u0120submenu": 78497,
    "\u0120subway": 44346,
    "_vote": 55460,
    ".Mvc": 21580,
    "\u0120Gratis": 24709,
    "isky": 71804,
    "\u0120Elite": 34864,
    "InputBorder": 73799,
    "\u0120hmot": 117204,
    "Drop": 20463,
    "\u00d8\u00a3\u00d8\u00aa": 117156,
    "\u00c2\u00ac": 83193,
    ".isFile": 99835,
    "(IN": 24419,
    "\u00ce\u0139\u00ce\u013f": 111318,
    "decode": 18696,
    "lius": 87519,
    "_port": 8889,
    "ritos": 95112,
    "-email": 43217,
    "\u00e0\u00a4\u00bc\u00e0\u00a4\u00b0": 113605,
    "\u00ed\u013a\u0122": 113048,
    "\u0120disconnect": 30069,
    "ound": 801,
    "ourd": 77492,
    "\u0120gadgets": 54475,
    "\u0120vowed": 51130,
    "\u0120\u00d1\u012b\u00d0\u00be": 100459,
    "\u0120Zack": 71566,
    "current": 3311,
    "\u0120\u00d8\u00a7\u00d8\u00b5\u00d9\u0126\u00d8\u00a7\u00d8\u0143": 116385,
    "\u0120harassing": 87270,
    "\\\">": 11657,
    "\u0120datas": 17304,
    "agic": 13070,
    "\u0120Nisan": 112075,
    "\u00d1\u0139": 100268,
    "/build": 31693,
    "\u00e3\u0123\u0141\u00e3\u0123\u00a1\u00e3\u0123\u00af": 127282,
    "\u0120Trait": 69401,
    "\u0109rep": 74831,
    "\u0120thrust": 30985,
    "looking": 20986,
    "\u0120\u0120\u0120\u0120\u0120\u0120\u0120\u0120\u0120\u0120\u0120\u0120\u0120\u0120\u0120\u0120\u0120\u0120\u0120\u0120\u010d\u010a": 46675,
    "\u00eb\u00b0\u013a": 101738,
    "\u0120landscaping": 65118,
    "_escape": 22585,
    ".install": 51711,
    "SYSTEM": 47587,
    "\u0120noticias": 96701,
    "\u0120Compression": 67261,
    "\u0120\u00d0\u00b0\u00d1\u0122\u00d0\u00be\u00d0\u00bc": 122310,
    "_uuid": 26621,
    "_mv": 74287,
    "\u0120PLAYER": 45817,
    "(H": 11135,
    "\u0120sources": 8336,
    "\u0120Wenger": 78027,
    "\u0120SEO": 26029,
    "\u0120completing": 27666,
    "syscall": 72169,
    "(InitializedTypeInfo": 91817,
    "\u0120\u00d0\u013c\u00d0\u00b0\u00d1\u0124": 115599,
    "DockControl": 70715,
    "ezpe\u00c4\u012f": 114174,
    "\u0120Facility": 47750,
    "(HTTP": 95426,
    ".reference": 51613,
    "\u0120Java": 8102,
    ":<": 32352,
    "RATION": 55871,
    "\u0120immigrants": 20550,
    "customize": 95485,
    "\u00ce\u00bd\u00ce\u00b9": 117278,
    "\u0109ans": 44679,
    "\u00c4\u0141itim": 103674,
    "\u0120praise": 29488,
    "\u00d0\u013c\u00d0\u00be\u00d0\u00b3\u00d0\u00b4\u00d0\u00b0": 123347,
    "\u0120Kral": 117315,
    "\u00e0\u00a4\u00bf\u00e0\u00a4\u00af\u00e0\u00a4\u00b0": 110930,
    "\u0120buffet": 61886,
    "\u0120Scanner": 17613,
    "\u0120keypad": 61305,
    "?:": 4925,
    "\u0120\u00ec": 3396,
    "\u0120\u00ec\u0125\u0123\u00ed\u0125\u013e": 117132,
    "\u0120fk": 63783,
    ".hostname": 55673,
    "Seq": 20794,
    "\u0120mineral": 25107,
    "\u0120RCC": 33017,
    "-not": 30269,
    ".usage": 93794,
    "\u0120idi": 41760,
    "/body": 62211,
    "\u0120www": 8604,
    "\u0120contrario": 83913,
    "\u0120wrestling": 36540,
    "\u0120Sheep": 84008,
    "\u00e6\u012a\u0133": 37046,
    "\u0120volley": 56673,
    ".req": 49469,
    "\u0120\u00eb\u012d\u00a4\u00ec\u0138\u0133\u00ed\u0137\u013e": 118696,
    "\u00e0\u00b9\u012b\u00e0\u00b8\u00b2\u00e0\u00b8\u0129": 101881,
    "\u00eb\u00aa\u0127": 80732,
    "\u00d0\u00bb\u00d0\u00b0\u00d1\u012a": 119549,
    "\u0120scept": 67451,
    "trait": 30532,
    "_exists": 9965,
    "stylesheet": 6936,
    "\u00ec\u00bc\u0135": 119299,
    "\u00d9\u0126\u00db\u012e\u00d8\u00b3\u00db\u012e": 104334,
    "\u0120\u00d0\u00b4\u00d0\u00be\u00d0\u00b1\u00d0\u00b0\u00d0\u00b2\u00d0\u00b8\u00d1\u0124\u00d1\u012e": 123776,
    "\u0120}\u010d\u010a\u010d\u010a\u010d\u010a\u010d\u010a": 77047,
    "\u0120Executes": 56642,
    "\u0120\u00d8\u00a8\u00d9\u0126\u00d9\u0128\u00d8\u00af": 119802,
    "\u00d8\u00a7\u00d8\u00a8\u00d9\u0124\u00d9\u0129": 119845,
    "uintptr": 52480,
    "_ylim": 68746,
    ".Condition": 76234,
    "_mA": 98561,
    "ARGS": 48583,
    "\u0120improvement": 16048,
    "+=(": 58080,
    "\u0120norm": 7617,
    "\u0109tp": 74523,
    "ij": 3251,
    ".Completed": 80924,
    "\u00d0\u00ba\u00d1\u0138\u00d0\u00b2": 101830,
    "\u00e0\u00b9\u012b\u00e0\u00b8\u0143\u00e0\u00b8\u00a2": 104125,
    ".created": 23938,
    "_statistics": 50669,
    "_bank": 36833,
    "\u0120ai": 16796,
    "\u0120pst": 44902,
    "\u0120Truly": 88248,
    "Classic": 64431,
    "\u0120Cumberland": 92782,
    "\u0120hak": 98759,
    "\u0120Nh\u00e1\u00ba\u0143t": 108211,
    "\u0120ener": 38556,
    "-overlay": 52595,
    "\u00e3\u0122\u0123\u00e3\u0123\u0135\u00e3\u0124\u012e": 115847,
    "\u00e3\u0122\u012c": 28038,
    "\u0120\u00c3\u00b6l\u00c3\u00bcm": 113212,
    "\u0120unite": 52696,
    "\u0120\u00d1\u0123\u00d1\u0124\u00d0\u00be\u00d1\u0122\u00d0\u00be\u00d0\u00bd\u00d1\u012d": 111204,
    "\u00ea\u00b8\u00b0\u00eb\u00a1\u013e": 122211,
    "\u0120rendre": 98054,
    "])]": 73180,
    "\u0120raspberry": 94802,
    "\u0120command": 3290,
    "\u00e0\u00a5\u012f\u00e0\u00a4\u00b9": 101358,
    "\u00e0\u00b8\u00b1\u00e0\u00b8\u0137\u00e0\u00b8\u013b": 117776,
    "\u0120jenis": 94351,
    "\u0120ambigu": 62397,
    "ector": 1279,
    "\u0120Haus": 48475,
    "+t": 42801,
    "\u0120WHERE": 5401,
    "DMIN": 22762,
    "-addon": 40877,
    "\u0120setInput": 93691,
    "\u0120collapsing": 72618,
    "ZR": 73930,
    "-long": 24725,
    "loid": 52196,
    "\u0120mal\u00c3\u00a9": 121089,
    "\u0120hom": 5105,
    "avn": 31697,
    "\u0120ils": 46152,
    "\u0120Blu": 38869,
    "ate\u00c5\u013b": 119861,
    "\u0120projecting": 82382,
    "\u0120Zem": 112142,
    "\u0120righteousness": 71329,
    "\u0120finishes": 34136,
    "\u0120semua": 78597,
    "\u0120\u00d8\u00b9\u00d8\u00a8\u00d8\u00a7\u00d8\u00b3": 126475,
    ".rs": 26721,
    "\u00e6\u00af\u012f\u00e4\u00ba\u00b2": 125418,
    "\u0120\u00d0\u013b": 107685,
    "\u0120Locke": 83022,
    "\u00ce\u012e": 123137,
    "?\u00e2\u0122\u013f\u010a\u010a": 16616,
    "-\u00d1\u0131": 107926,
    "oproject": 62451,
    "\u0120\u00e8\u0129\u00b3": 118838,
    "\u0120\u00d0\u00b4\u00d0\u00b8\u00d1\u0124\u00d0\u00b8\u00d0\u00bd\u00d0\u00b8": 123476,
    ".Calendar": 46222,
    "791": 26234,
    "\u0120textbooks": 65303,
    "rale": 46140,
    "\u00c5\u012f": 56761,
    "\u00c5\u0141\u00c4\u00b1": 78413,
    "\u0120\u00ea\u00b3\u00b5": 100994,
    "iples": 38558,
    ".readString": 55602,
    "\u00e0\u00b8\u0142\u00e0\u00b8\u00b2\u00e0\u00b8\u00a2\u00e0\u00b9\u0125\u00e0\u00b8\u013b": 119301,
    "EFAULT": 84815,
    "\u0120receive": 5371,
    "\u0120Science": 10170,
    "\u00e6\u012d\u012f": 105567,
    "_route": 29209,
    ".gamma": 74401,
    "Productos": 88116,
    "\u00e5\u00a6\u0138": 117566,
    "\u0120convincing": 40661,
    "\u00d0\u00b0\u00d1\u0124\u00d0\u00ba\u00d0\u00be\u00d0\u00b2": 106199,
    "\u00e8\u00b0\u0125": 48972,
    "//*": 22132,
    "\u00e0\u00b9\u0122\u00e0\u00b8\u0139\u00e0\u00b8\u00a8": 102996,
    ".metro": 37989,
    "\u00d0\u00bf\u00d1\u0122\u00d0\u00b0": 117924,
    "_enable": 19525,
    "\u0120\u00e4\u00b8\u012c\u00e6\u00b6\u00a8": 121932,
    ":view": 78480,
    "\u0120handwriting": 92809,
    "Este": 44090,
    "\u0120nonce": 40776,
    "\u0120\u00d0\u00be\u00d1\u0124\u00d0\u00bc\u00d0\u00b5\u00d1\u0129": 123878,
    "\u0120c\u00c3\u00b2n": 101717,
    "SECRET": 66410,
    ".Points": 90370,
    "\u0120{}),\u010a": 78972,
    "\u0120Witch": 39450,
    "\u0120vivid": 43120,
    "\u00e6\u012e\u013b": 123680,
    "(img": 11268,
    "(reg": 18897,
    "n\u00c4\u013dj\u00c5\u00a1\u00c3\u0143ch": 123130,
    "\u00e0\u00a4\u00bf\u00e0\u00a4\u00b7": 103396,
    "_RDONLY": 67204,
    "(cm": 52226,
    "\u0120Electronics": 38784,
    "Thor": 98752,
    "\u0109btn": 44121,
    "\u0120trader": 45465,
    "\u0120diffuse": 55517,
    "\u0120\u00d1\u0123\u00d0\u00b0\u00d0\u00b4": 110334,
    "\u0120finding": 9455,
    "\u0120\u00d0\u013e\u00d0\u00b0\u00d0\u00ba": 115354,
    ".DataFrame": 21756,
    "\u0120iTunes": 13323,
    "\u0120\u0120\u0120\u0120\u0120\u0120\u0120\u0120\u0120\u0120\u0120\u0120\u0120\u0120\u0120\u0120\u0120\u0120\u0120\u0120\u0120\u0120\u0120\u0120\u0120\u0120\u0120\u0120\u0120\u0120\u0120\u0120\u0120\u0120\u0120\u0120\u0120\u0120\u0120\u0120\u0120\u0120\u0120\u0120\u0120": 13771,
    "\u00e7\u0123\u00af": 111371,
    "\"That": 34728,
    "\u0120AL": 8927,
    "_PUS": 120585,
    "*/)": 70008,
    "\u0120\u00d9\u0127\u00db\u012e\u00da\u00a9": 117736,
    "\u0120define": 7124,
    "ools": 6309,
    "\u0120\u00e5\u0132\u012f": 62205,
    "\u0120\u00ec\u0137\u012e\u00ea\u00b3\u0142": 115877,
    "histoire": 90446,
    "\u00ea\u00b2\u00bc": 122509,
    "slice": 26010,
    ".modules": 27904,
    "184": 10336,
    "\u00e0\u00b9\u012e\u00e0\u00b9\u0125\u00e0\u00b8\u013b": 122223,
    "urile": 93448,
    "Coding": 78613,
    "\u0120sil": 5554,
    ".hot": 58802,
    "\u0120GOOD": 22469,
    "\u0120g\u00e1\u00bb\u0139": 111970,
    "/autoload": 70963,
    "obra": 29956,
    "volt": 97371,
    "\u0120distra": 58571,
    "tak": 119711,
    "formerly": 70614,
    "\u0120\u00d8\u00a7\u00d9\u0126\u00d9\u0127\u00d8\u00af\u00d9\u012c\u00d9\u0128\u00d8\u00a9": 121936,
    "vl": 14878,
    "ASK": 7536,
    "\u0120Jab": 54082,
    "\u00d0\u00b8\u00d1\u0124\u00d0\u00be\u00d0\u00b2": 123876,
    "\u00d9\u0129\u00d8\u00af\u00d9\u0123": 127905,
    "\u0120proceedings": 29407,
    "\u0120Pork": 85034,
    "\u0120Officer": 20148,
    "\u0120\u00e3\u0124\u00a2": 94632,
    "arak": 28985,
    "\u0120Xia": 41235,
    "\u0120cabo": 89484,
    "awa": 14406,
    "\u0120dva": 107890,
    "Touch": 11561,
    "(bar": 55730,
    "\u0120Equals": 39835,
    "\u0120majors": 56333,
    "ContentAlignment": 77056,
    "\u0120Submission": 59834,
    "_PT": 66161,
    "Sand": 48144,
    "HQ": 90719,
    "\u00e4\u00bc\u0142": 42783,
    ".Nav": 89875,
    "getCell": 90614,
    "522": 20936,
    "\u00e3\u0123\u00aa\u00e3\u0123\u0133\u00e3\u0124\u012e\u00e3\u0123\u00b0": 123207,
    "\u0120\u00d8\u00b9\u00d8\u00b4": 111860,
    "/inet": 84181,
    "ERRUPT": 49684,
    "Description": 5116,
    "|(": 61116,
    "\u0120Phi": 64913,
    "-Benz": 63321,
    "NST": 51579,
    "\u0120*/}\u010a": 22390,
    ".down": 18644,
    "wner": 4826,
    "\u00d0\u00b4\u00d0\u00bd": 109936,
    "\u00cf\u0122\u00ce\u00b5\u00ce\u00b9": 109346,
    "\u00ef\u00ba\u0130": 107064,
    "isOk": 80374,
    "\u0120remnants": 73440,
    ".mac": 62925,
    "\u00d9\u0124\u00d8\u00b9": 103437,
    "_ram": 63224,
    "\u0120lax": 74830,
    "_AVAILABLE": 52923,
    "_IDX": 42032,
    "\u0120\u00d0\u00be\u00d0\u00bf\u00d1\u0122\u00d0\u00b5\u00d0\u00b4\u00d0\u00b5\u00d0\u00bb\u00d1\u0131": 114151,
    "\u00e3\u0122\u0123\u00e3\u0123\u00a9\u00e3\u0123\u0128": 120953,
    ".youtube": 20751,
    "\u0120Erectile": 89889,
    "\u0120BREAK": 70747,
    "ollar": 21999,
    "\u0120ya\u00c5\u0141\u00c4\u00b1nda": 122229,
    "\u0120regenerate": 80551,
    ".Reflection": 26096,
    "vell": 73312,
    "INCT": 46419,
    "ufact": 4830,
    "\u0120feudal": 95450,
    "SuccessListener": 81905,
    "\u0120persuasive": 66343,
    "\u0120\u00d9\u0127\u00d8\u00af\u00d8\u00b1": 109454,
    "\u0120bunch": 15860,
    "(new": 1792,
    "SECOND": 99304,
    "elly": 12160,
    "\u0120adolescente": 83035,
    "\u0120proph": 40334,
    "Japan": 49852,
    "are": 548,
    "768": 17521,
    "\u00e9\u0122\u013c\u00e4\u00bf\u00a1": 118597,
    "NotSupportedException": 82684,
    "_menus": 84433,
    "\u0120brill": 18041,
    "(alert": 54537,
    "nocen\u00c3\u0143": 115025,
    "\u0120env": 6233,
    "\u00d1\u0138\u00d1\u0136\u00d1\u0130": 115085,
    "(host": 20569,
    "spin": 42682,
    "thought": 61665,
    "\u0120Availability": 52910,
    "\u0120Confederate": 57457,
    "\u0120horrors": 70618,
    "encode": 6311,
    "++){\u010d\u010a": 24484,
    "\u0120presup": 71392,
    "\u0120apprent": 46430,
    "Frequency": 39714,
    "(min": 14478,
    "\u0120Circular": 46861,
    "<I": 13635,
    "account": 4711,
    "\u0120Oswald": 90450,
    "modules": 11786,
    "212": 11227,
    "\u0120hybrids": 97205,
    "\u0120ij": 72961,
    "ivic": 40506,
    "\u0120enam": 82952,
    "_ATTRIBUTE": 33345,
    "-clock": 55388,
    "\u0120handles": 13777,
    ".water": 87623,
    "[E": 61097,
    "_icall": 83484,
    "\u00e5\u00bc\u0122\u00e6\u0136\u00be": 124648,
    "utin": 123389,
    "\u0120CREATE": 31876,
    "\u00c3\u00bct": 29758,
    "\u0120GPA": 71155,
    "DESCRIPTION": 46533,
    "\u0120Emacs": 64576,
    ".escape": 58181,
    "-sum": 76911,
    "\u0120PostgreSQL": 74701,
    ".generate": 22793,
    "\u0120SA": 16998,
    "\u00e7\u00a7\u0123": 86127,
    "\u00e8\u013e\u013e": 122519,
    "\u0120bankers": 64243,
    ".QRect": 87827,
    "\u00e7\u00ba\u00af": 118465,
    ".INVISIBLE": 57631,
    "at\u00c3\u00b6r": 114055,
    "\u0109channel": 72650,
    "\u0120gold": 6761,
    "\u00e0\u00b9\u012a\u00e0\u00b8\u00b2\u00e0\u00b8\u00a3": 124890,
    "hog": 61722,
    ":no": 67579,
    "(mapping": 82157,
    "\u00d8\u00a7\u00d9\u0126\u00d9\u0127": 101952,
    "ToObject": 82641,
    ".baidu": 57078,
    "-and": 9976,
    "\u0120\u00d8\u00b6\u00d9\u012a": 122278,
    "xcf": 56749,
    "\u00e7\u013c\u0126\u00e4\u00b8\u0122": 105067,
    ".BooleanField": 44843,
    "\u0120'../../": 6490,
    "eway": 25754,
    "\u0120\u00eb\u013e\u00bb": 118183,
    "\u0120dist": 1612,
    "-inflammatory": 67595,
    ".Persistence": 68264,
    "\u0120hugely": 49737,
    "\u0120\u00d0\u0141\u00d0\u00b0\u00d0\u00b2": 114087,
    ">List": 93236,
    "/plain": 38071,
    "\u0120zoals": 84541,
    ",new": 33385,
    "\u0120\u00d0\u00ba\u00d0\u00be\u00d1\u0122\u00d0\u00bf": 112038,
    "\u0120TextInputType": 93651,
    "\u0120csr": 70032,
    "\u0120letto": 98999,
    "/DTD": 76714,
    "\u00e6\u00b5\u00aa": 114115,
    "\u00d9\u0126\u00d9\u0127\u00d8\u00a7\u00d9\u0128": 104312,
    "\u00cf\u0126\u00ce\u0143\u00cf\u0123\u00ce\u00b1": 124984,
    "\u0120SEL": 41938,
    ".AutoSizeMode": 84900,
    "\u00e9\u00a4\u00a8": 104517,
    ".magic": 89970,
    "-www": 42342,
    "\u0109restore": 97127,
    "asper": 33361,
    "\u0120shores": 63263,
    "\u0120pObj": 61052,
    "lip": 34215,
    "\u00e3\u0125\u012c\u00e3\u0125\u00ab": 115307,
    ".us": 22680,
    "\u0120h\u00c3\u00a4t": 75592,
    ".findById": 22382,
    "OfSize": 45226,
    "nts": 66777,
    "_losses": 67262,
    "\u00e0\u00b8\u0143\u00e0\u00b8\u0143\u00e0\u00b8\u013b\u00e0\u00b9\u0126\u00e0\u00b8\u00a5\u00e0\u00b8\u013b": 109537,
    "\u0120\u00d9\u0128\u00d8\u00a7\u00d8\u00af\u00d9\u012c": 123573,
    "\u0120validated": 33432,
    "\u00e9\u00a1\u00ba": 110291,
    ");*/\u010a": 56646,
    "\u0120romance": 30363,
    "_params": 6887,
    "\u00ec\u00a2\u0127": 102757,
    "\u0120divisor": 50209,
    "\u0120HL": 53587,
    "\u0120sergeant": 84221,
    "\u00d1\u0122\u00d0\u00b0\u00d0\u00bc": 38808,
    "\u0120unchanged": 35957,
    "\u0120abrupt": 44077,
    "dney": 19316,
    "\u0120logs": 18929,
    "(null": 5074,
    "Whether": 25729,
    "herence": 52461,
    "\u00c3\u00aanh": 127758,
    "odn\u00c3\u0143": 111464,
    "_kb": 96738,
    "')['": 67114,
    ":semicolon": 47817,
    "\u0120Recycling": 81685,
    "\u0120somew": 9179,
    "\u00e5": 161,
    "_gb": 89035,
    "Recognition": 62392,
    "\u0120dragons": 51536,
    "\u00d0\u00be\u00d1\u0123": 23630,
    "\u0109stop": 63744,
    "\u0120Cue": 97994,
    "\u0120Ly": 16333,
    "\u0120h\u00e1\u00bb": 100310,
    "\u0120nuances": 84889,
    "\u0120threatening": 27903,
    "_select": 13350,
    "\u0120\u00d0\u00b8\u00d1\u0123\u00d1\u0124\u00d0\u00be\u00d1\u0129": 116301,
    "\u0120Munich": 47304,
    ".Permission": 74509,
    "%\",\u010a": 21531,
    "enumerate": 77669,
    "hands": 89112,
    "=\"\",": 46563,
    "\u0120getImage": 55661,
    "\u0120physician": 28378,
    ".tab": 12687,
    "\u0120\u00d9\u0129\u00db\u012e\u00da\u0128": 108732,
    "\u00d0\u00bd\u00d0\u00be\u00d0\u00bc\u00d1\u0125": 101322,
    "%\",": 41292,
    "\u0120SSL": 26384,
    "\u0120maar": 32691,
    "nonnull": 62536,
    "eyer": 35472,
    "dataTable": 67869,
    "\u0120MW": 45582,
    "\u0120\u00e0\u00a4\u00ac\u00e0\u00a4\u00b0": 108908,
    "\u0120teaspoons": 93200,
    "\u0120ld": 27221,
    ".Null": 24933,
    "trusted": 84937,
    ".Y": 7659,
    "Technology": 63507,
    "\");\u010a\u010a\u010a": 33736,
    "\u0120Broken": 54683,
    "combe": 92157,
    "eryl": 46125,
    "\u0120Spiral": 89888,
    "(board": 21433,
    "\u0120subs": 5258,
    "\u0120cach": 61387,
    "Abr": 90528,
    "\u00d0\u00be\u00d1\u0131\u00d0\u00bd": 108215,
    "Unmarshaller": 88790,
    "UB": 4594,
    "\u0120CLL": 51396,
    "\u0120BCE": 79677,
    "\u0120Eigen": 25059,
    "\u0120Basin": 61358,
    "(('": 46775,
    "\u0120Ranked": 98048,
    "\u0120regiment": 75541,
    "ancers": 32842,
    ".write": 3921,
    "\u0120unknow": 84644,
    "_sd": 41268,
    "thickness": 92067,
    "876": 24870,
    "GRAPH": 41084,
    "datum": 57033,
    ".Attach": 89384,
    "\u0120ser\u00c3\u00a3o": 99524,
    "\u00d1\u0126\u00d0\u00be\u00d1\u0122\u00d0\u00bc\u00d0\u00b0": 102559,
    "\u0120clearfix": 37727,
    "\u0120framerate": 98351,
    "\u00e6\u012b\u00b6": 122740,
    "\u00c5\u013bejm\u00c4\u013d": 109374,
    "\u0120complimentary": 54428,
    "lld": 33559,
    "\u0120intim": 22713,
    "SENT": 31758,
    "\u00e5\u0143\u00a9": 105989,
    "\u0120missile": 26290,
    "\u00c4\u012fel": 115551,
    "\u0120\u00d8\u00a8\u00d8\u00aa": 108848,
    "\u0120\u00d0\u00b6\u00d0\u00b5\u00d0\u00bd": 105200,
    "\u0120Prep": 49169,
    ".Audio": 52611,
    "\u0120Kath": 33995,
    "\u0120currentTime": 40299,
    "aura": 22290,
    "029": 23273,
    "\u00e9\u0137\u013e": 116979,
    "Dat": 46796,
    "\u0120strands": 69864,
    "cca": 25445,
    "()[": 10324,
    "Direction": 9452,
    "\u00d0\u013a": 31274,
    "\u0120reserva": 99744,
    "\u0120funkc": 72878,
    "\u0120longstanding": 74229,
    "/Test": 81627,
    "\u0109\u0120": 3762,
    "\u00d1\u0125\u00d0\u00b6\u00d0\u00b4": 119790,
    "\u00e5\u00b0\u0131\u00e8\u00af\u00b4": 119585,
    "\u00e3\u0122\u0122\u00ef\u00be\u012b": 113560,
    "\u0120indu": 4507,
    ":<?": 90571,
    "\u0120veteran": 21487,
    "\u0120Cir": 42009,
    "\u0120gubern": 91522,
    "j\u00c5\u00a1\u00c3\u0143": 101421,
    "Dirs": 98484,
    "\u0120i": 602,
    "\u0120Beans": 81836,
    "\u0120\u00ce\u0137\u00cf\u0127": 110699,
    "\u0120\u00d8\u00b2\u00d8\u00a7\u00d8\u00af\u00d9\u0129": 112674,
    "aaa": 33746,
    "ollen": 33389,
    "_given": 58753,
    "gabe": 62329,
    "\u0120Wichita": 88718,
    "\u0120\u00e3\u0124\u00a6": 111707,
    "\u0120t\u00c5\u013bet": 124421,
    "\u00ce\u00b3\u00cf\u0123\u00ce\u00b1": 103105,
    "_BASIC": 72168,
    "WindowText": 99556,
    "\u0120Nile": 77290,
    "ths": 17323,
    "\u0120Lessons": 61566,
    "\u0120payable": 45691,
    "\u0120mevcut": 110387,
    "\u0120alimentos": 90591,
    "\u0120tarihli": 123848,
    "\u00ec\u013d\u00a8\u00ec\u0138\u00b4": 122944,
    "\u0120\u00eb\u0126": 66653,
    "RDD": 98168,
    "\u0120kommun": 89043,
    "\u0120pathlib": 54259,
    "\u0120widgets": 32955,
    "\u00cf\u0122\u00ce\u00b1": 102842,
    "\u0120\u00d8\u00aa\u00d9\u0128\u00d8\u00b8\u00d9\u012c\u00d9\u0123": 120123,
    ".forward": 27613,
    "\u0120[": 510,
    "EXTERNAL": 96376,
    "\u0120Ragnar": 95362,
    "\u0120abre": 67441,
    "_responses": 82392,
    ".ToolStripMenuItem": 23057,
    "Brit": 36328,
    "\u0120rap": 7477,
    "ffc": 78987,
    "\u00ea\u00b0\u0122\u00eb\u00a5\u00bc": 123740,
    "\u0120k\u00e1\u00bb\u012dp": 122839,
    "\u0120m\u00e1\u00bb\u013fi": 127776,
    "Phone": 7084,
    "HeaderCode": 98358,
    "\u0109\u0109\u0109\u0109\u010a": 7786,
    "dataset": 22090,
    "(Status": 39966,
    "\u0120\u00d0\u00bc\u00d0\u00b0\u00d1\u0124\u00d0\u00b5\u00d1\u0122\u00d0\u00b8\u00d0\u00b0\u00d0\u00bb": 107723,
    "\u0120\u00c5": 27006,
    "$__": 100124,
    "ONGLONG": 99596,
    "sphere": 88510,
    "\u0120intric": 94603,
    "_an": 12277,
    "\u00e4\u00bf\u00a1": 22023,
    "\u00e3\u0125\u0122\u00e3\u0125\u00bc": 126567,
    ",data": 27732,
    "<|reserved_special_token_213|>": 128221,
    "-effect": 23937,
    "-operator": 95787,
    "\u00e3\u0124\u00b8\u00e3\u0125\u00a7": 113909,
    "\u0120GIF": 47866,
    "\u0120Shares": 45285,
    "Henry": 64463,
    "\u00e3\u0125\u00bc\u00e3\u0125\u0128": 111073,
    "\u0120\u00c2\u00a3": 7083,
    "onomous": 30946,
    "oolStrip": 10302,
    "\u0120atm": 70887,
    "QE": 99125,
    "\u0120Graphic": 45051,
    "\u0120Mei": 92033,
    "\u0120sail": 30503,
    "i\u00c5\u0141ti": 117494,
    "\u0120CONNECT": 64122,
    "_TOP": 26557,
    "(en": 46708,
    "\u0120Leading": 59143,
    "\u0120primer": 27909,
    "\u0120s\u00c3\u00a2u": 111202,
    "\u0120\"]": 22004,
    "(fm": 92744,
    "\u0120emerging": 24084,
    "histor": 44541,
    "APPER": 64538,
    "ption": 562,
    "\u0120frivol": 96524,
    "_PROGRAM": 60932,
    "\u0120soph": 19219,
    "\u00eb\u0127\u0132": 111281,
    "ized": 1534,
    "\u0120$#": 67015,
    "\u0120Gods": 44875,
    "proj": 31486,
    "\u0120\u00d0\u00be\u00d0\u00b4\u00d0\u00b5\u00d1\u0122\u00d0\u00b6": 126319,
    "\u0109Dictionary": 93191,
    "\u0120terr": 7317,
    "\u0120khu\u00e1\u00ba\u00a9n": 123747,
    "\u0120:-)": 92941,
    "resume": 42495,
    "\u00ce\u00b5\u00cf\u012b": 109660,
    "Radius": 8453,
    "\u0120\u00d0\u00bf\u00d1\u0122\u00d0\u00be\u00d1\u0128\u00d0\u00b5\u00d1\u0123\u00d1\u0123": 110793,
    "\u0120fetisch": 98830,
    "ermal": 18558,
    "_tra": 28341,
    "UIStoryboardSegue": 90550,
    "\u0120ANC": 86114,
    "\u0120\u00d8\u00aa\u00d8\u00ac\u00d8\u00a7\u00d8\u00b1\u00db\u012e": 126320,
    "osu": 111627,
    "\u00e9\u0122\u0141\u00e5\u00ba\u00a6": 113053,
    "\u0120Jakarta": 64133,
    "igkeit": 51599,
    "chest": 27417,
    "'):\u010d\u010a": 61138,
    "\u0120systemFontOfSize": 52916,
    "\u00d8\u00a7\u00d8\u00aa\u00d8\u00b1": 109626,
    "\u0120Whilst": 71828,
    "_nth": 79442,
    ".\"\u010a": 10246,
    "\u0120\u00ea\u00b0\u0122\u00ec\u0140\u00a5": 107120,
    "\u0120FSM": 72067,
    "Async": 6662,
    "\u0120\u00d8\u00af\u00db\u012e\u00da\u00af\u00d8\u00b1\u00db\u012e": 114077,
    "uito": 26653,
    "\u0120fun": 2523,
    "\u0120NW": 42174,
    "\u00e7\u0124\u00ae": 125194,
    "\u0120ba\u00c5\u0141ar": 106484,
    "\u0120bied": 98576,
    "\"})": 81254,
    "Included": 85710,
    "-inch": 25224,
    "\u0120MatDialog": 53575,
    "\u00ce\u00af\u00ce\u00b8": 116851,
    "=='": 9461,
    "\u0120\u00ea\u00b8\u012b": 117208,
    "uddenly": 44806,
    "\u0120\u00d1\u0125\u00d1\u0123\u00d0\u00bb": 97991,
    "\u00e3\u0122\u0122\u0120": 107945,
    "\u0120pun": 8474,
    "\u0120webhook": 76368,
    "\u0120Bast": 46168,
    "[element": 81202,
    "(Material": 56326,
    "\u0120Excellence": 58240,
    "\u0120renewed": 36646,
    "\u00e0\u00b8\u0143\u00e0\u00b8\u00a1": 101072,
    "\u00e5\u013d\u00bd\u00e9\u013b\u0127": 107604,
    "\u0120spray": 23749,
    "\u0120excitement": 28361,
    "CTYPE": 15365,
    "\u0120stealth": 48065,
    ".Invoke": 33884,
    "\u00e5\u0122\u00ba": 115664,
    "unbind": 74211,
    "qh": 93000,
    "_exist": 37006,
    "\u0120poorer": 66281,
    "\u0120--\u010a": 40614,
    "pk": 21486,
    "\u0120h\u00e1\u00ba\u00a1n": 103782,
    "[js": 24209,
    "\u0120serialVersionUID": 24598,
    ".Variable": 41170,
    "\u0120Gron": 87330,
    "\u0120\u00d0\u00be\u00d1\u0129\u00d1\u0138": 114625,
    "\u00e9\u0124\u00aa": 123296,
    "\u0120THINK": 93219,
    "\u0120uploader": 83357,
    "\u00e4\u00ba\u012d\u00e6\u0137\u0127": 123429,
    "ocumented": 37784,
    "={['": 96690,
    "\u0120\u00e5\u00a3": 110944,
    "\u0120counseling": 42316,
    "\u0120ISP": 54533,
    "%": 4,
    "\u0120\u00ce\u00bf\u00ce\u00bc\u00ce\u00ac": 114536,
    "\u0120\u00e5\u012a\u013f": 111946,
    "/module": 49285,
    "precedented": 29791,
    "IONS": 43486,
    "\u0120DAR": 97227,
    "\u0120thi\u00e1\u00ba\u00bft": 101846,
    "Critical": 43108,
    "(+": 42038,
    "inta": 34569,
    ".Requires": 86112,
    "eger": 1916,
    "\u0120\u00d0\u00b1\u00d1\u0122\u00d0\u00be\u00d1\u0123": 124892,
    "\u0120su": 924,
    ".Cell": 33509,
    "\u0120shaping": 46620,
    "\u0120erotik": 28662,
    "victim": 92039,
    "_Num": 62983,
    "chedulers": 37312,
    "\u0120aras\u00c4\u00b1nda": 102957,
    "\u0120laughed": 32627,
    "-spot": 98680,
    "\u0120Veter": 26829,
    ".option": 30264,
    "\u0120getUser": 24075,
    "\u00e6\u0130\u012a": 107141,
    "\u0120alumnos": 98959,
    "\u0120kaum": 100125,
    "\u0120wedding": 13306,
    "\u00d9\u012a\u00d8\u00a7\u00d9\u0129": 101920,
    "idan": 56304,
    "\u0120Departments": 85608,
    "isk": 3267,
    "\u00cf\u0126\u00ce\u00bf\u00ce\u00bd": 108656,
    "\u0120/>,\u010a": 57083,
    "\u00e0\u00b8\u0140\u00e0\u00b8\u0143": 126098,
    "\"d": 46017,
    "\u0120fase": 70812,
    "\u0120\u00d0\u00b3\u00d1\u0122\u00d1\u0125\u00d0\u00b4": 107527,
    "ammen": 37872,
    "\u0120()": 1754,
    "aise": 4105,
    "\u0120\u00d0\u00ba\u00d0\u00b2": 116136,
    "\u00e5\u00a1": 59657,
    "\u0120n\u00c3\u00a1zev": 122846,
    "Spaces": 72424,
    "\u0109ms": 48791,
    "\u00ed\u0140\u012a": 101709,
    "\u0120meters": 20645,
    "\u0120binge": 73922,
    "\u0120nh\u00e1\u00bb\u013f": 114492,
    ".tc": 79690,
    "_CODES": 42788,
    "\u0120ForeignKey": 80015,
    "\u0120Maurit": 89313,
    "<![": 77163,
    "\u0120\u00d8\u00b2\u00d9\u012a\u00d8\u00ac": 122642,
    "\u0120mM": 84317,
    "\u0120crawl": 46764,
    "ction": 407,
    "yms": 76125,
    "eeper": 44131,
    ".stamp": 92696,
    ".\\\"": 87965,
    "\u0120plat": 46089,
    "DOC": 32564,
    "\u00d1\u0125\u00d1\u0130\u00d1\u0124\u00d1\u012e": 103852,
    "_REALTYPE": 57361,
    "ecial": 111644,
    "\u0120matchmaking": 63087,
    "\u0120Lager": 85858,
    "[in": 15736,
    "\u0120disagreement": 62646,
    "\u0120notoriously": 73835,
    "\u0120posible": 56132,
    "\u0120]\u010d\u010a": 49164,
    "_IM": 8516,
    "emodel": 96748,
    "\u0120\u00d1\u0123\u00d0\u00b2\u00d0\u00be\u00d0\u00b5\u00d0\u00b9": 110103,
    "\u0120articulated": 83280,
    "\u00c2\u00aa": 65005,
    "\u0120\u00c3\u00a7o\u00c4\u0141u": 117573,
    "within": 56950,
    "\u00e3\u0123\u0142\u00e3\u0123\u0137\u00e3\u0123\u0126": 70897,
    "\u0120psyche": 88909,
    "\u0120Deborah": 70625,
    "\u0120:\";\u010a": 92998,
    ".keyCode": 32675,
    "\u0109stats": 80759,
    "Dom": 23658,
    "Stan": 52059,
    "\u010d\u010a\u0109\u0109\u010d\u010a": 62961,
    "\u0120Forbes": 48381,
    "\u0120\u00d1\u0124\u00d0\u00b5\u00d1\u0129\u00d0\u00b5\u00d0\u00bd\u00d0\u00b8\u00d0\u00b5": 109742,
    "roi": 51560,
    "(video": 41842,
    "china": 81236,
    "He": 1548,
    "\u0120yok": 90777,
    "\u0120Muk": 70319,
    "\u00e0\u00b8\u00a3\u00e0\u00b8\u00a3": 104647,
    "\u0120partly": 28135,
    "\u00d8\u00b0": 56434,
    ".OnItemClickListener": 80927,
    "\u0120\u00d0\u00bb\u00d1\u0130\u00d0\u00b1\u00d0\u00be\u00d0\u00b9": 119508,
    "istro": 15931,
    "\u0120IH": 46411,
    "-auth": 34603,
    "(hw": 74851,
    "PostMapping": 41838,
    "\u00e1\u00bb\u0143a": 91163,
    "\u00ec\u012c\u00a4\u00ed\u0125\u0122": 111635,
    "\u00e2\u0122\u0132'": 127354,
    "\u0120Muhammed": 123615,
    ".B": 1823,
    "?\u00e2\u0122\u013f": 12671,
    "\u0120igual": 44575,
    "\u00e8\u00b5\u00b7": 72718,
    "\u00eb\u00b9\u013b": 126015,
    "\u0120ch\u00e1\u00bb\u012b": 99227,
    "erval": 6283,
    "\u0120teacher": 11326,
    "\u0120beams": 51045,
    "\u00e0\u00b8\u0143\u00e0\u00b8\u0143\u00e0\u00b8\u0123\u00e0\u00b9\u0123\u00e0\u00b8\u013c\u00e0\u00b8\u013c": 126695,
    "commend": 31628,
    "\u0120\u00e2\u0138\u0133": 91913,
    "\u0120elsif": 25490,
    "\u0109fflush": 88567,
    "\u0120duplex": 81268,
    "Unix": 56932,
    "oshi": 32945,
    "\u0120Reload": 57441,
    "\u0120Set": 2638,
    "Pref": 31078,
    "\u0120\u00c4\u00b0mpar": 121848,
    "\u0120cardinal": 56980,
    "\u0120mk": 24723,
    "\u00e3\u0124\u00b9\u00e3\u0125\u0128\u00e3\u0124\u00a3": 127674,
    "\u0120cool": 7155,
    "\u0120\u00d1\u0138": 84954,
    "\u0120DRIVE": 96887,
    "$\u010a": 26101,
    "\u00ed\u0137\u013b\u00ec\u0125\u013f": 111291,
    "\u00ef\u00bd\u0143": 127255,
    "California": 46510,
    "_flow": 28541,
    "\u0120phenotype": 82423,
    "\u00e0\u00a4\u00bf\u00e0\u00a4\u00ac": 110947,
    "\u0120\u00ce\u00ba\u00ce\u00ac\u00ce\u00b8\u00ce\u00b5": 115959,
    "\u00d9\u0132\u00d9\u0125": 120570,
    "\u00e4\u00be\u00a1": 95001,
    "\u0120Trey": 82560,
    "\u0120Leah": 67961,
    "\u0120Languages": 56064,
    "\u0120\u00d0\u00b4\u00d1\u0125\u00d1\u0127": 107863,
    ".offsetWidth": 78907,
    "\u0120\u00eb\u0136\u0136\u00ec\u0140\u0132\u00ec\u013f\u00b8": 126598,
    "\u00e7\u00be\u0130\u00e5\u013e\u012d": 116271,
    "ami": 10830,
    "\u0120\u00d8\u00a7\u00d9\u0126\u00d8\u00b9\u00d8\u00b1\u00d8\u00a7\u00d9\u0124": 119634,
    ".download": 36481,
    "ooke": 86558,
    "OfYear": 83302,
    "_locations": 46132,
    "\u00e8\u00af\u013f": 58543,
    "ja": 5697,
    "\u0120Foundations": 99612,
    "\u0120science": 8198,
    "\u0120UIS": 29897,
    "\u00e0\u00b9\u0123\u00e0\u00b8\u0124": 104299,
    "\u0120Yourself": 60005,
    "\u0120complexities": 84140,
    "\u0120n\u00c3\u00a3o": 12674,
    "\u0120adapting": 70817,
    "\u0120commerce": 36754,
    "\u0120liberty": 31220,
    "allowed": 21642,
    ".receive": 57151,
    "\u0120hym": 67743,
    "=\"__": 79627,
    "\u0120ba\u00c4\u0141\u00c4\u00b1r": 120302,
    "\u0120proto": 18940,
    "\u0120\u00d1\u0122\u00d0\u00b5\u00d0\u00b1\u00d0\u00b5\u00d0\u00bd\u00d0\u00ba\u00d0\u00b0": 109966,
    "contri": 13151,
    "iap": 68821,
    "\u0120qu\u00e1\u00bb\u0133c": 102975,
    "documents": 51878,
    "\u0120IST": 76558,
    "\u0120skupiny": 116124,
    "\u00e2\u0122\u013bB": 86846,
    "DataContract": 93938,
    "(temp": 9957,
    "592": 20128,
    "\u0120ECM": 80700,
    "\u0120appointments": 37256,
    ".ALL": 46021,
    "\u0120deviation": 38664,
    "Subjects": 91517,
    ":].": 73659,
    "ektir": 103627,
    "961": 26114,
    "\u0120stadiums": 90184,
    "\u0120\")[": 69400,
    "\u0120comic": 20303,
    "texture": 28596,
    "-manager": 45996,
    "Correction": 85655,
    "\u00c2\u0142\u010a\u010a": 126595,
    "\u00d8\u00b5\u00d8\u00af": 104324,
    "_places": 58546,
    "\u0120denial": 35013,
    ">B": 37821,
    "\u00c3\u00bc\u00c5\u0141": 100542,
    "\u0120\u00e2\u0122\u012d\u00e2\u0122\u012d": 73463,
    "\u00e5\u0138\u00ae": 107874,
    "\u0120apenas": 47767,
    "\u00d9\u012c\u00d8\u00ab": 105690,
    "\u00d0\u00b5\u00d1\u0123\u00d1\u0124\u00d1\u012e": 110866,
    "\u0120demographic": 38462,
    "lickr": 32903,
    "\u0120b\u00c3\u00basqueda": 99599,
    "\u0120densities": 90816,
    "\u00e7\u013e\u012d\u00e7\u013e\u012d": 123209,
    "'post": 65482,
    "\u0120\u00e7\u00a1": 119786,
    "_GROUPS": 90289,
    "cepts": 58871,
    ".Course": 73397,
    "(cls": 21024,
    "\u00e4\u00be\u013d\u00e5\u00ba\u0136": 126907,
    "\u0120lower": 4827,
    "\u0120rubber": 23506,
    "\u00e5\u0131\u00b0\u00e7\u0123\u00a3": 117342,
    "ahan": 22826,
    "\u0120VOID": 60357,
    "\u0120repairs": 31286,
    "\u0120\u00d0\u0141\u00d0\u00b0\u00d1\u0122\u00d0\u00b8": 126855,
    "jualan": 83025,
    "(Some": 66505,
    "oce": 81656,
    "\u0120Prices": 37133,
    "\u0120point": 1486,
    "LINK": 37056,
    "(seq": 35920,
    "_cancel": 29995,
    "ad\u00c4\u00b1\u00c4\u0141\u00c4\u00b1": 106228,
    "guid": 24343,
    "\u0120blockIdx": 85379,
    ".\"</": 41197,
    "\u0120racing": 22019,
    "beiten": 51756,
    "\u00e5\u00af\u00b9\u00e8\u00b1\u00a1": 65529,
    "\u0120\u00d9\u0127\u00d8\u00a8": 106098,
    "\u0120ost": 37996,
    "\u0120\u00d0\u013e\u00d0\u00b8\u00d0\u00ba\u00d0\u00be\u00d0\u00bb\u00d0\u00b0": 126640,
    "\u0120ing": 6892,
    "\u0120Bath": 19710,
    "\u0109pool": 86373,
    "\u0120g\u00c3\u00bc\u00c3\u00a7": 104274,
    "\u0120Allan": 61325,
    "\u0120manufacturer": 14290,
    "BUG": 3558,
    "-house": 37002,
    "\u00d0\u00b6\u00d0\u00b5\u00d0\u00bd\u00d0\u00b5\u00d1\u0122": 125830,
    "\u0120cancel": 9299,
    "\u00ef\u00bc\u00bf\u00ef\u00bc\u00bf\u00ef\u00bc\u00bf\u00ef\u00bc\u00bf": 104056,
    "\u0120f\u00c4\u00b1k": 125425,
    "they": 20670,
    ".dispose": 32120,
    "olver": 8080,
    "osten": 14339,
    "ivec": 69680,
    ".activ": 58590,
    "\u0120\u00eb\u00b0\u0136\u00eb\u00a1\u013e": 113531,
    "\u0120MMC": 69035,
    "\u0120grund": 94534,
    "\u00d9\u0124\u00d8\u00b1\u00d8\u00a7\u00d8\u00b1": 123924,
    "zm": 32589,
    ",www": 46650,
    "\u0120Reg": 3263,
    "\u0120kn\u00c3\u0143": 127943,
    "combination": 76128,
    "\u0120recommends": 40912,
    ".ll": 60098,
    "\u0120panc": 54574,
    "\u0120bricks": 50137,
    "\u0120Modal": 22017,
    "\u0120ccp": 99997,
    "(summary": 83142,
    "\u0120excuse": 28391,
    ".DE": 10813,
    "\u0120pillows": 67026,
    "\u0120yr": 43438,
    "\u00e0\u00b8\u00b1\u00e0\u00b8\u013c\u00e0\u00b8\u00a1": 119306,
    "emek": 105820,
    "\u00ec\u0136\u00a9": 123504,
    "\u0120Loss": 25733,
    "_CENTER": 35655,
    "'))->": 58062,
    "<Result": 62429,
    "\u00ec\u00a3\u00bd": 125643,
    "Inicio": 47868,
    "_perf": 77876,
    "\u0109\u0120\u0120\u0120\u0120\u0120\u0120\u0120\u0120\u0120\u0120\u0120\u0120\u0120\u0120\u0120\u0120": 75012,
    "\u00e4\u00b8\u012f\u00e5\u0131\u00af": 109947,
    "\u0120DXGI": 75600,
    "\u0120Logged": 58155,
    "\u0120SER": 14311,
    "\u0120Opportunity": 48379,
    ".micro": 62902,
    "\u0120Port": 5896,
    "acom": 45670,
    "PD": 23891,
    "\u0120software": 3241,
    "-h": 2902,
    "\u0120bounced": 70904,
    "HomeController": 64672,
    "\u00e1\u00bb\u00a3i": 110555,
    "\u0120\u00e6\u0139\u00a5\u00e6\u013e\u00ac": 105180,
    "\u00e5\u00be\u012e\u00e3\u0123\u00ae": 123470,
    "assume": 46151,
    "\u0120Philippine": 57281,
    "olt": 6312,
    "ennial": 32331,
    ".TEXT": 42772,
    "ating": 1113,
    "\u0120\u00d0\u0136": 39903,
    "foundland": 77733,
    "\u0120aff": 3611,
    "\u0120inputValue": 81008,
    "-transparent": 75318,
    "\u0120rin": 54821,
    "\u0120autorelease": 75666,
    "resent": 2762,
    "\u0120teamed": 61310,
    "thanks": 46593,
    "otional": 41964,
    "\u0120v\u00c3\u00b9ng": 105956,
    "Atlas": 62216,
    "\u0120ohne": 29983,
    "_THE": 77694,
    "sch": 21740,
    "\u0120\u00c3\u00a6": 66113,
    "\u0120emailAddress": 90813,
    "\u0120APPRO": 94754,
    "yen": 77251,
    "products": 10354,
    "acid": 58156,
    "\u0120Learned": 90496,
    "irts": 20242,
    "\u00e0\u00b9\u0124\u00e0\u00b8\u00a1": 105595,
    "\u0120\u00d1\u0124\u00d1\u0122\u00d0\u00b5\u00d0\u00b1\u00d1\u0125\u00d0\u00b5\u00d1\u0124": 124522,
    "\u0120comments": 6170,
    "\u0120NBC": 24426,
    "\u0120''),\u010a": 63731,
    "up": 455,
    "\u0120investors": 15167,
    "uplic": 10047,
    "Expressions": 41415,
    "Flutter": 98344,
    "\")+": 71429,
    "\u0120\u00d0\u00bf\u00d1\u0122\u00d0\u00b0\u00d1\u0128\u00d1\u0138\u00d0\u00b2": 113884,
    "\u0120\u010d\u010d\u010a": 95791,
    "887": 26058,
    "\u0120\u00e2\u0124": 113384,
    "\u0120DEBUG": 12946,
    "\u0120british": 95027,
    "\u00c4\u0131te": 122957,
    "ubber": 92986,
    "GRADE": 80391,
    "\u0120Rah": 33348,
    "\u00c4\u0133": 52096,
    "\u0120Add": 2758,
    ".Resume": 15706,
    "vik": 44181,
    "rubu": 119277,
    "Rest": 12698,
    "\u0120\u00eb\u00b9\u012e": 119734,
    "\u00ec\u012d\u013f\u00ec\u013f\u0126": 118156,
    "\u0120seek": 6056,
    "\u0120\u00d8\u00aa\u00d9\u0126": 105108,
    "('('": 90956,
    "\u0120premature": 42227,
    "\u0120Fab": 19797,
    "\u0109\u0109\u010a\u0109\u010a": 96187,
    "_InitStruct": 43696,
    "\u0120mainland": 51115,
    "\u0120artistic": 32692,
    "\u0120sty": 18078,
    "\u0120pagamento": 79907,
    "\u00e2\u0122\u012e\u00d8\u00ae": 113236,
    "\u00d9\u0126\u00d8\u00a7\u00d8\u00a9": 127778,
    "\u0120wage": 19602,
    ".hpp": 6589,
    "nost\u00c3\u0143": 104024,
    "anie": 19700,
    "\u0120Automation": 54878,
    "\u0120R": 432,
    "_iterator": 13799,
    "ipa": 86250,
    "\u0120modele": 97825,
    "\u00eb\u0140\u0133\u00ec\u012c\u00a4": 117704,
    "\u0120\u00e5\u012e\u0127": 123631,
    "ctr": 10820,
    "\u00ea\u00b7\u00b8": 49706,
    "\u0120lij": 73784,
    "\u0120Daughter": 64394,
    "-template": 34509,
    "_Context": 73094,
    "_strategy": 50408,
    ".partner": 71205,
    "_Record": 76429,
    "\u0120generosity": 65352,
    ".friends": 97910,
    "\u0120alc": 42724,
    "\u0120ozone": 77537,
    "\u0120\u00eb\u0124\u013a\u00eb\u013f\u00bc": 124618,
    "ong": 647,
    "aleur": 61047,
    "\u0120countert": 61210,
    ">F": 47560,
    "Table": 2620,
    "itage": 18950,
    "\u0120Ideally": 67801,
    "\u00e8\u00ae\u00be\u00e8\u00ae\u00a1\u00e5\u013b\u00a8": 79108,
    "illo": 22532,
    "@Entity": 32191,
    "Vertex": 8484,
    "\u0120plethora": 68706,
    "\u0120sway": 61229,
    "\u0120amber": 68705,
    "\u0120INVALID": 33369,
    "\u0120Trad": 15415,
    "headline": 64293,
    "\u0120MODIFY": 70765,
    "\u0120RandomForest": 91814,
    "\u0120Allocation": 73767,
    "\u0120RTL": 64835,
    "\u0120\u00d0\u00bf\u00d0\u00be\u00d0\u00ba\u00d0\u00b0\u00d0\u00b7": 103246,
    "\u0120\u00d0\u00b0\u00d0\u00ba\u00d0\u00b0\u00d0\u00b4\u00d0\u00b5\u00d0\u00bc": 117319,
    "\u0120\u00d8\u00a7\u00d8\u00ac\u00d8\u00a7\u00d8\u00b2\u00d9\u0129": 126606,
    "\u0120ASCII": 40416,
    "\u0120muted": 60121,
    "\u00c3\u00a2h": 109594,
    "tract": 2193,
    "\u0120meilleurs": 79713,
    "\u0120\u00d0\u00bf\u00d0\u00be\u00d0\u00bb\u00d1\u0125\u00d1\u0129\u00d0\u00b8\u00d1\u0124\u00d1\u012e": 117640,
    "\u0120theres": 92779,
    "usher": 52780,
    "\u0120Navigate": 82839,
    "\u0120Stud": 7814,
    "\u0120IO": 6565,
    "diler": 121783,
    ".jsoup": 90498,
    "ocument": 1478,
    "\u0120infix": 89257,
    "istinguished": 80382,
    "\u0120dokument": 87061,
    "SURE": 81959,
    "\u0120\"]\";\u010a": 58230,
    "\u0120Hitch": 71464,
    "aris": 42960,
    "\u0120buses": 34480,
    "responseObject": 87106,
    "\u0120experi": 5866,
    "\u00e5\u0142\u00b1\u00e5\u0133\u012c": 120270,
    "\u00ce\u00ac\u00ce\u00bb\u00cf\u0127\u00cf\u012a\u00ce\u00b7\u00cf\u0124": 123819,
    "\u00e6\u0143\u00a9": 105564,
    "_-": 40411,
    "Gb": 85197,
    "\u00e2\u0138\u012d\u00e2\u0138\u012d": 114612,
    "\u0120fw": 34986,
    "\u0120Snow": 19435,
    "\u0120torque": 42131,
    "\u0120strdup": 49919,
    "\u0120Iv": 34583,
    "lerin": 101165,
    "\u00eb\u0131\u0126\u00ea\u00b0\u0122": 123360,
    "\u0120trav": 10346,
    "\u0120kinh": 101793,
    "-runner": 84156,
    "\u0120Strikes": 98126,
    "mods": 61890,
    "\u0120ch\u00e1\u00bb\u013f": 124363,
    "umerator": 62069,
    "ecure": 77208,
    "goo": 63148,
    "\u0120vedle": 116029,
    "\u0120\u00d9\u0123\u00d8\u00a3": 122832,
    "\u0120account": 2759,
    "_Number": 52899,
    "\u0120crying": 31299,
    "\u0120Contest": 47633,
    "\u0120Hugh": 30206,
    "\u0120card": 3786,
    "\u0120elig": 14510,
    ".\u00e2\u0122\u013f\u010a\u010a": 2950,
    "\u00d0\u00b8\u00d1\u0131": 40231,
    "\u0120c\u00e1\u00ba\u00a3": 100970,
    "_BUFFER": 14731,
    "\u0120attempts": 13865,
    "\u00d0\u00ba\u00d0\u00b8\u00d0\u00bc\u00d0\u00b8": 103318,
    "RI": 4403,
    ".major": 76512,
    "\u00e9\u013f\u0134\u00e5\u00b9\u00b4": 120331,
    ".Formatting": 42011,
    "\u00e0\u00a4\u00af\u00e0\u00a4\u00b9": 110839,
    "\u0120caused": 9057,
    "\u0120ceiling": 22959,
    "\u00d9\u012a\u00d9\u0124\u00d9\u0123": 126300,
    "\u00e5\u0133\u00a8\u00e6\u013e\u0141": 62249,
    "\u0120bem": 33015,
    "_setting": 20931,
    "\u0120EW": 64095,
    "\u00ed\u013c\u012f": 107656,
    ")||(": 75442,
    ".proc": 84530,
    "Jan": 18820,
    "\u0120\u00da\u00a9\u00db\u012e\u00d9\u0126": 108535,
    "encial": 45412,
    "\u0120Cair": 95941,
    "(stock": 68571,
    "\u0120clazz": 33572,
    "Environment": 13013,
    "\u0120\u00c2\u00ab": 12769,
    "\u0120compiler": 19979,
    "agog": 55180,
    ".value": 2894,
    "thing": 1626,
    "\u0120\u00ec\u0139\u00ac\u00eb\u0141\u00ac": 110714,
    "oord": 82537,
    "Enemies": 85727,
    "\u0120difficulties": 27129,
    ".isAuthenticated": 74628,
    "\u0120Abel": 87949,
    "\u0120\u00d0\u00b2\u00d0\u00bc\u00d0\u00b5\u00d1\u0123\u00d1\u0124": 109226,
    "\u0120);\u010a\u010a\u010a": 36933,
    "\u0120Dong": 53483,
    "tical": 35758,
    "\u00a2\u00e5\u012f\u0137": 44820,
    "wan": 16965,
    "\u0120useContext": 35752,
    "\u0120Abort": 78055,
    "\u0120\u00c3\u00aen": 19040,
    "\u0120\u00c4\u0133\u00e1\u00ba\u00a3o": 110449,
    "\u0120kh\u00e1\u00ba\u00b3ng": 124828,
    "ffff": 7386,
    "\u0120SCREEN": 36173,
    "\u0120Warfare": 67694,
    ".integration": 71590,
    "Liked": 77668,
    "\"]){\u010a": 83793,
    "udden": 39095,
    "\u00ec\u00b0\u00a8": 101532,
    "Roy": 80262,
    "hair": 51729,
    "markets": 60560,
    "\u0120simmer": 62915,
    "\u0120Others": 26080,
    "\u0120BIO": 73166,
    "\u0120IPv": 32660,
    "(serv": 90969,
    "\u0120REPRESENT": 98222,
    "\u0120Zub": 96814,
    ".selectAll": 51865,
    "(xpath": 61772,
    "_Resource": 87446,
    "ropic": 45036,
    "ovn\u00c4\u013d": 127215,
    "\u0120ease": 14553,
    "\u00ea\u00b8\u00b0\u00ec\u0139\u0127": 119398,
    "<|reserved_special_token_90|>": 128098,
    ".when": 41700,
    "_country": 29206,
    "\u0120Mg": 73693,
    "aty": 51071,
    "Constraint": 18372,
    "\u0120\u00eb\u00b2": 48765,
    "Vertices": 32322,
    "\u00e5\u00a5\u00b3\u00e4\u00ba\u00ba": 118772,
    "\u0120IMG": 44683,
    "\u0120report": 1934,
    "scale": 12727,
    "activities": 33078,
    "\u0120boils": 90055,
    "\u0120practically": 32367,
    "ombie": 24227,
    "\u0120fail": 3775,
    "umbo": 49709,
    "\u00e0\u00a5\u012d\u00e0\u00a4\u013c": 110062,
    "\u00e3\u0123\u00ab\u00e3\u0123\u00a4": 107294,
    "\u0120Meal": 57488,
    "aille": 52009,
    "dictions": 53490,
    "\u0120partners": 8717,
    "atel": 84426,
    "\u0120ortam": 107853,
    "velt": 43521,
    "\u00ec\u00b2\u013a": 102657,
    "\u012a\u00ec\u012c\u00b5\u00eb\u012d\u012a\u00eb\u012d\u00a4": 90463,
    "\u0120aria": 7277,
    "\u0120Da": 14569,
    "\u0120saldo": 74951,
    "\u0120Hunters": 82988,
    "Consumer": 31068,
    "<select": 37553,
    "Prefs": 32534,
    "\u0120getRandom": 53536,
    "\u0120uploads": 67663,
    "\u0120businessmen": 83650,
    "atische": 70122,
    "astr": 21100,
    "\u0120\u00d8\u00b3\u00d8\u00a7\u00d9\u0128": 117538,
    "(results": 21118,
    "locator": 69133,
    "indrical": 63506,
    "\u0120defaultManager": 100020,
    "\u0120acompanh": 61897,
    "\u0120usefulness": 76964,
    "\u0120\u00ce\u00bc\u00cf\u012e": 110701,
    ".AppSettings": 50361,
    "\u0120principle": 17966,
    "\u0120nejd": 120132,
    "\u0120jewish": 89238,
    "\u00c3\u00a1lido": 59166,
    ".erb": 74866,
    "\u00e9\u0123\u0139": 116693,
    "SEND": 62774,
    "\u0120aire": 85208,
    "\u00d0\u00ba\u00d1\u0124\u00d0\u00b0": 119697,
    "\u00e3\u0125\u00a9\u00e3\u0124\u00af": 119539,
    "NSURL": 28619,
    "ptides": 74489,
    "\u00ea\u00b7\u00b8\u00eb\u0141\u00ac": 121775,
    "incerely": 87191,
    "_Private": 44930,
    "369": 19929,
    "\u00e8\u013b\u0141": 105233,
    ".ch": 5442,
    "oven": 16651,
    "udent": 4986,
    "Emitter": 22738,
    "\u0120Rifle": 48138,
    "\u0120Venture": 71474,
    "keiten": 52807,
    "Verified": 55658,
    "\u0120exemplo": 80694,
    "\u0120uplift": 97547,
    "endif": 2384,
    "\u0120hypothetical": 59159,
    "aload": 55496,
    "Besides": 52555,
    "(WIN": 99859,
    "\u0120songs": 11936,
    "\u00ea\u00b8\u012b": 102662,
    "Researchers": 60210,
    ".SEVER": 30640,
    "_COD": 82605,
    "(Form": 40931,
    "\u0120Drivers": 46837,
    "\u0120inversion": 47588,
    "Website": 31151,
    "\u0120firstly": 95052,
    "\u00d9\u0128\u00da\u00af": 100642,
    "\u0120SAFE": 66969,
    "\u0120Tata": 88245,
    "(IService": 78010,
    "\u0120Serv": 27318,
    "\u0120strSQL": 81253,
    "CONS": 96594,
    "\u0120usize": 23098,
    "},": 2186,
    "\u0120pilots": 36377,
    "-Aug": 62735,
    "\u00e0\u00a5\u012f\u00e0\u00a4\u013d": 104585,
    "\u0120de\u00c4\u0141il": 101777,
    "(Border": 94926,
    "\\Service": 43461,
    ":Get": 21763,
    "\u0120Great": 8681,
    "\u0120elapsed": 26401,
    "\u00d0\u00b8\u00d0\u00bd\u00d1\u0138": 113742,
    "\u0120Specialist": 40420,
    "<|reserved_special_token_64|>": 128072,
    ".***": 108265,
    "\"user": 77622,
    "\u0120\u00e5\u00bf\u0125": 115934,
    "\u0120+\u010a\u010a": 60554,
    "\u00e0\u00b9\u0122\u00e0\u00b8\u00a7\u00e0\u00b8\u00a5\u00e0\u00b8\u00b2": 111634,
    "QP": 67620,
    "\u0120trabaj": 39974,
    "\u00e5\u0131\u00af\u00e4\u00bb\u00a5": 74770,
    "Manufacturer": 62548,
    "\u0120impressions": 51091,
    "\u0120tastes": 36263,
    "alendar": 12353,
    "\u00e7\u0131\u012f": 117902,
    "kea": 43528,
    ".\u00e2\u0122\u013f\u010a\u010a\u010a\u010a": 35284,
    "\u0120\u00d0\u00be\u00d1\u0129\u00d0\u00b5\u00d1\u0122\u00d0\u00b5\u00d0\u00b4": 113758,
    "\u0120\u00d0\u00bc\u00d0\u00b0\u00d0\u00bb\u00d0\u00b0": 126415,
    "\u0120\u00c4\u00b0slam": 114848,
    "uj\u00c3\u0143": 100917,
    "\u0120\u00d9\u0125": 88041,
    "\u00e3\u0123\u00ae\u00e4\u00b8\u0143": 107809,
    "\u0120urgency": 54917,
    "\u0120Gym": 46631,
    "\u0120lifted": 30831,
    "gewater": 86130,
    "\u0120Media": 7972,
    "\u0120xs": 12209,
    "Ohio": 66217,
    "\u0120(": 320,
    "alar\u00c4\u00b1nda": 112965,
    "\u0120cd": 15667,
    "\u0120routed": 73317,
    "\u0120\u00d0\u00b4\u00d0\u00b2\u00d1\u0138": 122351,
    "\u0120championships": 59284,
    "\u0120\u0109\u0120": 66597,
    "shield": 49052,
    "Fetcher": 98592,
    "\u0120sculpt": 27863,
    "\u00d0\u00b5\u00d0\u00b9": 21708,
    ".Hash": 15454,
    ".US": 68772,
    "/title": 83046,
    "\u0120Lumpur": 87344,
    "\u0120Rosa": 47930,
    "\u0120\u00d8\u00a8\u00d8\u00a7\u00d8\u00b2\u00db\u012e": 102887,
    "\u0120\u00e6\u013a\u00a5": 123335,
    "\u0120\u00ec\u013a\u00ac\u00eb\u013f\u00bc": 121250,
    "sticks": 70045,
    "mak": 49662,
    "((": 1209,
    "\u0120/>);\u010a": 64291,
    "\u0120microphone": 43495,
    "aid": 3864,
    "_PLACE": 83024,
    "abanc\u00c4\u00b1": 111691,
    "_Debug": 79038,
    "\u0120konuda": 113802,
    "\u0120supreme": 44222,
    "_circle": 43322,
    "\u0120\u0120\u0120\u0120\u0120\u0120\u0120\u0120\u0120\u0120\u0120\u0120\u0120\u0120\u0120\u0120\u0120\u0120\u0120\u0120\u0120\u0120\u0120\u0120\u0120\u0120\u0120\u0120\u0120\u0120\u0120\u0120\u0120\u0120\u0120\u0120\u0120\u0120\u0120\u0120\u0120\u0120\u0120\u0120\u0120\u0120\u0120\u0120\u0120\u0120\u0120\u0120": 25343,
    "\u0120informace": 107355,
    "-saving": 59085,
    "\u0120understood": 16365,
    "\u0120Rafael": 55500,
    "2": 17,
    "\u0120\u00e2\u013e\u0136": 58256,
    "\u0120Hi\u00e1\u00bb\u0129p": 124254,
    "\u0120furry": 75519,
    "\u0120\u00d1\u0130": 103512,
    "\u0120PlayStation": 32365,
    "\u0120Profiles": 72827,
    "(using": 84322,
    "ether": 2791,
    "inux": 20130,
    "undi": 56998,
    "Alle": 71551,
    "_serv": 45153,
    "\u00d1\u0128\u00d1\u0138\u00d0\u00b9\u00d0\u00bd\u00d0\u00be\u00d0\u00b3\u00d0\u00be": 115586,
    "\u00e8\u00bf\u013d": 42399,
    "\u00d0\u00ba\u00d1\u0124": 100825,
    "Mel": 40249,
    "parsers": 89664,
    "\u00ed\u0137\u013a\u00ec\u012d\u0142": 124933,
    "\u0120Elemental": 71738,
    "Mailer": 48708,
    "(which": 83894,
    "ry": 894,
    "\u0120optimum": 54767,
    "\u0120tcp": 29151,
    "\u0120\u00d1\u0123\u00d0\u00bf\u00d0\u00be\u00d1\u0122": 107119,
    ".replace": 7125,
    "toy": 82325,
    "\u0120\u00e0\u00a4\u013c": 100443,
    "redirect": 8280,
    "\u0120[\u00e2\u0122\u00a6]\u010a\u010a": 12996,
    "ignored": 59571,
    "<|reserved_special_token_187|>": 128195,
    "Patch": 44722,
    "Sql": 8433,
    ">>\u010a": 40171,
    "\u0120vx": 44560,
    "\u00e3\u0124\u00b9\u00e3\u0125\u0128": 106826,
    "\u0120\u00d9\u0126\u00d8\u00b3": 124793,
    "\u00ef\u00bf\u00bds": 52063,
    "\"\"\"\u010d\u010a": 37925,
    "\u0120burnt": 50440,
    "\u0120facult": 73533,
    "lep\u00c5\u00a1\u00c3\u0143": 110189,
    "\u0120smear": 81603,
    "\u0120pathways": 44014,
    "\u00e9\u00a9": 77180,
    "forme": 76701,
    "\u0120newInstance": 67762,
    "cipher": 68686,
    "\u0120\u00e5\u0131\u00b7": 115255,
    "_future": 60840,
    "\u00eb\u00a6\u00bd\u00eb\u012d\u012a\u00eb\u012d\u00a4": 106426,
    "\u0120Params": 35452,
    "\u0120')'": 80475,
    "\u0120headphones": 44101,
    "\u0120tasked": 51920,
    "\u0120g\u00c3\u00b6steren": 118914,
    "\u0120\u00d8\u00a8\u00d9\u0128": 100829,
    "\u00cf\u0122\u00cf\u0126\u00cf\u0127": 119300,
    "\u0120Isaac": 42608,
    "\u0120crop": 19641,
    "\u0120tekst": 73678,
    "<|reserved_special_token_80|>": 128088,
    "\u0120Adventure": 33112,
    "\u00d9\u012a\u00d8\u00a7\u00d8\u00b1\u00d9\u0129": 113126,
    "\u0120Dist": 28704,
    "_style": 15468,
    "\u0120ki\u00c5\u0141ilerin": 122336,
    "\u0120\u00d0\u0134\u00d1\u012d": 72731,
    ".subscription": 74493,
    "\\Facades": 19559,
    "\u0120Eating": 60638,
    "\u0120Was": 15148,
    "\u0120p\u00c3\u00a9ri": 84411,
    "\u00e3\u0123\u0135\u00e3\u0124\u0135": 69847,
    "\u0120GlobalKey": 86458,
    "\u0120relaciones": 97673,
    "antages": 38886,
    "\u0120PH": 15001,
    "beiter": 74064,
    "\u0120Scotch": 93050,
    "v\u00c3\u0143ce": 122106,
    "\u0120mz": 96492,
    "_scope": 24077,
    "\u0120\u00cf\u0126\u00ce\u00bf\u00cf\u0127": 100456,
    "_SUR": 61150,
    "acific": 41583,
    "\u0120dividends": 56364,
    "###############################################################################\u010a": 80548,
    "\u0120despair": 46996,
    "af\u00c3\u00bcr": 61219,
    "=mysqli": 31872,
    "\u00e5\u00a3\u012c": 127258,
    "\u0120\u00ce\u00a4\u00ce\u00b1": 109930,
    ".svg": 15585,
    "\u0120\u00d0\u00bf\u00d1\u0122\u00d0\u00be\u00d0\u00b1\u00d0\u00bb\u00d0\u00b5\u00d0\u00bc\u00d1\u012d": 118194,
    "\u00ce\u00bb\u00ce\u00b9\u00ce\u00ba": 121133,
    "\u0120\u00e5\u00ba": 96622,
    "JSONException": 55468,
    "Fal": 91358,
    "\u0120Scarborough": 86532,
    "=\"\"\"": 65365,
    "\u0120\u00e2\u0122\u013e[": 66850,
    "\u0120vein": 54344,
    ".fillRect": 48304,
    "DX": 17001,
    "\u0120management": 6373,
    "_Detail": 95862,
    "\u0120Trying": 50958,
    "\u0120\u00ec\u012d\u013e\u00ec\u0140\u00a5": 119262,
    "\u00ec\u012a\u013a": 24140,
    "(TRUE": 57393,
    "\"/>": 13424,
    "\u0120\u00d1\u0131\u00d0\u00ba\u00d0\u00be\u00d1\u0139": 116447,
    "719": 24758,
    "\u0120rz": 54101,
    "adastrar": 67270,
    "406": 17264,
    "\u0120nosso": 70792,
    "TES": 29584,
    "fitness": 74621,
    "izzas": 68404,
    "\u00e0\u00b8\u00b1\u00e0\u00b8\u013c\u00e0\u00b8\u0126\u00e0\u00b8\u00a7\u00e0\u00b8\u00b2\u00e0\u00b8\u00a1": 119104,
    "Markup": 54188,
    "i\u00c5\u00be": 104848,
    "\u0120DateFormatter": 99053,
    "STRACT": 75692,
    "(bool": 9963,
    "\u0120\u0120\u0120\u0109\u0109": 69646,
    "IndexOf": 28476,
    "ierre": 45523,
    "\u00db\u012e\u00d9\u0128\u00da\u00a9": 114729,
    "\u0109gl": 9123,
    "\u0120immigrant": 37650,
    "\u0120independence": 24589,
    ".AddRange": 20248,
    "{l": 95717,
    "\u0120merch": 22480,
    "rire": 96513,
    "\u0120\u00d8\u00b3\u00d8\u00a7\u00d8\u00b2": 102438,
    "\u0120\u00e0\u00a4\u0128\u00e0\u00a4\u00aa": 100991,
    "\u0120plates": 25485,
    "\u0120nargs": 52716,
    ".remote": 35193,
    ".getStringExtra": 59059,
    "IEnumerator": 59701,
    "\u0120masks": 27227,
    "\u0120kho\u00e1\u00ba\u00a3n": 106701,
    "\u0120Format": 15392,
    "\u0120\u00d9\u0127\u00d8\u00af\u00d9\u012c\u00d8\u00b1": 123913,
    "\u00e6\u0124\u0142": 116511,
    "\u00ce\u00ac\u00ce\u00bd\u00cf\u012b": 112566,
    "\u0120\u00ea\u00b3\u0142\u00ea\u00b0\u013f": 116534,
    "\u0120\u00eb\u00a6": 124053,
    ".chapter": 85909,
    "\u0120Touch": 19898,
    "\u0120Basically": 41812,
    ".idea": 96172,
    "\u0120\u00d9\u00be\u00db\u012e\u00d8\u00af\u00d8\u00a7": 114336,
    "\u0120autopsy": 76901,
    "(android": 46732,
    "emp": 3342,
    "\u0120Demir": 119371,
    "\u0120ine": 19661,
    "schools": 91756,
    "\u0120crawling": 72179,
    ");}\u010a\u010a": 94086,
    "BOOST": 37259,
    "ACING": 56105,
    ".Article": 86554,
    "\u0109\u0120\u0120\u0120\u0120\u0109": 32030,
    "\u0120concatenated": 98634,
    ".rx": 46448,
    "\u0120prefer": 10932,
    "endphp": 84762,
    "\u0120thoughts": 11555,
    "\u0120Adjustable": 67828,
    "_PADDING": 79459,
    "\u0120Thickness": 70501,
    "\u0120pedals": 87506,
    "_taxonomy": 76894,
    "CUDA": 81385,
    "<R": 24259,
    "_SCREEN": 43499,
    "\u0120conditioned": 66731,
    "\u00e0\u00b9\u012e\u00e0\u00b8\u0124\u00e0\u00b8\u0143\u00e0\u00b8\u0129": 111588,
    "\u0120\u00d0\u00a1\u00d0\u00be\u00d0\u00b2": 112300,
    "\u0120\u00d1\u0123\u00d1\u0124\u00d0\u00b0\u00d1\u0122\u00d0\u00b8": 124227,
    "\u0120ph\u00e1\u00bb\u00a9c": 123992,
    ".hom": 95091,
    "\u0120glad": 16089,
    "\u0120kuzey": 124222,
    "igu": 27843,
    "\u0120Feeling": 74658,
    "\u00e5\u012c": 8239,
    "\u0120g\u00c3\u00b6re": 101844,
    "\u0120|:": 104377,
    "_/": 51395,
    "\u0120\u00d8\u00a7\u00d9\u0126\u00d8\u00b9\u00d9\u0127": 122914,
    "\u0120apex": 72627,
    "/raw": 77009,
    "\u00d8\u00b7\u00d8\u0143": 106211,
    "uibModal": 92209,
    "ThreadPool": 68137,
    "Roboto": 54632,
    "\u0120Kem": 67066,
    "\u0120\u00d8\u00a3\u00d8\u00ac": 125896,
    "\u00d0\u0141\u00d0\u00be\u00d1\u0123": 111077,
    "\u0120\u00d0\u00bf\u00d1\u0122\u00d0\u00b5\u00d0\u00b4\u00d0\u00bf\u00d0\u00be\u00d0\u00bb": 118678,
    "\u00c3\u00b3rio": 90566,
    "\u0120electrodes": 80390,
    "ADOS": 91042,
    "CONF": 39734,
    "Unless": 36687,
    ":relative": 85666,
    "Dock": 42568,
    "_filter": 8901,
    "itivity": 18546,
    "\u0120\u00c4\u012ferv": 105192,
    "ApplicationBuilder": 76442,
    "\u0120\u00cf\u0126\u00cf\u012b\u00ce\u00bd": 101686,
    "\u0120Aid": 38505,
    "\u0120glimpse": 40942,
    "uple": 6189,
    "hydr": 26233,
    "EDIT": 17379,
    "\u0120Burger": 52871,
    "_ident": 39499,
    "i\u00e1\u00bb\u0129p": 107814,
    "\u0120retard": 77072,
    "\u0120E": 469,
    "\u00d0\u00b0\u00d0\u00bb\u00d1\u012e\u00d0\u00bd\u00d0\u00b8\u00d0\u00bc": 121290,
    "\u0120\u00e6\u00a9\u0141": 125528,
    "\u00cf\u0126\u00ce\u00b9\u00ce\u00ba\u00ce\u0143\u00cf\u0124": 109444,
    "\u00e5\u012a\u00b6\u00e4\u00bd\u013e": 114835,
    "\u00e3\u0125\u012c": 96452,
    "stroy": 11207,
    "\u00d9\u0134\u00d8\u0143": 125902,
    "\u0120\u00d9\u0127\u00d9\u0123": 108965,
    ".getConfig": 60858,
    "\u0120dictator": 42284,
    "\u0120catcher": 68898,
    "asters": 14533,
    "\u00e1\u00bb\u013bc": 101033,
    "\u00d8\u00b1\u00d9\u0124": 111052,
    "/bind": 85580,
    "\u0120emacs": 87783,
    "\u0120\u00d1\u0124\u00d0\u00b5\u00d0\u00bc\u00d0\u00bf\u00d0\u00b5\u00d1\u0122\u00d0\u00b0\u00d1\u0124\u00d1\u0125": 104922,
    "\u0120\u00d9\u0123\u00d8\u00b1\u00d9\u0129\u00d9\u0128\u00da\u00af\u00db\u012e": 116441,
    "CodeGen": 25691,
    "Flow": 19410,
    "\u0120dwind": 83222,
    "emetery": 37638,
    "\u0120magician": 90441,
    "\u0120})).": 71557,
    "Not": 2688,
    "_numero": 97828,
    "\u0120says": 2795,
    "\u0120OWNER": 51278,
    ".preferences": 89027,
    "\u0120Finn": 35162,
    "\u0120pertaining": 47031,
    "\u0120bleak": 76367,
    "\u0120\u00e8\u00a9\u00b3\u00e7\u00b4\u00b0": 113508,
    "\u0120Participants": 52878,
    "\u00e5\u0127\u00a5\u00e3\u0124\u012c": 124629,
    "\u0120\"\")\u010a\u010a": 86717,
    "_pel": 83952,
    "85": 5313,
    "ucha": 55481,
    "742": 25560,
    "Observ": 38863,
    "InputElement": 51904,
    "\u0120okay": 17339,
    "_module": 10983,
    "\u00d8\u00a7\u00d9\u0128\u00d8\u00a7": 111147,
    "\u0120specifics": 49449,
    ".mat": 22417,
    "lava": 111941,
    "\u00c4\u00b1s\u00c4\u00b1n\u00c4\u00b1": 114608,
    "gment": 9247,
    "autorelease": 78486,
    "?key": 90685,
    "\u00d0\u00b5\u00d1\u0122\u00d0\u00b6\u00d0\u00b0\u00d0\u00b2": 102392,
    "\u0120g\u00c3\u00b3p": 110223,
    "tega": 93005,
    "ologia": 39073,
    "\u0120\u00d0\u00b6\u00d0\u00be\u00d0\u00b2\u00d1\u0124\u00d0\u00bd\u00d1\u0131": 118113,
    "/errors": 58231,
    "();\u010a\u010a\u010a\u010a": 60941,
    "\u0120mastered": 71325,
    "\u0120issu": 53066,
    "tog": 68273,
    "-Ray": 79504,
    "Autom": 42172,
    "\u0120Eve": 32460,
    "fef": 98904,
    "\u0120fuzz": 77242,
    "\u00d8\u00a7\u00d8\u00af\u00d9\u0129": 100715,
    "\u0120\u00d8\u00a8\u00db\u012e": 102363,
    ":Number": 36104,
    "kol": 52552,
    "\u00e3\u0122\u0122\u00e3\u0122\u0122\u00e3\u0122\u0122\u00e3\u0122\u0122\u00e3\u0122\u0122\u00e3\u0122\u0122\u00e3\u0122\u0122\u00e3\u0122\u0122\u00e3\u0122\u0122": 104950,
    ">G": 71394,
    "Per": 3976,
    "Identification": 96312,
    "entr": 24677,
    "\u00e0\u00b8\u00b1\u00e0\u00b8\u0137\u00e0\u00b8\u00a7": 121723,
    "\u0120disappearance": 52979,
    "($\"{": 41144,
    "Separated": 93025,
    "\u00d0\u00b2\u00d0\u00b5\u00d0\u00b9": 120619,
    "GLenum": 98130,
    "\u0120\u00d9\u0127\u00d8\u00b3\u00d8\u00aa\u00d9\u0124": 113180,
    "_Offset": 86797,
    "ulating": 15853,
    "\u0120\u00da\u00a9\u00d8\u00a7\u00d9\u0127": 109227,
    "RequestMapping": 14457,
    "datos": 28715,
    "\u0120Tarih": 109486,
    "routing": 74420,
    ".threshold": 66308,
    "\u0120self": 659,
    "_media": 30273,
    "\u0120b\u00c4\u013bd\u00c4\u0127": 93594,
    "ystack": 94276,
    "\u0120SSE": 74573,
    "essages": 3822,
    "\u0120MISS": 63847,
    "]()": 58462,
    "\u0120haze": 90409,
    "\u00ed\u0137\u013a\u00eb\u012c\u0136": 44005,
    "\u0120Hit": 16261,
    "`()": 68780,
    "ray": 11872,
    "-component": 42487,
    "\u0120ugly": 28360,
    "\u00e8\u0131\u012e": 115686,
    ".Broadcast": 85888,
    "ov\u00c3\u00bd": 102028,
    "\u0120smugg": 41837,
    "avel": 3963,
    "_mas": 82741,
    "\u0120diminished": 54182,
    "(cors": 73576,
    "-age": 44041,
    "\u00d0\u00be\u00d0\u00b3\u00d0\u00b4\u00d0\u00b0": 101300,
    "apGestureRecognizer": 55714,
    "\u00d1\u0123\u00d1\u012e\u00d0\u00ba": 100792,
    "\u0120kdyby": 114192,
    "\u00e4\u00b8\u00bb\u00e8\u00a6\u0123": 105572,
    "\u0120every": 1475,
    "ologne": 68544,
    "(w": 3706,
    "extensions": 28709,
    "Firebase": 64440,
    "\u0120Replies": 64439,
    "aware": 20111,
    "\u0120\u00ce\u00b8\u00ce\u0143\u00cf\u0125\u00ce\u00b7": 122185,
    "(engine": 50074,
    "\u00d0\u00be\u00d0\u00bb\u00d0\u00b0\u00d0\u00b9": 127822,
    "\u0120Histogram": 83238,
    "\u00e7\u0123\u00bd": 126462,
    "\u0109width": 25198,
    "\u0120unveil": 92131,
    "branches": 68939,
    "\u0120\u00e7\u012a\u00b1": 122124,
    "\u00d1\u0128\u00d0\u00b8\u00d0\u00ba\u00d0\u00bb\u00d0\u00be\u00d0\u00bf\u00d0\u00b5\u00d0\u00b4": 124504,
    "\u0120SEQ": 72508,
    "\u0120modulo": 60964,
    "\u0120\u00d0\u00b7\u00d0\u00bd\u00d0\u00b0\u00d1\u0129\u00d0\u00b5\u00d0\u00bd\u00d0\u00b8\u00d0\u00b5": 66459,
    "pdf": 12091,
    "\u0120spells": 26701,
    "ught": 3948,
    "Rather": 65002,
    "\u0120infinitely": 72600,
    "\u00e6\u00b3\u00a8\u00e5\u0128\u012e": 62789,
    ".statusText": 75784,
    "mile": 67697,
    "\u0120thirsty": 98208,
    "\u0120linear": 13790,
    "\u0120\u00d9\u0127\u00d8\u00b9\u00d8\u00af\u00d9\u0128": 118373,
    "\u0120iris": 65042,
    "PointF": 89908,
    "\u0120\u00d8\u00aa\u00d8\u00a8\u00d8\u00af": 112289,
    ".module": 10282,
    "\u0120Cort": 36775,
    "\u0120cognitive": 25702,
    "ono": 10358,
    "\u0120\u00d1\u0123\u00d0\u00be\u00d0\u00be\u00d1\u0124\u00d0\u00b2\u00d0\u00b5\u00d1\u0124\u00d1\u0123\u00d1\u0124\u00d0\u00b2\u00d0\u00b8\u00d0\u00b8": 116327,
    "\u0120faulty": 58671,
    "\u0120FOX": 45288,
    "\u0120travelers": 40386,
    "\u0120dec": 1654,
    "\u00e3\u0125\u00b3\u00e3\u0125\u0123": 109482,
    ".DataPropertyName": 52437,
    "\u00e9\u0143\u0124": 117145,
    "\u00e1\u00bb\u0127": 103490,
    "chimp": 91440,
    "uman": 7282,
    "origin": 8781,
    "DataSource": 17616,
    "\u0120\u00e2\u0122\u013f": 19524,
    ".Abs": 34355,
    "Auto": 13556,
    ".fixture": 51636,
    "iba": 36038,
    "Family": 15547,
    "\u0120Might": 34351,
    "light": 4238,
    "\u0120surprise": 13051,
    "\u0120\u00d8\u00a8\u00d8\u00ae\u00d8\u00b4\u00db\u012e": 126635,
    "\u0120TYPES": 83425,
    "entions": 64801,
    "\u0120\u00e0\u00a4\u0128\u00e0\u00a4\u00af": 103813,
    ",re": 39225,
    "\u0120semp": 75697,
    "_$": 35521,
    "\u0120sno": 66184,
    "\u00d1\u0128\u00d1\u0125": 110800,
    "\u0120BA": 34589,
    "FIN": 17167,
    "\u00e8\u00a1\u00a8\u00e7\u0130\u00b0": 125993,
    "\u0120href": 1839,
    "\u0120desirable": 35946,
    "\u0120Soviet": 19953,
    "\u0120acquainted": 73734,
    "\u00e4\u00b8\u00b8": 113692,
    "\u0120\u00d0\u00a4\u00d0\u00b5\u00d0\u00b4\u00d0\u00b5\u00d1\u0122\u00d0\u00b0\u00d1\u0128\u00d0\u00b8\u00d0\u00b8": 111112,
    "\u0120\u00ce\u00ba\u00ce\u00b1\u00ce\u00bb\u00cf\u012f": 121393,
    "\u0120h\u00c6\u00b0\u00e1\u00bb\u013dng": 103628,
    "\u0120weights": 14661,
    "\u00d0\u00be\u00d0\u00bd\u00d0\u00b0": 74828,
    "ibrated": 61666,
    "\u0120wealthy": 28994,
    "(epoch": 62390,
    "omen": 6431,
    "\u0120fak": 112207,
    "orch": 22312,
    "TextInput": 43862,
    "\u0120vid\u00c3\u00a9": 40738,
    "\"])": 14340,
    "\u0120interrupt": 12956,
    "\u00e7\u00ac\u00ac\u00e4\u00b8\u0122\u00e6\u00ac\u00a1": 124810,
    "_KEEP": 76037,
    "()\u010a\u010a": 2892,
    "\u0120CONTEXT": 88436,
    ".ef": 96956,
    "\u0120Topic": 34011,
    "oglobin": 94855,
    "\u013c": 248,
    "\u00e4\u00bb\u012c": 37271,
    "\u0120organis": 21874,
    "Pagination": 45365,
    "\"group": 29196,
    "\u0120mankind": 43384,
    "latin": 61185,
    "\u0120Num": 16610,
    "\u0120expired": 27489,
    "\u0120prov\u00c3\u00a1d": 113817,
    "\u00d0\u00b0\u00d0\u00bb\u00d1\u012d": 120465,
    "\u00e6\u0137\u00b8": 104214,
    "\u0120\u00e2\u0129\u0134": 59803,
    "\u0120ge\u00c3\u00a7ir": 105774,
    ".Globalization": 42169,
    "check": 2071,
    "HorizontalAlignment": 86519,
    "\u00d1\u0125\u00d0\u00b2\u00d0\u00b0\u00d1\u0124\u00d0\u00b8": 101539,
    "\u00c3\u00bdt": 97700,
    "\u00e5\u00be\u0132": 119273,
    "?\"": 7673,
    "cola": 56552,
    "ARC": 47572,
    ")localObject": 60644,
    "acent": 18680,
    "\u0120enzym": 32011,
    "\u00d1\u0128\u00d0\u00b8\u00d1\u0131": 71829,
    "\u00ce\u00be\u00cf\u012f": 117351,
    "\u0120shredded": 75220,
    "edBy": 98422,
    "\u0120Reliable": 92663,
    ".IsAny": 52268,
    "\u00e0\u00a4\u00a5": 101572,
    "\u0120awk": 20573,
    "izu": 92715,
    "vf": 46341,
    "UILD": 18511,
    "\u0120MainActivity": 28557,
    "\u0120=================================": 36874,
    "\u0120[<": 68326,
    "Installed": 61900,
    "\u0120empowered": 62935,
    "False": 4139,
    "\u0120reels": 79600,
    "\u0120Extended": 41665,
    "\u00e6\u012a\u0132\u00e7\u0124\u00ba": 124628,
    "\u0120INNER": 31448,
    "\u0120ustanoven\u00c3\u0143": 120536,
    "StringEncoding": 60846,
    "\u0120k\u00c3\u00aanh": 126196,
    "\u0120GFP": 61170,
    "_dm": 58282,
    "\u0120\u00d0\u00bf\u00d0\u00b5\u00d1\u0122\u00d0\u00b5\u00d1\u0123": 110242,
    "\u0120B\u00c3\u0143": 117202,
    "\u0120ext": 1327,
    "_sta": 81051,
    "\u0120Grill": 50948,
    "?'\u010a\u010a": 87314,
    "-library": 53521,
    "\u0120tear": 18036,
    "\u0120Talent": 55607,
    "\u0120IND": 19877,
    "Twitter": 25904,
    "\u0120clipboard": 47134,
    "\u00e5\u0127\u00b1\u00e5\u0134\u012e\u00e5\u013d\u00bd": 113363,
    "sit": 47965,
    "\u00c4\u00b1n\u00c4\u00b1z": 101506,
    "='\".": 62435,
    "FragmentManager": 38582,
    "archical": 46334,
    "\u0120\u00d9\u00be\u00db\u012e\u00d8\u00b4\u00d9\u0128\u00d9\u0129": 121067,
    "\u00d0\u00b5\u00d0\u00bb\u00d0\u00b0": 102726,
    "_Long": 89340,
    "'\\": 16154,
    "\u0120dagen": 91051,
    "MC": 11865,
    "\u0120&,": 53053,
    ":this": 38712,
    "\u0120achievement": 26501,
    "\u00b4\u0122": 71397,
    "-address": 42733,
    "\u0120skute\u00c4\u012fn\u00c4\u013d": 122187,
    "\u0120elephant": 46840,
    "\u0120creeping": 88692,
    "%%*/": 96444,
    "\u0120loadChildren": 64135,
    "\u00ef\u00bc\u0123\u010a\u010a\u010a\u010a": 84875,
    "\u0120Interest": 25074,
    "(side": 44102,
    "\u0120silky": 87418,
    "\u0120compar": 7809,
    "CS": 6546,
    "IGNED": 26066,
    "\u0120\u00d9\u0127\u00d8\u00aa\u00d8\u00b1": 104216,
    "\u00d8\u00b0\u00d9\u0125\u00d8\u00b1": 125177,
    "-gradient": 43838,
    "\u0120});\u010a\u010a\u010a": 28411,
    "_g": 1928,
    "\u0120unlawful": 45522,
    "\"\"\"": 12885,
    "\u00eb\u00af\u00bc\u00ec\u00a3\u00bc": 126311,
    "\u0120\u00eb\u012b\u00b4": 111068,
    "\u0120fik": 110637,
    "()(": 27408,
    "-function": 34849,
    "\u0120critics": 23531,
    "uator": 46262,
    "ester": 5302,
    "\u00da\u00af\u00db\u012e\u00d8\u00b1\u00d8\u00af": 116792,
    "Datum": 69136,
    "\u00e6\u013e\u00ba\u00e5\u013e\u00ba": 127767,
    "Window": 4362,
    "$obj": 38055,
    ".Amount": 63292,
    "rips": 76816,
    "Mahon": 76072,
    "\u0120\u00d8\u00a7\u00d8\u0143\u00d9\u0127\u00d8\u00af": 112089,
    "ACP": 62395,
    ">):": 38123,
    "\u0120years": 1667,
    "\u00e6\u0130\u00a8\u00e8\u012f\u0132": 118553,
    "\u0120oscillator": 84741,
    "Q": 48,
    "\u0120things": 2574,
    "Divider": 43671,
    "\u00e5\u00bf\u013e": 106608,
    "\u0120fro": 13091,
    "\u0120QColor": 56858,
    "\u0120RB": 29074,
    "_CIPHER": 82073,
    "\u0120pageNo": 85982,
    "\u0120deser": 98055,
    "Coeff": 47902,
    "\u00d0\u00be\u00d1\u0129\u00d0\u00ba\u00d0\u00b8": 108727,
    "\u0120\u00ec\u012d\u00a4\u00ec\u012d\u013e": 125744,
    "\u0120\u00e2\u0136\u0122": 119258,
    "\u0120\u00ed\u0137\u013a\u00eb\u012c\u0136": 105365,
    "\u0120ultra": 24955,
    "\u0120inp": 33444,
    "Photos": 32872,
    "\u00e0\u00b8\u00b1\u00e0\u00b8\u013c\u00e0\u00b8\u0123\u00e0\u00b8\u00b2\u00e0\u00b8\u00a3": 105015,
    "\u0120glGet": 52051,
    "Ranges": 76002,
    "_ns": 35828,
    "\u00c4\u012fen\u00c3\u0143": 103172,
    "\u0120\u00ec\u013f\u00b8\u00ec\u00b2\u013e": 121772,
    "goog": 40958,
    "\u0120Fiber": 54727,
    "\u0120balcon": 38405,
    "\u0120glo": 14015,
    "\u0120impress": 10098,
    "oin": 2003,
    "speech": 89325,
    "\u0120tends": 28335,
    "\u0120Franz": 66620,
    "\u0120ATTRIBUTE": 85911,
    "\u0120decorate": 57681,
    "\u00d8\u00af\u00d8\u00a7\u00d8\u00af": 109877,
    "\u0120h\u00e1\u00bb\u0135": 102690,
    "\u0120escrit": 58544,
    "\u0109className": 56242,
    "\u0120dipped": 73307,
    "\u0120predicts": 56978,
    "\u0120informed": 16369,
    "VALUES": 47189,
    "\u0120\u00e0\u00a4\u00b9\u00e0\u00a4\u00b0": 104579,
    "amics": 79278,
    "exampleModalLabel": 83503,
    "\u0120hastal\u00c4\u00b1k": 113320,
    "\u0120d\u00c5\u00afle\u00c5\u00beit\u00c3\u00a9": 122339,
    "\u00db\u012e\u00d8\u00af\u00d9\u0129": 103663,
    "\u0120throwing": 21939,
    "entina": 24856,
    "\u0120\u00ec\u012d\u00b1": 119591,
    "ognition": 31756,
    "\u0120(*(": 39807,
    "\u0120\u00e5\u013e\u012d": 113575,
    "\u00cf\u0126\u00cf\u012b": 105036,
    "\u0120\u00ec\u0137\u012c\u00ec\u0137\u013a\u00eb\u012d\u00a4": 112269,
    "ilor": 50638,
    "\u0120charger": 45669,
    "unist": 16156,
    ")));": 48663,
    "\u0120Marks": 49195,
    "\u00e0\u00b9\u012a\u00e0\u00b8\u00a2": 125258,
    "\u0120beforehand": 52159,
    "<number": 41082,
    "\u0120Colt": 91484,
    "dehyde": 86836,
    "\u0120Zig": 74861,
    "\u0120complement": 23606,
    "(di": 56593,
    "\u0120vampire": 51587,
    "digits": 61870,
    "ICollection": 18552,
    "\u0120\u00e4\u00b8\u012c": 65218,
    "\u0120M\u00c3\u00b6glich": 67561,
    "_TRANSFORM": 93721,
    "\u0120appropriation": 86740,
    "\u0120organise": 71040,
    "objc": 29926,
    "aname": 94794,
    "EndPoint": 71318,
    "\u0120rych": 105294,
    "\u0120gladly": 71950,
    "\u0120Operators": 65520,
    "\u0120\u00d9\u0126\u00d8\u00ba": 122859,
    "etu": 95517,
    "\u0120chewing": 75477,
    "\u0120Clintons": 93130,
    "]\").": 45991,
    "\u0120bizarre": 33288,
    "\u0120\u00d8\u0143\u00d8\u00a7\u00d9\u0126\u00d8\u00a9": 123109,
    "abled": 2364,
    "RING": 87026,
    "\u0120Princeton": 50421,
    "\u0120clinically": 70432,
    "\u0120zeroes": 98543,
    "Lou": 93906,
    "holm": 34605,
    "CRY": 36562,
    "marginLeft": 82737,
    "\u0120into": 1139,
    "\u00e0\u00b8\u00b2\u00e0\u00b8\u0136": 101521,
    ".getLast": 62149,
    ".bot": 35809,
    "\u0120timestamp": 11695,
    "\u0120\u00ec\u00a4\u0133\u00ec\u013c\u0136\u00ed\u0137\u013e": 126728,
    "\u0120Quiz": 42248,
    "\u00d0\u0137\u00d1\u0123\u00d0\u00bb\u00d0\u00b8": 106889,
    "\u00d0\u00b8\u00d0\u00b4\u00d0\u00b5\u00d0\u00bd\u00d1\u0124\u00d0\u00b0": 120633,
    "Education": 40234,
    "\u0120Going": 35971,
    "\u0120commenced": 65362,
    "\u0120Dios": 69198,
    "\u00c3\u00ae": 25108,
    "_rotate": 61934,
    "\u0120\u00d0\u00ba\u00d1\u0122\u00d1\u012d": 110011,
    "\u0120pleased": 18949,
    "_Integer": 81418,
    "Successful": 37474,
    "\u0120Cent": 5838,
    ".security": 15569,
    "_pod": 86437,
    "\u0120wont": 40464,
    "\u00e6\u00a3\u0134": 117399,
    "\u0120yukar\u00c4\u00b1": 116065,
    "Logger": 7547,
    "\u0120Egg": 42313,
    "\u00d0\u00be\u00d1\u0123\u00d0\u00be\u00d0\u00b1": 102207,
    "\u0120Cocoa": 76751,
    "\u0120spends": 38202,
    "licos": 89944,
    "\u0120Kod": 68402,
    "\u0120Maced": 57552,
    "\u0120Cricket": 59019,
    "\u0120Ripple": 70807,
    "allest": 19790,
    ":\"<<": 70134,
    "\u0120blend": 20955,
    "cheduling": 45456,
    "\u0120caregiver": 93561,
    "\u00e0\u00b8\u012c": 49220,
    "\u0120JetBrains": 76224,
    "\u00e5\u0127\u00ac\u00e5\u0131\u00b8": 74318,
    "Tester": 59799,
    "etooth": 118443,
    "\u0120recru": 12390,
    "i\u00e1\u00bb\u0123m": 111280,
    "-private": 66377,
    "\u0120\u00ec\u0137\u00bc": 108332,
    "\u0120cheap": 12136,
    "\u00d8\u00a8\u00d9\u0126": 101453,
    "\u0120\u00d0\u00b3\u00d0\u00be\u00d1\u0123\u00d1\u0125\u00d0\u00b4\u00d0\u00b0\u00d1\u0122": 105890,
    "REDENTIAL": 82609,
    "\u0120sans": 15878,
    "\u0120Things": 20695,
    "ventas": 98201,
    "\u0120\u00d8\u00b2\u00d8\u00a8\u00d8\u00a7\u00d9\u0128": 106461,
    "006": 11030,
    "\u00d0\u00b0\u00d0\u00bd\u00d0\u00b8\u00d0\u00b9": 105560,
    "\u0120today": 3432,
    "\u0120\u00d8\u00a7\u00d9\u0128\u00d8\u00b3\u00d8\u00a7\u00d9\u0128": 108627,
    "(timeout": 40066,
    "\u0120tecr": 124626,
    "\u0120papers": 16064,
    ",filename": 93935,
    "\u00d1\u0122\u00d0\u00b5\u00d0\u00b6\u00d0\u00b4": 108925,
    "_FLASH": 49615,
    "_ment": 28083,
    "\u0120competitive": 15022,
    ">Action": 89110,
    "\u0120membranes": 79348,
    "\u0120Some": 4427,
    "bound": 11130,
    "\u0120poids": 97418,
    "\u00eb\u0125\u00a5": 112012,
    "\u0120kh\u00c3\u00a1": 108255,
    "\u00e4\u00bb\u0138\u00e4\u00bb\u00ac": 104563,
    "Cheers": 75961,
    "979": 25476,
    "Fixture": 19466,
    "tolist": 53241,
    "\u0120incoming": 19957,
    "\u0120setUser": 43513,
    "\u00eb\u00aa\u00a8": 101555,
    "\u0120Pr": 2394,
    "\u00e6\u0123\u00a8": 127500,
    "_parallel": 61725,
    "\u0120doses": 35130,
    "\u0120flowering": 82339,
    "riding": 50780,
    ".report": 23616,
    "\u0120Deluxe": 54061,
    "\\n": 1734,
    "Leaf": 32561,
    "\u00d8\u00b2\u00d9\u0128": 112505,
    "\u0120\u0120\u0120\u0120\u0120\u0120\u0120\u0120\u0120\u0120\u0120\u0120\u0120\u0120\u0120\u0120\u0120\u0120\u0120\u0120\u0120\u0120\u0120\u0120\u0120\u0120\u0120\u0120\u0120\u0120\u0120\u0120\u0120\u0120\u0120\u0120\u0120\u0120": 11317,
    "\u0120advice": 9650,
    "\u0120Osmanl\u00c4\u00b1": 111118,
    "\u0120employers": 23234,
    ".badlogic": 43635,
    ".object": 6163,
    "\u0120s\u00e1\u00ba\u00bb": 112647,
    "\u0120scalability": 94840,
    "-road": 66815,
    "\u0120porter": 88286,
    "cation": 65982,
    ".tt": 90768,
    "\u0120reclaimed": 89759,
    "\u0120indirect": 25636,
    "Column": 3006,
    "\u0120v\u00c3\u00bdsledky": 125689,
    "urchases": 75202,
    "\u0120frontier": 49100,
    "\u0120\u00e0\u00a4\u0133": 103630,
    "\u00cf\u012f\u00cf\u0122": 111037,
    "\u0120cork": 90424,
    "Dict": 13755,
    "\u0120Appeals": 48207,
    "\u0120innovate": 92064,
    "\u0120FontWeight": 27804,
    "\u0120mond": 62940,
    "\u0109q": 19043,
    "OutOfBounds": 62449,
    "\u0120gigg": 70718,
    "\u00d0\u00be\u00d1\u0122\u00d0\u00b8": 106741,
    "\u00e0\u00a5\u0129\u00e0\u00a4\u0141": 101263,
    "\u0120Tanz": 58780,
    "/not": 63541,
    "nici": 111910,
    "occan": 85111,
    "\\\",\u010a": 84615,
    "\u00e7\u0141\u00b3": 102465,
    "<Double": 46547,
    "\u00e6\u00b2\u00bb\u00e7\u0138\u0139": 125240,
    "\u00d1\u0127\u00d1\u0138\u00d0\u00b4": 102689,
    "fragistics": 54725,
    "\u0120Ultr": 67957,
    "\u0120\u00e0\u00b8\u0123\u00e0\u00b8\u00a5": 107932,
    "\u0120nebude": 115440,
    "\u0120USB": 11602,
    ".Set": 4296,
    "Mbps": 87242,
    "\u00e5\u0136\u00af": 113723,
    "\u0120troubling": 52329,
    "\u0120Stewart": 29868,
    "\u0120England": 9635,
    "575": 21228,
    "\u0120ligne": 27912,
    "\u0120Meaning": 49203,
    "\u0120th\u00e1\u00bb\u012f": 127630,
    "\u0124": 224,
    "_hours": 42471,
    ".hh": 34532,
    "\u0120\u0120\u0120\u0120\u0120\u0120\u0120\u0120\u0120\u0120\u0120\u0120\u0120\u0120\u0120\u0120\u0120\u0120\u0120\u0120\u0120\u0120\u0120\u0120\u0120\u0120\u0120\u0120\u0120\u0120\u0120\u0120\u0120\u0120\u0120\u0120\u0120\u0120\u0120\u0120\u0120\u0120\u0120\u0120\u0120\u0120\u0120\u0120\u0120\u0120\u0120\u0120\u0120\u0120\u0120\u0120\u0120": 27157,
    "\u0109ns": 85141,
    "!!\u010a\u010a": 25833,
    "\u00e4\u00b9\u0127\u00e4\u00b9\u0127": 106923,
    "\u00e7\u00a6\u0131": 103005,
    "feit": 62221,
    "-mar": 71098,
    "Mac": 20122,
    "_export": 28213,
    "(\u00e5\u013e\u0141": 111430,
    "\"],\"": 69982,
    "\u00e3\u0123\u012d\u00e3\u0123\u0126": 121867,
    "\u0120\u00d9\u0127\u00d9\u0126\u00d8\u00aa": 126394,
    "(dx": 52772,
    "!');\u010a": 26570,
    "\u00d8\u00b8\u00d9\u00b9": 111773,
    "\u0120spawning": 79529,
    ".templates": 77207,
    "\u0120brilliance": 83580,
    "\u0120BLOCK": 29777,
    "\u0120Current": 9303,
    "\u0120nh\u00e1\u00bb\u013d": 112572,
    "ucer": 60496,
    "Soup": 33642,
    "UBLIC": 17594,
    "\u00d0\u00be\u00d0\u00b2\u00d1\u012d\u00d0\u00b5": 110073,
    "\u0120almaktad\u00c4\u00b1r": 122318,
    "\u00e0\u00a5\u0122\u00e0\u00a4\u00b6": 114560,
    "_restore": 63777,
    "\u0120granting": 49780,
    "/g": 4951,
    "\u00e0\u00a5\u012f\u00e0\u00a4\u0137\u00e0\u00a4\u00b0": 116704,
    "\u0120computer": 6500,
    "\u0120volumes": 27378,
    "\u0120\u00d0\u00b8\u00d1\u0123\u00d1\u0123\u00d0\u00bb\u00d0\u00b5\u00d0\u00b4\u00d0\u00be\u00d0\u00b2\u00d0\u00b0\u00d0\u00bd\u00d0\u00b8\u00d1\u0131": 121567,
    "Polygon": 38719,
    "\u0120coeffs": 80272,
    "\u0120sentiment": 27065,
    "\u0120metrics": 17150,
    "\u0120SUN": 57328,
    ".cloud": 17365,
    "(job": 29429,
    "\u0120B\u00c3\u00b6l": 106809,
    "\u0120\u00d9\u0127\u00d8\u00a7\u00d9\u0128\u00d8\u00af": 123921,
    "aintenance": 25577,
    "Optimizer": 81737,
    ".FLAG": 37590,
    "\u00e9\u0122\u0136": 108968,
    "\u0120Flowers": 52645,
    "\u0120pollution": 25793,
    ".ToolStrip": 13712,
    "\u0120callable": 42022,
    "imagin": 80224,
    "credentials": 33453,
    "aad": 87729,
    "\u0120N\u00c3\u00a3o": 58749,
    "\u0120anthrop": 41416,
    "\u0120payouts": 90629,
    "itched": 93503,
    "\u0120pari": 68082,
    "\u0120fasc": 15550,
    "\u0120t\u00c3\u00a1": 80684,
    "Log": 2250,
    "_GC": 78015,
    "\u0120Benjamin": 30411,
    "r\u00c4\u00b1ca": 104399,
    "\u0120'\"';\u010a": 95435,
    "ausal": 80174,
    "\u0120\u00ce\u0137\u00ce\u00bb\u00ce\u00bb\u00ce\u00b7\u00ce\u00bd": 121029,
    "verbatim": 85105,
    "tlement": 45589,
    "_PP": 44358,
    "\u00e6\u00a8\u00b9": 111398,
    "aims": 26760,
    "\u0120getString": 32007,
    "_separator": 59304,
    "avior": 5758,
    "abbit": 20544,
    "\u00d8\u00a7\u00d9\u0125\u00d9\u0127": 125630,
    "\u0120tolerate": 50134,
    "\u00e3\u0123\u00a8": 19732,
    "\u0120knees": 31624,
    "\u0120cel\u00c3\u00a9": 113555,
    "RID": 63575,
    "\u0120Investigators": 96852,
    "venue": 7287,
    ".Block": 29577,
    "\u00d9\u0123\u00d8\u00aa\u00d9\u0127": 118766,
    "\u0120gui": 19783,
    "\u0120Medium": 25352,
    "\u0120Expected": 32121,
    "itted": 3847,
    "\u00e6\u00b3\u0137\u00e5\u013d\u00bd": 124235,
    "\u00e3\u0122\u0124": 1811,
    "\u0120(*)": 45148,
    "=j": 46712,
    "Senator": 71646,
    "\u0120usur": 96188,
    "\u0120['./": 18701,
    "fold": 20557,
    "t\u00c4\u00b1\u00c4\u0141\u00c4\u00b1n\u00c4\u00b1": 122441,
    "\u0120SMART": 80708,
    "\u0120\u00eb\u0127": 101168,
    "\u0120Filter": 12619,
    "\u00d1\u012a\u00d0\u00b8\u00d1\u0122": 110253,
    "ader": 1013,
    "_MAPPING": 74613,
    "\u0120moi": 41091,
    "racak": 119324,
    "inf": 13885,
    "\u0120pageable": 71247,
    ";border": 36879,
    "\u0120-$": 83458,
    ".CenterScreen": 70962,
    "\u0120ric": 31050,
    "\u0120collects": 52307,
    "\u0120\u00d0\u013e\u00d0\u00b0": 122673,
    "-\u00d0\u00bb\u00d0\u00b8": 117136,
    "prav": 102628,
    "jac": 87231,
    ".append": 2102,
    "\u00ce\u00b9\u00cf\u0130": 112387,
    "\u00d0\u00b7\u00d0\u00b0\u00d1\u0128\u00d0\u00b8\u00d1\u0131": 112898,
    "Customer": 13084,
    "obuf": 18971,
    "\u010a\u010a\u010a\u010a\u010a\u010a": 5244,
    "_pes": 93295,
    "HasColumnName": 42784,
    "FileName": 11143,
    "\u00e3\u0126": 104227,
    "\u0120underwater": 46474,
    "\u0120wo": 24670,
    "_MONITOR": 82834,
    "\u0120glm": 17788,
    "dur": 71792,
    "\u0120WINAPI": 55010,
    "\u0120Unix": 48095,
    "\u0120Liability": 91143,
    "\u0120ned": 54805,
    "blast": 64417,
    "\u0120\u00d9\u0126\u00d9\u0126\u00d9\u0127": 105049,
    "-program": 67120,
    "\u0120geopolitical": 87998,
    "ORS": 10022,
    "\u0120modifications": 29882,
    "\u00c3\u00bcn\u00c3\u00bcz": 119426,
    "Stop": 10903,
    "\u0120MEMBER": 82924,
    ".DependencyInjection": 59573,
    "Translator": 52753,
    "\u0120\u00d9\u0128\u00d9\u012a\u00d9\u012c\u00d8\u00b3\u00d9\u0128\u00d8\u00af\u00d9\u0129": 114085,
    "lesia": 93337,
    "\u0120samt": 76343,
    "\u0120TimeUnit": 37867,
    "\u0120stanov": 109974,
    "\u0120Dept": 51321,
    "\u0120Carolina": 13030,
    "\u0120statuses": 60458,
    "\u00c3\u0143culo": 49591,
    "_certificate": 64147,
    "~~~~~~~~~~~~~~~~": 33643,
    "-pro": 10039,
    "\u0120enrichment": 70272,
    "\u0120\u00d0\u013f\u00d0\u00b5\u00d1\u0124": 122176,
    "Terrain": 86120,
    "\u00d8\u00aa\u00d8\u00a8\u00d8\u00a7\u00d8\u00b1": 114345,
    "\u00cf\u0125\u00cf\u0126\u00ce\u00bf": 103998,
    "_CORE": 32410,
    "\u0120Hust": 86550,
    "_Free": 59555,
    "\u0120zm\u00c4\u013dny": 122890,
    "_fn": 15604,
    "\u00e0\u00a4\u00a1": 100361,
    ".permissions": 63684,
    ".Rows": 11585,
    "\u00e6\u013e\u00b5": 126519,
    "\u0120\u00e9\u013d\u0128": 122973,
    "alace": 123022,
    "\u0120\"`": 37073,
    "(auth": 28535,
    "\u0120Zem\u00c4\u013d": 126185,
    ":convert": 96715,
    "\u0120sev": 102878,
    "pu": 5701,
    ".read": 4217,
    "_constraint": 48073,
    "doctype": 51239,
    "\u0120|=": 8832,
    "ValueChanged": 62590,
    "bo": 754,
    "\u0120\u00e0\u00a5\u00a4\u010a": 122785,
    "\u0120Mi": 21402,
    "\u0120ap": 1469,
    "DISABLE": 82248,
    "copyright": 15859,
    "\u00ec\u00a7\u0122\u00ea\u00b0\u0122": 122877,
    "ouncill": 46503,
    "\u0120DOC": 61455,
    "\u0120Legislative": 68505,
    "\u0120errorCode": 41542,
    "izards": 35191,
    "\u0120IMS": 88377,
    ".nz": 62082,
    "\u0109volatile": 32219,
    "\u0120typical": 14595,
    "\u0120\u00d0\u00b2\u00d0\u00b5\u00d1\u0122\u00d0\u00be\u00d1\u0131\u00d1\u0124": 122308,
    "polator": 58836,
    "\u0120safeguard": 49071,
    "\u0109\u0109\u0120\u0120\u0120\u0120\u0120": 22219,
    "\u0120fluores": 51881,
    "\u0120trapped": 31691,
    ".hex": 46739,
    "prar": 95050,
    "\u00e2\u0136\u0132": 116707,
    "\u0120APPLY": 90086,
    "dy\u00c5\u00be": 105962,
    "\u0120snel": 90811,
    "\u0120\u00d0\u00bd\u00d0\u00b5\u00d0\u00b1\u00d0\u00be\u00d0\u00bb\u00d1\u012e\u00d1\u012a": 114875,
    "\u0120v\u00c3\u00b5": 80295,
    "\u0120HttpSession": 76668,
    "\u0120Medi": 92857,
    "UTDOWN": 80802,
    "\u0120/\\.(": 85963,
    "\u0120\u00ec\u013e\u0142\u00ec\u00a7\u0122": 124208,
    "\u0120spam": 26396,
    "Lex": 48878,
    "naments": 74915,
    "SK": 16074,
    "\u0120gra": 28699,
    "]*": 8632,
    "\u0120agriculture": 30029,
    "\u0120despite": 8994,
    "grupo": 73077,
    "//$": 21207,
    "\u0120\u00d8\u00a8\u00d9\u0129\u00d8\u00a7": 112166,
    ".categories": 43536,
    "Ord": 25644,
    "\u0120socioeconomic": 80431,
    "\u0120Folder": 36943,
    "\u0120huy\u00e1\u00ba\u00bft": 124149,
    "\u00d9\u012a\u00d9\u0126\u00d8\u00af": 121300,
    "vertime": 81338,
    "\u0120\u00d0\u00bf\u00d0\u00be\u00d1\u0129\u00d0\u00b0\u00d1\u0124\u00d0\u00ba\u00d1\u0125": 115758,
    "\u0120Crane": 73999,
    "\u0120TOR": 71061,
    "though": 4636,
    "\u0120Esto": 93125,
    "Throw": 23949,
    ".controls": 33649,
    "\u0120indemn": 90108,
    "forcer": 83110,
    "\u00eb\u012a\u0126": 110399,
    "\u0120\u00d1\u0123\u00d1\u0126\u00d0\u00b5\u00d1\u0122\u00d1\u0138": 123951,
    "INED": 36640,
    "odium": 47876,
    "\u0120boto": 61879,
    "CHASE": 76259,
    "\u0120lyr": 86337,
    "\u00c2\u0122": 42516,
    "\u0120Unfortunately": 19173,
    "WithIdentifier": 46528,
    "///////////////////////////////////////////////////////////////////////////////\u010a": 77837,
    "reject": 48096,
    ".runtime": 23972,
    "\u0120Cable": 34585,
    "-ab": 39130,
    "\u00d0\u00b5\u00d0\u00b4\u00d1\u012e": 117069,
    "\u0120Allen": 20661,
    "\u0120tzv": 118775,
    "armacy": 76342,
    "\u00e0\u00b8\u0136": 38133,
    "\u0120Kra": 62167,
    "\u0120\u00d0\u00bc\u00d0\u00b0\u00d0\u00ba": 127142,
    "eyse": 117077,
    ".\u010d\u010a": 3304,
    "\u00e0\u00a4\u00be\u00e0\u00a4\u0129\u00e0\u00a4\u0141": 106770,
    ".Border": 15313,
    "\u00e5\u0127\u00b6\u00e5\u00ae\u0140": 126006,
    "\u0120Madonna": 81669,
    "ActionBar": 35759,
    "\u0120={\u010a": 84824,
    "\u0120embark": 70531,
    "d\u00c4\u013dlen\u00c3\u0143": 116157,
    "ietf": 75168,
    "\u00ef\u00bc\u012e\u00e5\u012a\u013b": 96153,
    "creat": 95839,
    "\u00e5\u0127\u00b1\u00e5\u0132\u012e": 119046,
    "\u0120snag": 72902,
    "\u0120nurses": 37465,
    "\u0120weapon": 10500,
    "\u0120Petty": 95798,
    "\u00cf\u0125\u00cf\u0128": 106707,
    "\u0120\u00d0\u00bf\u00d1\u0122\u00d0\u00b5\u00d0\u00b7\u00d0\u00b8\u00d0\u00b4\u00d0\u00b5\u00d0\u00bd\u00d1\u0124": 127289,
    "\u0120dungeons": 83485,
    "\u00e8\u00a1": 13079,
    "\u0120\u00d0\u00bd\u00d0\u00b5\u00d1\u0124": 77738,
    "\u00d0\u00b8\u00d0\u00bc\u00d0\u00be\u00d1\u0123\u00d1\u0124\u00d1\u012e": 112132,
    "changing": 52813,
    "\u0120xcb": 96669,
    "\u0109elsif": 87570,
    "_orient": 54593,
    "icity": 62791,
    "-Requested": 90209,
    ".Getenv": 65983,
    "\u0120\u00d1\u0131\u00d0\u00bd\u00d0\u00b2\u00d0\u00b0\u00d1\u0122\u00d1\u0131": 117922,
    "\u00e6\u0139\u0123": 113210,
    "\u0120nig": 83870,
    "GW": 63665,
    "\u0120statusBar": 91220,
    "Tail": 45895,
    "\u0120perch": 42983,
    "\u00d0\u00be\u00d0\u00b2\u00d0\u00be\u00d1\u0122": 101430,
    "udas": 54841,
    "calloc": 66588,
    "peech": 40686,
    ".c": 522,
    "\u0120\u00e0\u00b8\u0126\u00e0\u00b8\u00a3": 107966,
    "pdata": 58896,
    "\u0120?????": 74578,
    "\u0120Kurul": 117599,
    "iphertext": 46143,
    "\u0120bi\u00e1\u00ba\u00bft": 102613,
    "\u00e0\u00a6\u00bf\u00e0\u00a6": 81278,
    "\u0120treasury": 79353,
    "\u0120restaurants": 15926,
    "\u0120Alexander": 20643,
    "okin": 79117,
    "ruz": 63423,
    ".Alter": 77542,
    "\u0120\u00d8\u00b1\u00d8\u0143": 112432,
    "ods": 30797,
    "\u0120\u00d0\u00b1\u00d0\u00b5\u00d1\u0123\u00d0\u00bf": 112463,
    "\u0120photographed": 57303,
    "\u00e0\u00b8\u00b2\u00e0\u00b8\u00b0\u00e0\u00b8\u00ab": 113901,
    "\u0120condemned": 39025,
    "\u00e4\u00be\u00a1\u00e6\u0142\u00bc": 121374,
    "i\u00c4\u012fka": 122313,
    "\u0120#\u010a\u010a": 59706,
    "SIGN": 55172,
    "\u0120Zhao": 70381,
    "ujet": 69007,
    "found": 15456,
    "\u0120dismant": 49212,
    "credited": 67309,
    "\u00e3\u0123\u0139\u00e3\u0123\u00a6": 39926,
    "arena": 31627,
    "\u0120temples": 57997,
    "\u0120\u00d9\u0127\u00d8\u00b4\u00d8\u00a7\u00d8\u00b1\u00da\u00a9\u00d8\u00aa": 112782,
    "\u0120velocity": 15798,
    "edef": 4313,
    "\u0120ch\u00e1\u00bb\u00a9ng": 103492,
    "\u00c5\u0124aw": 98348,
    "\u0120IUser": 51994,
    "li\u00c5\u00be": 112935,
    "Migration": 20778,
    "\u0120Scient": 21302,
    "\u0120\u00d8\u0143\u00d8\u00b5": 119758,
    "UDENT": 82050,
    "\u0109init": 29348,
    "\u00e7\u00a7\u00bb\u00e5\u012d\u0137": 127284,
    "\u0120lends": 79018,
    "\u0120\u00d8\u00a2\u00d9\u0124\u00d8\u00a7\u00db\u012e": 117792,
    "\u0120\u00d1\u0123\u00d0\u00b2\u00d0\u00be\u00d1\u0139\u00d0\u00bc": 123491,
    "\u0120WIDTH": 43910,
    "\u00d0\u00bd\u00d0\u00b5\u00d1\u0122": 108402,
    "\u0120\u00d0\u00b1\u00d0\u00be\u00d1\u0122\u00d1\u012e": 124357,
    "\u0120postId": 67130,
    "_RGCTX": 61963,
    "\u0120m\u00e1\u00bb\u0123m": 107967,
    "igious": 22941,
    "\u0120klik": 91009,
    "EG": 9560,
    "\u0120\u00f0\u0141\u013a\u012b\u010a\u010a": 82536,
    "\u0120Mic": 28095,
    "\u0120Thanks": 11361,
    "18": 972,
    "\u0120english": 30063,
    "\u0120buy": 3780,
    "_gid": 73993,
    "otherapy": 42811,
    "article": 7203,
    "associated": 50187,
    "bble": 60980,
    "\u0120olmaz": 116363,
    "istinguish": 89747,
    "\u0120neighbours": 36956,
    "\u0120\u00d0\u00bf\u00d0\u00be\u00d1\u0123\u00d1\u0124\u00d1\u0122\u00d0\u00be": 121093,
    "Roll": 33455,
    "\u0120phy": 37555,
    "\u0120purchaser": 77350,
    "\u0120dog": 5679,
    "\u0120Favorite": 40822,
    "\u0120TO": 5257,
    "Mr": 12555,
    "\u00ef\u00bd\u012e": 103375,
    ",No": 86176,
    ".sendRedirect": 83673,
    "\u0120\u00d1\u0123\u00d1\u0124\u00d0\u00b0\u00d0\u00bd\u00d0\u00b5\u00d1\u0124": 126686,
    "\u0120\u00c4\u00b1\u00c5\u0141\u00c4\u00b1k": 119341,
    "Nine": 84429,
    "\u0120\u00d0\u00b3\u00d0\u00be\u00d0\u00bb": 108343,
    "\u0120noodles": 61260,
    "\u0120Harvey": 34422,
    ".Entry": 23131,
    "/drivers": 87747,
    "FormattedMessage": 87842,
    "\u0120bulundu\u00c4\u0141u": 114991,
    "\u0120Kle": 27446,
    "cyan": 70846,
    "_BACKEND": 78895,
    "-area": 30122,
    "leyin": 127530,
    "\u0120comfortable": 10882,
    "\u0120\u00d0\u00a7\u00d1\u0124\u00d0\u00be": 113740,
    "\u0120rubble": 74535,
    "\u0120shootout": 88281,
    "isha": 36040,
    "archive": 16402,
    "\u0120shoes": 15653,
    "\u0120cancers": 51423,
    "_data": 1807,
    "\u0120Scottish": 27188,
    "\u0120Comparator": 51641,
    "Platforms": 88368,
    "\u0120stockings": 76705,
    "uk": 3178,
    "649": 24734,
    "\u0120tranny": 70698,
    "\u0120pon": 35023,
    "\u0120LF": 58236,
    "/\";\u010a\u010a": 86343,
    "\u0120interpolation": 37587,
    "\u0120skins": 51050,
    "\u00e9\u013f\u012a": 126321,
    "\u0120tucked": 61218,
    "\">{{": 14436,
    "\u00e5\u013f\u00a6": 116187,
    "\u0120Receive": 38522,
    "\u0120localVar": 43866,
    "\u0120Springs": 30304,
    "dlg": 60140,
    "\u0120private": 879,
    "\u00e9\u0122\u0141": 95399,
    "Called": 21634,
    "_q": 9153,
    "\u0120grandparents": 56435,
    "\u0120Hou": 60700,
    "(None": 27815,
    "bac": 56977,
    "jec": 74301,
    "\u00e6\u0125\u00b3\u00e8\u00a6\u0123": 119317,
    "\u0120/>';\u010a": 57145,
    "(Field": 58888,
    "\u00e6\u012e\u0129\u00e5\u00ae\u013c": 109823,
    "\u0120Dani": 30639,
    "-sem": 70789,
    "\u0120\u00e5\u013d": 50702,
    "\u0120\u00d8\u00af\u00d8\u00a7\u00d8\u00b1\u00d8\u00a7\u00db\u012e": 108769,
    "\u00c5\u00a1ov": 126126,
    "_By": 87096,
    "Together": 82087,
    "\u0120EZ": 64386,
    "\u00d1\u0126\u00d1\u0138\u00d0\u00ba\u00d0\u00b0": 111762,
    "Copy": 12379,
    "\u00e3\u0123\u0140": 108422,
    "\u00ac\u0124": 120912,
    "\u0120Rencontre": 45685,
    "\u0120batteries": 27360,
    "\u0120\u00d8\u00aa\u00d8\u00b1\u00d8\u00ac\u00d9\u0127\u00d9\u0129": 117361,
    "\u0120podp": 111466,
    "\u0120ack": 10956,
    "bounded": 66786,
    ".Once": 79046,
    "\u0120Incoming": 97243,
    ".species": 99339,
    "\u0120Switch": 15958,
    "\u0120ethereum": 85622,
    "\u0120partnerships": 40705,
    "_keyword": 46924,
    "\u0120mon": 1647,
    "Chuck": 94626,
    "\u0120sito": 51719,
    "\u0120Fade": 57760,
    "ahat": 117560,
    "bij": 62369,
    "\u0120Namespace": 43062,
    "\u00c6\u00b0\u00e1\u00bb\u00a3u": 118573,
    "\u00ec\u013f\u00b4\u00ec\u0139\u012a\u00eb\u012d\u00a4": 107675,
    "\u0120syst\u00c3\u00a9mu": 112448,
    "\u0120\u00d1\u0122\u00d0\u00b5\u00d0\u00b6": 107087,
    "\u0120a\u00c5\u0141": 102349,
    "\u00e6\u0138\u00b0\u00e5\u00a2\u0140": 94720,
    "\u0120caliente": 98415,
    "440": 14868,
    "\u0120Categoria": 73682,
    "\u0120skies": 50393,
    "\u0120\u00d1\u0124\u00d0\u00b8": 103287,
    "\u00ea\u00b2\u00bd\u00ec\u0142\u013e": 127463,
    "erno": 25980,
    "\u00d9\u012a\u00d8\u00b1\u00d9\u0128": 122622,
    "\u0120forn": 57109,
    "\u0120thought": 3463,
    "\u0120\u00d0\u00b8\u00d0\u00bd\u00d1\u0123\u00d1\u0124\u00d1\u0122\u00d1\u0125\u00d0\u00bc\u00d0\u00b5\u00d0\u00bd\u00d1\u0124": 124400,
    "\u0120shared": 6222,
    "\u0120Bring": 40224,
    "\u0120RESULT": 29636,
    "probante": 89037,
    "\u00e5\u00b0\u0129": 106812,
    "Valid": 4180,
    "(Error": 38496,
    "ammers": 43157,
    "\"]\u010a": 7171,
    "\u0120referral": 45880,
    "IBILITY": 24505,
    "\u0120mpg": 83554,
    "\u0120\u00d1\u0122\u00d0\u00b5\u00d0\u00b0\u00d0\u00bb\u00d1\u0138\u00d0\u00b7\u00d0\u00b0\u00d1\u0128\u00d1\u0138\u00d1\u0139": 127672,
    "\u0120daily": 7446,
    "_rem": 19744,
    "\u00e8\u00a8\u00aa": 120824,
    "\">'+": 41722,
    "\u00e3\u0123\u00ab\u00e3\u0123\u00aa\u00e3\u0124\u012d": 108176,
    "useRalative": 89472,
    "\u0120shift": 6541,
    "ide": 579,
    "\u0120\u00d0\u00b2\u00d0\u00b2\u00d0\u00b0\u00d0\u00b6": 117014,
    "\u0120\u00cf\u0122\u00ce\u00bf\u00ce\u00bb\u00ce\u00b9": 113309,
    "(hidden": 58314,
    "_frames": 30419,
    "\u0120za\u00c4\u012f\u00c3\u00a1tku": 124352,
    "oose": 14070,
    "\u0120SUB": 16532,
    "\u0120du\u00c5\u00bc": 89838,
    "\u0120\u00d0\u00be\u00d0\u00bf\u00d0\u00b5\u00d1\u0122\u00d0\u00b0": 105423,
    "ianne": 64452,
    "wins": 87152,
    "XmlElement": 32766,
    "\u00d0\u00b4\u00d0\u00b0\u00d1\u0130\u00d1\u0124": 116837,
    "WK": 69416,
    "\u0120Should": 12540,
[...]
