{
    "\u0120Sew": 27347,
    "\u0120shifting": 15852,
    "blocks": 27372,
    "hing": 722,
    "\u0120atten": 31919,
    "\u0120recalled": 12433,
    "\u0120regulate": 16697,
    "\u0120Andre": 10948,
    "alan": 25786,
    "wart": 24657,
    "\u0120bud": 3600,
    "\u0120availability": 11500,
    "\u0120psychological": 10590,
    "\u0120ration": 36535,
    "\u0120acknowledging": 25937,
    "central": 31463,
    "\u0120guarant": 5505,
    "PRES": 48296,
    "\u0120configured": 17839,
    "438": 43704,
    "Nav": 30575,
    "\u0120copyright": 6634,
    "P": 47,
    "\u0120Yam": 14063,
    "\u00e2\u0122\u012d": 9525,
    "galitarian": 39907,
    "spread": 43639,
    "\u0120reserved": 10395,
    "\u0120Word": 9678,
    "\u0120wra": 7917,
    "infect": 27816,
    "rat": 10366,
    "\u0120snack": 26906,
    "\u0120center": 3641,
    "OOK": 15308,
    "\u0120cooker": 37171,
    "xf": 26152,
    "\u0120section": 2665,
    "\u0120mystical": 29746,
    "usually": 23073,
    "APTER": 29485,
    "\u0120Patriarch": 48665,
    "\u0120payable": 28538,
    "interface": 39994,
    "\u0120Drama": 30647,
    "\u0120CONTROL": 49833,
    "\u0120sourcing": 47015,
    "otto": 17631,
    "\u0120assists": 13648,
    "\u0120Bunny": 28683,
    "\u00c3\u00a7": 16175,
    "\u0120thrilling": 31610,
    "\u0120reference": 4941,
    "addy": 13218,
    "\u0120attendees": 21736,
    "\u0120Cena": 46625,
    "Weather": 41865,
    "\u0120Twins": 29640,
    "Transfer": 43260,
    "\u0120amidst": 31095,
    "ox": 1140,
    "\u0120ankle": 19847,
    "\u0120Im": 1846,
    "\u0120du": 7043,
    "\u0120invis": 44837,
    "\u0120thesis": 21554,
    "\u0120plummet": 28940,
    "ul": 377,
    "door": 9424,
    "875": 31360,
    "\u0120readable": 31744,
    "\u0120WHY": 44463,
    "\u0120Diet": 16292,
    "oine": 42722,
    "\u0120begun": 9258,
    "\u0120Japan": 2869,
    "hya": 48812,
    "ga": 4908,
    "liner": 24683,
    "\u0120Lambert": 36978,
    "\u0120digits": 19561,
    "\u0120bind": 11007,
    "\u0120197": 29903,
    "\u00f8": 180,
    "utorial": 44917,
    "\u0120ruth": 23562,
    "anguage": 9000,
    "\u0120debunk": 30397,
    "\u0120Watkins": 36832,
    "trump": 40954,
    "iership": 36689,
    "\u0120KM": 46646,
    "\u0120Turk": 8484,
    "\u0120carbohyd": 19476,
    "\u0120cues": 25288,
    "stack": 25558,
    "fourth": 49393,
    "iments": 6800,
    "ilia": 17517,
    "\u0120meantime": 14324,
    "\u0120Semin": 40563,
    "wire": 21809,
    "\u0120quests": 21359,
    "\u0120lid": 19789,
    "\u0120cert": 5051,
    "inois": 8981,
    "Fact": 29054,
    "\u0120Guth": 44003,
    "\u0120Gupta": 42095,
    "\u0120WA": 16400,
    "Sup": 40784,
    "ion": 295,
    "199": 19104,
    "\u0120Die": 6733,
    "\u0120retaliation": 24671,
    "Easy": 28406,
    "\u0120struggled": 11615,
    "\u0120Epic": 16781,
    "aur": 2899,
    "utonium": 43078,
    "\u0120Noct": 32809,
    "rep": 7856,
    "206": 22136,
    "\u0120kicked": 12165,
    "\u0120relatively": 5365,
    "\u0120Scores": 44654,
    "\u0120withstand": 25073,
    "terson": 23192,
    "\u0120servant": 18807,
    "\u0120ASUS": 38100,
    "\u0120promoting": 11560,
    "\u0120harvesting": 34102,
    "\u0120does": 857,
    "\u0120MIT": 17168,
    "\u0120wraps": 27521,
    "1989": 25475,
    "\u0120hallucinations": 40371,
    "\u0120stained": 34568,
    "\u0120Straight": 27680,
    "Completed": 43768,
    "\u0120Dates": 44712,
    "\u0120robes": 32970,
    "hyp": 36362,
    "\u01201959": 23859,
    "rity": 10138,
    "\u0120performances": 13289,
    "abc": 39305,
    "pants": 38895,
    "\u0120photographer": 16413,
    "Rachel": 44045,
    "\u0120Ricardo": 38847,
    "ampion": 6734,
    "etition": 15620,
    "adeon": 12424,
    "\u0120Tos": 40195,
    "\u0120Mist": 15078,
    "cos": 6966,
    "\u0120Dresden": 46993,
    "\u0120YORK": 28154,
    "\u0120Meet": 21167,
    "\u0120hardship": 30699,
    "\u0120falsehood": 37110,
    "\u0120EST": 17160,
    "\u0120reluctantly": 35462,
    "\u0120spreads": 26779,
    "\u0120crippled": 38961,
    "oped": 19458,
    "\u0120Tib": 16653,
    "\u0120Ver": 4643,
    "\u0120psychologist": 23540,
    "\u0120cooperation": 11113,
    "\u0120Dia": 49838,
    "\u0120Dagger": 36320,
    "\u0120bigot": 25015,
    "\u0120uphill": 35256,
    "\u0120Investigations": 38111,
    "\u0120Deng": 41985,
    "\u0120Junction": 44410,
    "Pan": 15730,
    "PE": 11401,
    "\u0120stages": 9539,
    "ks": 591,
    "Las": 46898,
    "esis": 9339,
    "\u0120aside": 7263,
    "\u0120Catal": 16758,
    "lesiastical": 46360,
    "Required": 37374,
    "\u0120sweat": 15488,
    "borgh": 49870,
    "\u0120clinics": 21434,
    "\u0120empath": 48004,
    "\u0120believes": 5804,
    "\u0120discouraging": 48001,
    "termin": 23705,
    "\u0120Princeton": 23173,
    "\u0120outline": 19001,
    "\u0120Thunder": 9850,
    "roxy": 42059,
    "aged": 1886,
    "\u0120Experiment": 29544,
    "\u0120distract": 11786,
    "Graphics": 18172,
    "\u0120lipstick": 41429,
    "one": 505,
    "onential": 35470,
    "\u0120Bout": 40808,
    "Ancient": 44974,
    "\u00e3\u0124\u00a2\u00e3\u0125\u00ab": 47794,
    "zers": 47031,
    "623": 46872,
    "\u0120Jared": 19116,
    "ball": 1894,
    "Pr": 6836,
    "\u00e3\u0123\u00ae": 5641,
    "\u0120Marriott": 49722,
    "\u0120Gauntlet": 48941,
    "\u0120spaceship": 40663,
    "boat": 24482,
    "ano": 5733,
    "\u0120Carib": 17152,
    "\u0120utilizing": 25137,
    "\u0120Ud": 35774,
    "\u0120CRC": 45623,
    "\u0120favourite": 12507,
    "\u0120hopped": 45230,
    "\u0120decided": 3066,
    "Higher": 48708,
    "treated": 37182,
    "medi": 2379,
    "\u0120therapy": 9102,
    "\u0120hectares": 43025,
    "\u0120explode": 22818,
    "\u0120facets": 44497,
    "\u0120which": 543,
    "\u0120Richard": 6219,
    "\u0120scored": 7781,
    "\u0120keep": 1394,
    "\u0120['": 37250,
    "\u0120324": 38595,
    "Rules": 37766,
    "\u0120oversized": 40931,
    "then": 8524,
    "\u0120paperwork": 23143,
    "zinski": 46394,
    "\u0120Angle": 42375,
    "\u0120proof": 6617,
    "\u0120asked": 1965,
    "fox": 12792,
    "61": 5333,
    "ultz": 22150,
    "\u0120combines": 21001,
    "\u0120alley": 23978,
    "\u0120entitled": 9080,
    "\u0120TBD": 34343,
    "\u0120instructions": 7729,
    "\u0120complexes": 42665,
    "\u0120Plastic": 33731,
    "\u0120Designs": 49282,
    "\u0120GSL": 46326,
    "\u0120ordeal": 30600,
    "\u0120NSW": 23438,
    "\u0120surge": 13853,
    "\u012020": 1160,
    "igger": 15249,
    "ooth": 5226,
    "eal": 2287,
    "Round": 22685,
    "297": 26561,
    "Un": 3118,
    "ritz": 29574,
    "\u0120Granger": 46236,
    "\u0120minister": 5342,
    "\u0120Wellington": 30597,
    "\u0120Zhang": 19439,
    "\u0120Twain": 49824,
    "Great": 13681,
    "\u0120hadn": 8020,
    "reath": 19367,
    "With": 3152,
    "Advertisement": 4723,
    "\u0120releasing": 13011,
    "\u0120Jamal": 46520,
    "\u0120uncontroll": 39483,
    "\u0120Lund": 33609,
    "\u0120bots": 29641,
    "\u0120Globe": 18260,
    "\u0120Erica": 45187,
    "\u0120suspend": 22004,
    "\u0120Flying": 19903,
    "\u0120Sweeney": 47005,
    "agically": 39066,
    "\u0120LIFE": 36821,
    "\u0120asphalt": 48292,
    "opathic": 44650,
    "vet": 16809,
    "\u0120Give": 13786,
    "\u0120effic": 4396,
    "\u0120scorer": 30664,
    "70710": 42877,
    "olescent": 23406,
    "\u0120Hits": 28626,
    "environment": 38986,
    "):": 2599,
    "\u0120linear": 14174,
    "phant": 33959,
    "East": 25234,
    "inis": 16661,
    "flex": 32880,
    "\u0120Penguins": 29755,
    "\u0120LOG": 41605,
    "\u0120Mining": 29269,
    "\u0120purpose": 4007,
    "\u0120animated": 15108,
    "\u0120taken": 2077,
    "ndra": 24631,
    "genic": 38516,
    "\u0120tweaking": 39272,
    "\u0120YouTube": 7444,
    "\u0120noticeable": 19787,
    "\u0120motorcycle": 18757,
    "reader": 46862,
    "410": 33289,
    "UID": 27586,
    "\u0120nutritious": 48102,
    "\u0120casting": 13092,
    "rawn": 5791,
    "\u0120rave": 46242,
    "\u0120rune": 35930,
    "\u0120scattering": 45765,
    "Ess": 29508,
    "\u0120Various": 26386,
    "\u00b8": 116,
    "stre": 22853,
    "\u0120Catholic": 7835,
    "\u0120cyan": 36818,
    "\u0120Tears": 40328,
    "specific": 11423,
    "\u0120Amend": 32218,
    "\u0120whom": 4150,
    "\u0120secretive": 32654,
    "\u0120appreci": 5763,
    "\u0120dick": 19317,
    "uers": 42178,
    "\u0120incub": 25543,
    "\u0120mobility": 15873,
    "rew": 1809,
    "\u0120Smile": 48248,
    "ulsive": 22220,
    "\u0120model": 2746,
    "\u0120metadata": 20150,
    "\u0120CARD": 48731,
    "\u0120taxed": 31075,
    "\u0120letters": 7475,
    "\u0120lacking": 14394,
    "Stud": 13007,
    "\u0120shave": 34494,
    "Ma": 21467,
    "wave": 19204,
    "\u0120Trends": 34308,
    "\u0120Project": 4935,
    "Tap": 45081,
    "\u0120darkest": 35995,
    "approved": 29137,
    "\u0120Collect": 9745,
    "\u0120Bree": 40110,
    "\u0120references": 10288,
    "\u0120seeds": 11904,
    "\u01205000": 23336,
    "\u0120stalled": 29759,
    "\u0120entr": 24481,
    "\u0120Powers": 20668,
    "\u0120alt": 5988,
    "\u0120Skydragon": 38250,
    "\u0120NES": 31925,
    "\u0120withholding": 34180,
    "\u0120puberty": 35149,
    "taboola": 10658,
    "\u0120convictions": 19131,
    "aut": 2306,
    "fal": 42932,
    "circ": 21170,
    "Disclaimer": 19618,
    "opsis": 24608,
    "NG": 10503,
    "IONS": 11053,
    "\u0120Doll": 22209,
    "lines": 6615,
    "\u0120helicop": 11727,
    "\u0120centrif": 41563,
    "\u0120OP": 13349,
    "\u0120ousted": 37822,
    "\u0120overcome": 10980,
    "tin": 43701,
    "\u0120dies": 10564,
    "\u0120schema": 32815,
    "\u0120tint": 34791,
    "\u0120incorporate": 19330,
    "\u0120149": 24041,
    "\u010e": 202,
    "reatment": 21731,
    "\u0120Monster": 12635,
    "Vice": 47910,
    "\u0120texts": 13399,
    "\u0120testified": 15463,
    "\u0120conversions": 32626,
    "\u0120informal": 22176,
    "\u0120anime": 11984,
    "\u0120warp": 25825,
    "xit": 10198,
    "exempt": 42679,
    "ADD": 29266,
    "umsy": 37133,
    "ierce": 9798,
    "\u0120animate": 43828,
    "lif": 36195,
    "Elect": 19453,
    "\u0120desserts": 47950,
    "\u0120underestimated": 36190,
    "\u0120scarcely": 32335,
    "\u0120Coy": 26887,
    "istine": 32248,
    "\u0120nic": 9200,
    "\u0120researched": 30066,
    "\u0120caut": 17258,
    "Continue": 29453,
    "\u0120bacteria": 11492,
    "\u00e5\u0143\u0132": 36310,
    "gary": 14849,
    "\u0120Municip": 27338,
    "chin": 24658,
    "\u0120white": 2330,
    "\u0120Combo": 34257,
    "\u0120277": 38703,
    "Reddit": 22367,
    "Happy": 25082,
    "\u0120Nag": 15196,
    "\u0120hugely": 22641,
    "\u0120deserves": 14071,
    "\u0120he": 339,
    "\u0120Sunset": 28218,
    "armed": 12026,
    "\u0120Started": 31026,
    "\u0120Atl": 5234,
    "\u0120Yourself": 42132,
    "\u0120intimidating": 29301,
    "oust": 23968,
    "builders": 50034,
    "\u0120curve": 12133,
    "\u0120inco": 44237,
    "\u0120Nicol": 40513,
    "\u0120VI": 13889,
    "atis": 37749,
    "Loc": 33711,
    "\u0120Quan": 42312,
    "sponsored": 25427,
    "utsu": 36567,
    "\u01201300": 36058,
    "prov": 15234,
    "\u00e3\u0124\u012c": 28255,
    "adj": 41255,
    "\u0120haste": 36797,
    "\u0120Sw": 2451,
    "\u0120LOC": 37347,
    "Poor": 43920,
    "\u0120Vander": 26669,
    "055": 47838,
    "rand": 25192,
    "urers": 17496,
    "\u0120WORLD": 29564,
    "reth": 40978,
    "acing": 4092,
    "\u0120list": 1351,
    "events": 31534,
    "\u0120Volunteers": 45646,
    "\u0120Arcade": 23190,
    "\u0120Barker": 36933,
    "\u0120MAY": 26720,
    "earing": 6648,
    "\u0120Lawson": 35892,
    "\u0120Petraeus": 46364,
    "horse": 30527,
    "visors": 27681,
    "\u0120dysph": 50111,
    "Leod": 44559,
    "\u0120Neutral": 25627,
    "\u0120socket": 17802,
    "\u0120Ill": 5821,
    "\u0120striker": 19099,
    "ii": 4178,
    "133": 16945,
    "\u0120Insp": 25300,
    "air": 958,
    "\u0120Bec": 15780,
    "esan": 42890,
    "\u0120stockp": 29534,
    "\u0120horrible": 12361,
    "\u0120SO": 12809,
    "\u0120amazed": 24562,
    "utm": 26841,
    "\u0120Dino": 39430,
    "ailed": 6255,
    "\u0120subscribe": 12383,
    "\u0120Finished": 42931,
    "lio": 48590,
    "\u0120sprite": 33810,
    "435": 40064,
    "\u0120Lead": 20116,
    "\u0120poorly": 13455,
    "Murray": 49998,
    "Charles": 28711,
    "\u0120JFK": 35216,
    ");": 1776,
    "\u0120Dalai": 41180,
    "cluded": 10341,
    "\u0120Britann": 46693,
    "Produ": 11547,
    "\u0120Loading": 12320,
    "igation": 7065,
    "\u0120MV": 32947,
    "\u0120trust": 3774,
    "bourne": 12544,
    "\u0120removes": 20694,
    "\u0120Agency": 7732,
    "\u0120GREAT": 37853,
    "\u0120Appearance": 43436,
    "\u0120skirm": 37238,
    "\u0120Technician": 46986,
    "\u0120Part": 2142,
    "\u0120change": 1487,
    "icester": 26382,
    "\u0120Wil": 5187,
    "\u0120Emily": 17608,
    "ve": 303,
    "ily": 813,
    "\u0120compatible": 11670,
    "\u0120Kov": 43326,
    "oline": 14453,
    "ISION": 42446,
    "rolley": 42639,
    "Leg": 11484,
    "\u0120mission": 4365,
    "\u0120Cance": 43780,
    "\u0120folk": 15504,
    "\u0120patrons": 25720,
    "\u0120More": 3125,
    "gian": 18299,
    "\u0120Happy": 14628,
    "\u0120throats": 49012,
    "\u0120Democratic": 4390,
    "\u0120Gael": 39652,
    "\u0120junction": 35037,
    "\u0120Prometheus": 42696,
    "\u0120birthplace": 48145,
    "\u0120reveals": 10069,
    "aganda": 43589,
    "\u0120dex": 36017,
    "\u0120Mult": 7854,
    "Whoever": 47896,
    "\u0120Turtles": 44356,
    "lated": 17249,
    "izon": 8637,
    "\u0120nursing": 19167,
    "\u0120interchange": 26478,
    "Civil": 32610,
    "\u0120Cat": 5181,
    "\u0120Justin": 10799,
    "chain": 7983,
    "\u0120sight": 6504,
    "\u0120Dana": 22937,
    "Ind": 5497,
    "\u0120mac": 8352,
    "zhou": 38536,
    "undred": 3229,
    "\u01201974": 16489,
    "ART": 7227,
    "\u0120Residents": 29602,
    "\u0120streetcar": 49552,
    "choice": 25541,
    "\u0120elimination": 21472,
    "apor": 12687,
    "Did": 11633,
    "\u0120unknown": 6439,
    "\u0120savings": 10653,
    "\u0120moves": 6100,
    "\u0120neighbor": 4780,
    "\u0120FP": 31459,
    "\u0120hostage": 23229,
    "\u0120Mulcair": 47402,
    "\u0120equal": 4961,
    "\u0120promotions": 20699,
    "\u0120traverse": 38138,
    "\u0120eminent": 37820,
    "\u0120repe": 3172,
    "().": 22446,
    "ourced": 30555,
    "ymes": 22009,
    "\u00e3\u0124\u0124": 43266,
    "\u0120beliefs": 9056,
    "\u0120introducing": 16118,
    "UME": 38340,
    "Iran": 23798,
    "\u0120paws": 49193,
    "\u0120Brazil": 7595,
    "\u0120abl": 46624,
    "\u0120firm": 4081,
    "\u0120Sutherland": 47793,
    "\u0120Ples": 48468,
    "\u0120kne": 24813,
    "\u0120allowable": 49299,
    "sports": 32945,
    "\u0120reducing": 8868,
    "\u0120vegetables": 13701,
    "---": 6329,
    "\u0120feature": 3895,
    "////////": 16150,
    "aniel": 6321,
    "Things": 22248,
    "\u0120handheld": 33811,
    "\u0120overturned": 27153,
    "733": 49995,
    "\u0120officers": 3790,
    "\u00c2\u00ae": 7461,
    "\u0120Polic": 37147,
    "\u0120inning": 21648,
    "\u0120Times": 3782,
    "\u0120Ready": 23432,
    "\u0120guiding": 26727,
    "\u0120Pharm": 19234,
    "\u0120Walt": 18935,
    "\u01201965": 17672,
    "\u0120Desktop": 27850,
    "Roman": 32454,
    "\u0120Axel": 42575,
    "\u0120persever": 45712,
    "\u0120embryos": 39966,
    "column": 28665,
    "packs": 32377,
    "OUS": 20958,
    "Row": 25166,
    "\u0120bestowed": 40293,
    "\u00d8\u00a8": 39848,
    "\u0120Emil": 44272,
    "\u0120Sil": 4243,
    "\u0120think": 892,
    "\u0135\u013a": 23596,
    "\u0120overwhelm": 43334,
    "\u0120Excellent": 30932,
    "\u0120idea": 2126,
    "\u0120bellig": 45957,
    "\u0120Contest": 27297,
    "ohyd": 15782,
    "de": 2934,
    "\u0120juice": 13135,
    "\u00c2\u00af\u00c2\u00af\u00c2\u00af\u00c2\u00af\u00c2\u00af\u00c2\u00af\u00c2\u00af\u00c2\u00af\u00c2\u00af\u00c2\u00af\u00c2\u00af\u00c2\u00af\u00c2\u00af\u00c2\u00af\u00c2\u00af\u00c2\u00af": 27006,
    "NO": 15285,
    "Matt": 13448,
    "\u0120Shang": 45797,
    "\u0120Cross": 6372,
    "Terror": 40194,
    "\u0120Hood": 17233,
    "\u0120spicy": 26880,
    "\u0120regress": 50252,
    "\u0120neighbouring": 29272,
    "\u0120griev": 21634,
    "\u0120unsur": 31035,
    "\u00e3\u0125\u00bc\u00e3\u0125": 12045,
    "rowd": 3986,
    "\u0120Maced": 25942,
    "\u0120Blake": 13307,
    "\u0120lousy": 46356,
    "conn": 37043,
    "A": 32,
    "\u0120entit": 26189,
    "ibaba": 37541,
    "\u0120biodiversity": 37589,
    "\u0120mandates": 33568,
    "\u0120Participant": 29880,
    "\u0120technical": 6276,
    "\u0120incurred": 23436,
    "asketball": 14575,
    "\u0120attribut": 24548,
    "ounding": 9969,
    "\u0120proposing": 24634,
    "\u0120physician": 14325,
    "\u0120secretaries": 49431,
    "ise": 786,
    "\u0120Evangel": 27834,
    "Understanding": 43467,
    "\u0120Pot": 6902,
    "tex": 16886,
    "\u0120": 220,
    "\u0120religion": 5737,
    "TYPE": 25216,
    "::::::::": 43661,
    "\u0120Tyr": 14319,
    "\u0120Politics": 17554,
    "\u0120Gamb": 33330,
    "\u0120242": 34353,
    "COR": 44879,
    "\u0120Powell": 19675,
    "Pic": 39507,
    "itt": 715,
    "\u0120purity": 25590,
    "\u0120Photographer": 43809,
    "\u0120conveyed": 33348,
    "\u0120Uses": 36965,
    "\u0120flu": 6562,
    "prototype": 38124,
    "\u0120Alps": 46312,
    "\u01208000": 38055,
    "\u0120Vacc": 31749,
    "\u0120belt": 10999,
    "alis": 27315,
    "\u0120analog": 15075,
    "tsy": 34293,
    "699": 47325,
    "ans": 504,
    "\u0120Barb": 10593,
    "\u0120Slowly": 46484,
    "\u0120unequal": 37334,
    "\u0120statement": 2643,
    "angering": 49470,
    "\u0120periodically": 26034,
    "\u0120enhanced": 13105,
    "\u0120unpublished": 42686,
    "socket": 44971,
    "\u0120semif": 32948,
    "\u00d0": 140,
    "\u0120exagger": 15912,
    "\u0120pseudonym": 48129,
    "\u0120Study": 12481,
    "</": 3556,
    "\u0120banana": 25996,
    "\u0120Seller": 46555,
    "ql": 13976,
    "\u0120Spec": 18291,
    "Il": 33666,
    "\u0120Earn": 22535,
    "\u0120owners": 4393,
    "__": 834,
    "\u0120terminate": 23654,
    "\u0120Ross": 9847,
    "\u0120feats": 35664,
    "coins": 14624,
    "\u0120examined": 11068,
    "\u0120Goddard": 47386,
    "\u0120Abyss": 16681,
    "\u0120priorit": 19086,
    "engers": 9302,
    "1991": 24529,
    "\u0120essential": 6393,
    "\u0120Programs": 26179,
    "OTUS": 39205,
    "\u0120oy": 35104,
    "Callback": 47258,
    "Und": 31319,
    "landish": 45626,
    "\u0120gain": 4461,
    "antis": 20836,
    "youtube": 11604,
    "\u0120\u00c3\u00a9": 38251,
    "\u0120258": 37528,
    "\u0120Cousins": 32644,
    "\u0120manipulate": 18510,
    "\u0120oversees": 31806,
    "\u0120Timbers": 40200,
    "urgy": 38140,
    "\u0120Maharashtra": 41624,
    "\u0120demolition": 30164,
    "\u0120analyses": 13523,
    "---------": 45537,
    "\u0120headsets": 44257,
    "\u0120feasibility": 40460,
    "dump": 39455,
    "\u0120hatched": 49353,
    "\u0120detriment": 42959,
    "\u0120Su": 1778,
    "Hidden": 41691,
    "\u0120decentral": 20649,
    "\u0120expression": 5408,
    "\u012086": 9849,
    "\u0120NXT": 43308,
    "\u0120Fraud": 39826,
    "\u0120recycle": 48914,
    "\u0120Jewel": 29151,
    "enson": 19069,
    "\u01201910": 31953,
    "\u0120organis": 13867,
    "\u0120Um": 21039,
    "itism": 18937,
    "\u0120economists": 16816,
    "\u0120intake": 10337,
    "\u0120Sant": 10844,
    "umar": 44844,
    "\u0120sibling": 33423,
    "uru": 14717,
    "Website": 33420,
    "\u00e6\u012a": 22755,
    "\u0120bl": 698,
    "ksh": 50133,
    "\u0120Design": 8495,
    "\u0120Lotus": 27578,
    "\u0120heavenly": 32271,
    "Human": 20490,
    "over": 2502,
    "\u0120forecasts": 26119,
    "weights": 43775,
    "\u0120Abraham": 16660,
    "bda": 43444,
    "\u0120rivalry": 26390,
    "\u0120bearings": 39872,
    "\u0120Benedict": 28697,
    "\u0120Zer": 37028,
    "ographics": 24188,
    "\u0120UL": 44475,
    "\u0120Taking": 20879,
    "clair": 27659,
    "\u0120aluminum": 15955,
    "mental": 37098,
    "\u0120govern": 1089,
    "\u0120escal": 12221,
    "\u0120Hands": 22237,
    "Distance": 45767,
    "\u0120wretched": 41857,
    "\u0120Mast": 30868,
    "sel": 741,
    "\u0120convert": 10385,
    "\u0120UFO": 19728,
    "\u0120aw": 3253,
    "ovich": 18198,
    "561": 47915,
    "\u0120obstruction": 28118,
    "\u0120rom": 9267,
    "\u0120chaos": 11918,
    "\u0120\u00e3\u0125": 14524,
    "\u0120Sak": 13231,
    "\u0120Options": 18634,
    "\u0120Instant": 24470,
    "Portland": 45330,
    "Message": 12837,
    "96": 4846,
    "\u0120consulted": 26889,
    "ifax": 26590,
    "ormon": 10615,
    "eree": 45316,
    "Alternative": 49788,
    "\u0120additionally": 36527,
    "\u0120differently": 10338,
    "\u0120later": 1568,
    "\u0120empowering": 35917,
    "\u00d8\u00b9": 44690,
    "IES": 11015,
    "\u0120Cous": 27456,
    "\u0120cosmetic": 27284,
    "\u0120Singer": 28755,
    "\u0120(_": 44104,
    "\u0120malnutrition": 49290,
    "aro": 12022,
    "\u0120Ips": 47177,
    "model": 19849,
    "\u0120ridiculous": 11441,
    "atical": 39056,
    "Psy": 25918,
    "encers": 42288,
    "\u0120arguably": 15242,
    "\u0120propagate": 47933,
    "fman": 35826,
    "\u0120Liberal": 12266,
    "\u0120Reserved": 33876,
    "\u0120Mig": 24488,
    "\u0120VIS": 50035,
    "\u0120flourished": 45671,
    "\u00df": 155,
    "\u0120disse": 22806,
    "\u0120dietary": 15429,
    "Torrent": 39286,
    "\u0120constituency": 28280,
    "\u0120Petition": 43723,
    "\u0120vinyl": 23275,
    "\u0120supplements": 20864,
    "\u0120Santorum": 34008,
    "\u0120Pyth": 48657,
    "\u0120architect": 7068,
    "ernaut": 37879,
    "\u0120negativity": 45074,
    "\u0120fraction": 13390,
    "\u0120Peninsula": 24078,
    "\u0120psycho": 30731,
    "frequency": 35324,
    "\u0120city": 1748,
    "\u0120creating": 4441,
    "\u0120benefic": 25021,
    "\u0120Venezuelan": 34497,
    "\u0120Eagles": 13785,
    "\u0120embarrassing": 18997,
    "\u0120CIS": 36159,
    "Scan": 33351,
    ")?": 19427,
    "obos": 49878,
    "\u0120problems": 2761,
    "\u0120modification": 17613,
    "\u0120moisture": 20160,
    "\u0120gard": 16985,
    "ums": 5700,
    "\u0120demographic": 16728,
    "\u0120refrigerator": 30500,
    "77": 3324,
    "\u0120bother": 11393,
    "\u00d7\u0137": 27072,
    "\u0120Library": 10074,
    "\u01201000": 8576,
    "\u0120stopping": 12225,
    "Roger": 43719,
    "\u0120Machine": 10850,
    "\u0120scripted": 37341,
    "\u0120Melbourne": 14819,
    "nih": 37373,
    "\u0120autopsy": 30241,
    "\u0120GPUs": 32516,
    "\u0120unbelievable": 24479,
    "\u0120RGB": 25228,
    "\u0120Sweden": 10710,
    "Quest": 12166,
    "\u0120Slot": 32026,
    "stantial": 41321,
    "\u0120Oklahoma": 10433,
    "\u0120Tup": 49595,
    "\u00e3\u0124\u00a4\u00e3\u0125\u012a": 42396,
    "\u0120homers": 38818,
    "\u0120Yaz": 35856,
    "\u0120sum": 2160,
    "\u0120Exclusive": 35651,
    "\u0120denote": 42685,
    "Front": 25886,
    "\u0120credit": 3884,
    "\u0120Recipe": 26694,
    "glas": 14391,
    "\u0120Xiao": 28249,
    "\u0120Kol": 25910,
    "\u0120businesses": 5692,
    "\u0120indoor": 22639,
    "\u0120rigging": 48784,
    "\u0120equip": 25725,
    "\u0120Tennis": 37213,
    "\u0120parting": 44823,
    "\u0120Aboriginal": 26432,
    "\u0120receptive": 41062,
    "\u0120exclus": 10293,
    "eth": 2788,
    "\u0120Supply": 22663,
    "\u0120Melissa": 24164,
    "ius": 3754,
    "job": 21858,
    "\u0120backer": 37617,
    "\u0120eng": 1786,
    "Background": 21756,
    "\u0120idiosyncr": 49875,
    "\u0120tail": 7894,
    "\u0120pledges": 31241,
    "bor": 2865,
    "\u0120functional": 10345,
    "tel": 37524,
    "EStream": 39906,
    "ifying": 4035,
    "POR": 44680,
    "\u0120station": 4429,
    "\u0120AM": 3001,
    "\u0120Roll": 8299,
    "\u0120Housing": 16797,
    "\u0120scathing": 44523,
    "\u0120Dunham": 44588,
    "\u00e2\u0122\u0136": 960,
    "\u0120ply": 35960,
    "\u0120sup": 7418,
    "\u0120HBO": 18804,
    "\u0120general": 2276,
    "\u0120employers": 11390,
    "Days": 38770,
    "\u0120Belle": 31974,
    "mos": 16785,
    "\u0120flag": 6056,
    "Part": 7841,
    "\u0120Sur": 4198,
    "\u0120Node": 19081,
    "\u0120Derby": 22962,
    "ayer": 2794,
    "py": 9078,
    "\u0120weekends": 21511,
    "\u0120follower": 33040,
    "\u0120championships": 27459,
    "\u0120sentimental": 46908,
    "\u0120Caesar": 24088,
    "\u0120defund": 47613,
    "Error": 12331,
    "\u0120520": 36141,
    "\u0120dermat": 40363,
    "\u0120Logged": 50098,
    "missive": 33532,
    "igraph": 45920,
    "\u0120south": 5366,
    "Cache": 30562,
    "\u0120wat": 4383,
    "\u0120Melania": 34338,
    "Desc": 24564,
    "\u0120rollout": 38180,
    "FILE": 25664,
    "\u0120Amb": 12457,
    "\u0120clipboard": 47999,
    "\u0120allegedly": 7910,
    "tered": 4400,
    "\u0120sharks": 27476,
    "izations": 4582,
    "gling": 40799,
    "mot": 27926,
    "\u0120assemble": 25432,
    "\u0120commun": 1316,
    "\u0120privilege": 11941,
    "iologist": 31599,
    "\u0120markets": 5939,
    "urd": 2799,
    "argon": 37920,
    "\u0120alloc": 36836,
    "\u0120cheating": 21608,
    "\u0120arresting": 33936,
    "TON": 11357,
    "\u0120neat": 15049,
    "\u0120399": 43927,
    "\u0120sorrow": 24140,
    "\u0120animals": 4695,
    "\u0120Choose": 17489,
    "leground": 28272,
    "\u0120franchises": 28088,
    "\u0120verbal": 17755,
    "\u0120dissect": 38319,
    "X": 55,
    "\u0120consolidate": 38562,
    "\u0120Sorcerer": 30467,
    "\u0120Xi": 21313,
    "aders": 9972,
    "san": 12807,
    "\u0120advise": 18595,
    "\u0120caus": 26846,
    "090": 42534,
    "\u0120voltage": 15004,
    "\u0120250": 8646,
    "\u0120lengthy": 16452,
    "\u0120incredibly": 8131,
    "smart": 27004,
    "\u0120conj": 11644,
    "\u0120marriage": 4845,
    "\u0120chin": 22531,
    "\u0120velocity": 15432,
    "bitcoin": 35395,
    "\u0120Livingston": 47717,
    "\u0120LX": 44988,
    "\u0120Carson": 16787,
    "\u0120rebuild": 17884,
    "\u0120peoples": 14366,
    "func": 20786,
    "\u0120resembles": 22960,
    "\u0120redistribution": 41425,
    "umerable": 30831,
    "\u0120451": 49356,
    "{{": 27007,
    "orter": 4337,
    "\u0120SOU": 30065,
    "\u0120Rub": 6256,
    "Fast": 22968,
    "forces": 27087,
    "\u0120detention": 13280,
    "\u0120Watching": 36110,
    "\u0120part": 636,
    "\u0120prec": 3718,
    "\u0120incent": 9454,
    "\u0120standings": 33864,
    "\u0120SOS": 42707,
    "NUM": 41359,
    "\u0120commercial": 5068,
    "adena": 38047,
    "\u0120hunting": 10988,
    "\u0120Spending": 43902,
    "abyte": 37828,
    "istrates": 37909,
    "\u01201909": 41507,
    "\u0120Dev": 6245,
    "\u0120if": 611,
    "\u0120congreg": 30663,
    "\u0120debunked": 46682,
    "unte": 6311,
    "\u0120Garner": 37383,
    "\u0120these": 777,
    "\u0120crossings": 41930,
    "\u0120season": 1622,
    "\u0120embassy": 18613,
    "\u0120Monitoring": 37484,
    "\u0120Orient": 35275,
    "\u0120$_": 40111,
    "ished": 1348,
    "etter": 40088,
    "\u0120bast": 19918,
    "\u0120Cunning": 30249,
    "\u0120airliner": 45110,
    "wx": 49345,
    "\u0120nonetheless": 19018,
    "\u0120Mesh": 47529,
    "\u0120aiming": 17272,
    "develop": 16244,
    "\u00e4\u00bc": 27670,
    "****************": 8412,
    "\u0120cramped": 43295,
    "B": 33,
    "\u0120\u00e3\u0124\u00b5\u00e3\u0125\u00bc\u00e3\u0125\u0128\u00e3\u0124\u00a3": 45544,
    "\u0120breakout": 31661,
    "\u0120identification": 11795,
    "asu": 27345,
    "\u0120Puerto": 15295,
    "Kh": 33155,
    "Context": 21947,
    "\u0120translates": 23677,
    "\u0120~/.": 39763,
    "\u0120grant": 7264,
    "lead": 28230,
    "Bah": 47514,
    "ui": 9019,
    "\u0120kick": 4829,
    "\u0120Pew": 21805,
    "\u00c3\u00a1": 6557,
    "IFA": 19071,
    "\u0120livestock": 24424,
    "\u0120Ly": 9334,
    "\u0120Based": 13403,
    "rupal": 34585,
    "\u0120seas": 21547,
    "\u0120spike": 20240,
    "\u0120mills": 41999,
    "\u0120Richmond": 16940,
    "\u00f9": 181,
    "\u0120protecting": 10192,
    "\u0120toile": 13392,
    "Col": 5216,
    "\u0120rendered": 15111,
    "\u0120Robert": 5199,
    "GY": 31212,
    "bourg": 24256,
    "\u0120HT": 7154,
    "arin": 17714,
    "Aaron": 34451,
    "\u0120disdain": 31564,
    "\u0120platoon": 39368,
    "\u0120carefully": 7773,
    "\u0120Banana": 40058,
    "OVA": 41576,
    "\u0120reusable": 42339,
    "that": 5562,
    "\u00ce\u00bb": 39377,
    "oggle": 20258,
    "\u0120seen": 1775,
    "\u0120mart": 11277,
    "\u0120sol": 1540,
    "\u0120magically": 34850,
    "\u0120Equip": 47636,
    "\u0120Amid": 41816,
    "\u0120Nathaniel": 49536,
    "\u0120Falls": 17930,
    "\u0120gruesome": 34557,
    "\u0120smarter": 23714,
    "vy": 7670,
    "Dis": 7279,
    "\u0120Rothschild": 38198,
    "\u0120balk": 48776,
    "\u0120contains": 4909,
    "\u0120forget": 6044,
    "\u0120Expedition": 38076,
    "\u0120land": 1956,
    "\u0120conformity": 39974,
    "\u0120prosperity": 19519,
    "Child": 16424,
    "\u0120Kev": 46105,
    "\u0120Tarant": 43693,
    "euro": 44252,
    "hal": 14201,
    "\u0120Matters": 30587,
    "Ken": 27827,
    "\u0120see": 766,
    "can": 5171,
    "iana": 7484,
    "racist": 41131,
    "oidal": 47502,
    "\u0120BC": 11843,
    "\u00e2\u0138\u012a\u00e2\u0138\u012a\u00e2\u0138\u012a\u00e2\u0138\u012a\u00e2\u0138\u012a\u00e2\u0138\u012a\u00e2\u0138\u012a\u00e2\u0138\u012a": 49527,
    "\u0120Azerbaijan": 33605,
    "\u0120weight": 3463,
    "\u0120hanging": 10938,
    "\u0120IMAGES": 45325,
    "Sort": 42758,
    "\u0120dominance": 18648,
    "\u0120controlled": 6856,
    "DCS": 49513,
    "\u0120eighteenth": 45592,
    "\u0120homework": 26131,
    "\u0120actresses": 49798,
    "\u0120coll": 2927,
    "JOHN": 47118,
    "\u0120industries": 11798,
    "\u0120Interview": 19371,
    "625": 26704,
    "\u0120luckily": 45120,
    "\u0120Resp": 10328,
    "\u0120REST": 30617,
    "\u00c2\u00a3": 14988,
    "\u0120Tactical": 26984,
    "\u0120handwritten": 45916,
    "\u0120liberalism": 33108,
    "\u0120Marathon": 24828,
    "\u0120powdered": 41642,
    "\u0120covers": 8698,
    "aughty": 28496,
    "\u0120Larry": 13633,
    "\u0120subject": 2426,
    "\u0120anus": 47285,
    "\u0120Vessel": 44734,
    "\u0120Compos": 29936,
    "\u0120Je": 3852,
    "clad": 29853,
    "\u0120zo": 40565,
    "\u0120Element": 11703,
    "docs": 31628,
    "\u0120difficult": 2408,
    "tan": 38006,
    "\u0120window": 4324,
    "========": 2559,
    "Left": 18819,
    "\u0120Ki": 21927,
    "\u0120kids": 3988,
    "\u0120eager": 11069,
    "\u0120FIRE": 39110,
    "58": 3365,
    "\u0120Links": 21691,
    "\u0120Places": 37291,
    "\u0120au": 35851,
    "aded": 5286,
    "\u0120spokesman": 6523,
    "\u0120bred": 33592,
    "\u0120Pirate": 17418,
    "\u0120appease": 47316,
    "\u0120101": 8949,
    "\u0120Property": 14161,
    "porary": 5551,
    "ame": 480,
    "Camera": 35632,
    "\u0120presupp": 45077,
    "okemon": 12717,
    "tub": 37995,
    "\u0120Congressman": 30700,
    "\u0120cycles": 16006,
    "clude": 9152,
    "ucci": 27501,
    "\u0120soaked": 33657,
    "agascar": 44309,
    "specified": 23599,
    "\u0120Nurse": 42724,
    "\u0120shredded": 37624,
    "\u0120membranes": 43447,
    "\u0120Eternity": 33410,
    "\u0120exerc": 4208,
    "\u0120VPN": 21669,
    "NR": 24723,
    "\u0120disclosure": 13019,
    "\u0120Enlightenment": 39057,
    "\u0120Abdul": 23547,
    "retch": 22592,
    "\u0120Tul": 30941,
    "\u0120Tracking": 37169,
    "\u0120scandals": 28449,
    "alpha": 26591,
    "\u0120RAM": 13931,
    "\u0120stro": 9660,
    "\u0120escaped": 13537,
    "\u0120Names": 28531,
    "\u0120unavailable": 23485,
    "\u0120DON": 23917,
    "\u0120hull": 23644,
    "\u0120owes": 29264,
    "\u0120extended": 7083,
    "Pixel": 40809,
    "pload": 7304,
    "occupied": 28756,
    "\u0120NATO": 11332,
    "\u0120confirmation": 12641,
    "industrial": 31130,
    "\u0120Ratio": 33956,
    "\u0120eternal": 15851,
    "\u0120pitched": 21730,
    "orsche": 26164,
    "\u0120forever": 8097,
    "\u01201940": 16236,
    "\u0120Enter": 6062,
    "pal": 18596,
    "\u0120gimm": 33135,
    "unci": 49652,
    "\u0120K": 509,
    "\u0120lease": 15278,
    "\u00cc": 136,
    "\u0120containers": 16472,
    "889": 39121,
    "\u0120buffalo": 45019,
    "\u0120Faces": 48463,
    "AG": 4760,
    "ocard": 44412,
    "DEN": 41819,
    "\u0120Porsche": 28367,
    "\u0120firing": 9645,
    "Fle": 47669,
    "\u0120transsexual": 41482,
    "\u0120conceptual": 23355,
    "omy": 9145,
    "\u0120PROG": 38688,
    "orah": 40844,
    "\u0120harm": 4419,
    "\u0120Lady": 11182,
    "\u0120narrowed": 33214,
    "chat": 17006,
    "\u0120recomb": 44759,
    "\u0120dying": 9950,
    "\u0120Annotations": 47939,
    "\u0120fined": 22643,
    "\u0120Kor": 14769,
    "abbit": 14229,
    "\u0120Soldier": 20104,
    "\u0120Resistance": 17363,
    "\u013c\u00e9": 21253,
    "abella": 43653,
    "dir": 15908,
    "multipl": 47945,
    "\u0120Bennett": 17468,
    "\u0120whe": 483,
    "\u0120poorer": 26647,
    "\u0120Graphic": 43029,
    "\u0120bravery": 37808,
    "\u0120faire": 37063,
    "\u0120Planned": 18451,
    "usercontent": 43667,
    "erb": 23552,
    "\u00f0\u013f": 47728,
    "\u0120volcano": 32410,
    "ruciating": 48404,
    "\u0120181": 30110,
    "\u00fc": 184,
    "\u0120incons": 12764,
    "449": 31911,
    "\u0120Davidson": 27905,
    "\u0120clich\u00c3\u00a9": 43973,
    "cpp": 20322,
    "\u0120butt": 8530,
    "\u0120mix": 5022,
    "\u0120contr": 3445,
    "ItemImage": 25502,
    "\u0120ascending": 41988,
    "\u0120ultra": 14764,
    "\u0120UX": 38179,
    "aunts": 43981,
    "\u0120Dmitry": 45181,
    "Mouse": 39643,
    "\u0120complied": 35413,
    "ges": 3212,
    "\u0120awe": 25030,
    "ties": 4278,
    "\u0120flowering": 48573,
    "\u0120apr": 46593,
    "March": 16192,
    "enabled": 25616,
    "\u0120sourced": 18229,
    "\u0120Portug": 12775,
    "Gary": 33820,
    "\u0120DEAD": 42533,
    "CTV": 30428,
    "\u0120###": 44386,
    "\u0120Appropri": 29857,
    "ackets": 25180,
    "\u0120jailed": 22159,
    "\u0120kitchen": 9592,
    "\u0120Rack": 37927,
    "\u0120inconsistency": 43831,
    "met": 4164,
    "\u0120diabetic": 44016,
    "ibly": 3193,
    "athing": 26927,
    "\u0120follows": 5679,
    "ilation": 10520,
    "zo": 10872,
    "\u0120Afghanistan": 8037,
    "ury": 1601,
    "Skin": 42455,
    "\u0120Typhoon": 38468,
    "295": 25710,
    "1999": 18946,
    "ahah": 36225,
    "\u0120assemb": 11156,
    "\u0120Scandinav": 29410,
    "ACE": 11598,
    "sticks": 34810,
    "\u0120Jacques": 35437,
    "Pok\u00c3\u00a9mon": 46602,
    "\u0120recommending": 34639,
    "?'": 8348,
    "Doctor": 37564,
    "ige": 10045,
    "\u0120vulnerable": 8826,
    "\u0120elapsed": 42118,
    "units": 41667,
    "\u0120community": 2055,
    "\u0120Kardashian": 48099,
    "\u0120Mines": 33466,
    "\u0120sides": 5389,
    "\u0120debates": 15389,
    "\u0120monster": 9234,
    "\u0120Unloaded": 25926,
    "043": 48768,
    "cessive": 45428,
    "uing": 4250,
    "ropolitan": 14823,
    "\u0120tended": 19960,
    "\u0120Distance": 34600,
    "\u0120Slide": 37651,
    "\u0120beneficiaries": 28237,
    "\u0120Sexy": 49131,
    "console": 41947,
    "iott": 20773,
    "ECTION": 24565,
    "Lic": 26656,
    "\u0120!": 5145,
    "\u0120Named": 34441,
    "\u0120FW": 48849,
    "\u0120irre": 11331,
    "\u0120wrestler": 34845,
    "\u0120ATI": 38344,
    "\u0120outings": 47280,
    "\u0120settling": 25446,
    "Pear": 46262,
    "bernatorial": 43660,
    "\u0120Teresa": 34405,
    "atches": 20981,
    "\u0120filings": 28058,
    "\u0120nor": 4249,
    "\u0120Diary": 35911,
    "\u0120medicinal": 30381,
    "Pass": 14478,
    "\u0120Port": 4347,
    "\u0120Raqqa": 30391,
    "\u0120adul": 19046,
    "\u0120discreet": 38724,
    "\u0120texted": 47358,
    "Settings": 26232,
    "illin": 32672,
    "\u0120gatherings": 37134,
    "\u0120predomin": 15960,
    "DN": 35504,
    "\u0120Killed": 13095,
    "witch": 42248,
    "\u0120Uttar": 44744,
    "\u0120conspiracy": 10086,
    "\u0120ISS": 33805,
    "\u0120parchment": 38414,
    "otechnology": 31201,
    "sample": 39873,
    "sum": 16345,
    "\u0120obsess": 24961,
    "\u0120Barbar": 45952,
    "\u0120transitions": 27188,
    "\u0120Gibraltar": 47403,
    "\u0120screenshot": 22032,
    "\u0120Party": 3615,
    "\u0120Numbers": 27797,
    "\u0120headers": 24697,
    ":'": 32105,
    "\u0120appraisal": 45436,
    "\u0120true": 2081,
    "attacks": 38458,
    "ospels": 41908,
    "Santa": 42694,
    "\u0120sh": 427,
    "\u0120PayPal": 22525,
    "\u0120Consequently": 24982,
    "\u0120deft": 46208,
    "\u0120displeasure": 47313,
    "654": 39111,
    "\u0120galaxy": 16161,
    "deals": 14302,
    "\u0120Fah": 27361,
    "\u0120Reload": 37653,
    "\u0120Sana": 44500,
    "abuse": 47158,
    "\u0120reminiscent": 24960,
    "\u0120came": 1625,
    "\u0120Analyst": 44600,
    "kish": 31501,
    "\u0120CNS": 48935,
    "\u0120Gors": 34926,
    "\u0120exceedingly": 32436,
    "\u0120Lime": 43503,
    "tank": 28451,
    "\u0120There": 1318,
    "\u0120Jean": 11320,
    "\u0120Wicked": 42956,
    "\u0120Anarchy": 38899,
    "\u0120GM": 6951,
    "\u0120perjury": 47816,
    "\u0120Ratings": 36826,
    "\u0120EVE": 32356,
    "ritis": 27398,
    "\u0120asleep": 16039,
    "\u00e9\u00a3": 45617,
    "\u0120reacted": 22798,
    "\u0120Eye": 14144,
    "book": 2070,
    "irth": 3333,
    "\u00e8\u0122": 32003,
    "\u0120deposited": 27163,
    "\u0120Hotel": 12696,
    "agles": 37803,
    "\u0120midst": 15925,
    "\u0120NGOs": 32507,
    "\u0120inexpl": 33199,
    "\u0120Important": 28511,
    "\u0120contacting": 27390,
    ")*": 27493,
    "\u0120polite": 23507,
    "alid": 10751,
    "Mesh": 37031,
    "\u00c3\u00a2": 22940,
    "\u0120recounted": 34187,
    "\u0120kin": 18967,
    "\u0120blister": 40770,
    "\u0120Cartoon": 46838,
    "uphem": 45640,
    "untled": 46343,
    "\u0120XL": 16276,
    "\u0120polio": 42664,
    "\u0120Wallet": 37249,
    "\u0120prohibited": 12244,
    "iren": 24080,
    "ordon": 9999,
    "\u0120extend": 9117,
    "\u0120Nigerian": 36430,
    "Section": 16375,
    "\u0120E": 412,
    "\u0120ventilation": 34834,
    "Shift": 33377,
    "\u0120620": 45469,
    "\u0120appre": 5208,
    "\u0120SUPPORT": 43333,
    "intent": 48536,
    "\u0120IL": 14639,
    "\u0120unn": 41231,
    "\u0120brink": 29585,
    "\u01201700": 35665,
    "Pre": 6719,
    "\u0120vibration": 30999,
    "\u0120enjoys": 20393,
    "\u0120advises": 34138,
    "\u0120rare": 4071,
    "\u0120Vanderbilt": 38684,
    "03": 3070,
    "\u0120sums": 21784,
    "essel": 7878,
    "indal": 44644,
    "\u0120Response": 18261,
    "\u0120certs": 27802,
    "notations": 30078,
    "\u0120chloride": 44921,
    "\u0120Photography": 32461,
    "\u0120injuries": 6821,
    "\u0120imag": 3590,
    "cloneembedreportprint": 30899,
    "\u0120Camb": 21456,
    "reports": 48922,
    "\u0120Wizard": 16884,
    "\u0120Bella": 39304,
    "aways": 23949,
    "urrencies": 28018,
    "\u0120lead": 1085,
    "Bob": 18861,
    "\u0120simplest": 24043,
    "\u0120Primordial": 44174,
    "\u0120strap": 23016,
    "\u0120Root": 20410,
    "582": 46044,
    "Broad": 30507,
    "circle": 45597,
    "\u0120capped": 28490,
    "\u0120flattering": 48259,
    "\u0120dialogue": 10721,
    "death": 22595,
    "\u0120Vent": 15716,
    "\u0120quer": 42517,
    "wiki": 15466,
    "o\u00c4\u0141": 45492,
    "Zero": 28667,
    "izo": 41282,
    "\u0120overall": 4045,
    "okingly": 48343,
    "camp": 16544,
    "\u0120Griffith": 30469,
    "\u0120Shay": 34760,
    "itations": 20597,
    "\u0120expectation": 17507,
    "onte": 38599,
    "htm": 19211,
    "north": 43588,
    "\u0120dram": 4850,
    "\u0120Siren": 43904,
    "\u0120grievances": 36121,
    "\u0120closing": 9605,
    "Provider": 29495,
    "\u01201050": 47235,
    "\u0120hospitals": 11301,
    "95": 3865,
    "\u0120knocks": 36539,
    "rored": 34640,
    "\u0120pronounced": 16293,
    "\u0120galleries": 38462,
    "\u0120while": 981,
    "\u0120Hess": 46305,
    "abel": 9608,
    "ARGET": 46095,
    "\u0120admits": 15534,
    "\u0120Tac": 26075,
    "\u0120outskirts": 30140,
    "brain": 27825,
    "\u0120\u00d9\u0127": 47048,
    "til": 47163,
    "\u0120Rugby": 26244,
    "\u0120Stim": 41669,
    "\u0120reboot": 20149,
    "\u0120handguns": 38060,
    "\u0120Court": 3078,
    "\u0120paints": 32281,
    "ony": 1647,
    "odic": 29512,
    "PD": 5760,
    "\u0120NULL": 15697,
    "Bridge": 37385,
    "\u0120fairy": 25607,
    "\u0120Lily": 20037,
    "\u0120metrics": 20731,
    "ishly": 29735,
    "tt": 926,
    "\u0120pulls": 16194,
    "\u0120tea": 8887,
    "\u0120resumes": 42626,
    "\u00e3\u0125\u00af\u00e3\u0125\u00b3": 42983,
    "ranged": 34457,
    "\u0120ANY": 15529,
    "\u0120cul": 10845,
    "\u0120arrests": 14794,
    "\u0120oppressed": 25765,
    "Helper": 47429,
    "\u0120\u00e2\u013e\u0135": 24762,
    "\u0120Veronica": 44498,
    "\u0120Indra": 49886,
    "\u0120landlords": 30658,
    "verse": 4399,
    "\u0120regularly": 7987,
    "\u0120nascent": 45419,
    "itored": 20026,
    "mology": 29126,
    "\u00e6\u00a9\u0141": 49960,
    "003": 11245,
    "\u0120Drawn": 50061,
    "\u0120practicing": 18207,
    "Weiss": 48760,
    "\u0120clarified": 28464,
    "NEWS": 49597,
    "ilings": 43271,
    "\u0120356": 44552,
    "\u0120exclude": 19607,
    "\u0120container": 9290,
    "\u0120ZIP": 42977,
    "\u0120neocons": 43530,
    "\u01201861": 45278,
    "unal": 18835,
    "\u0120THANK": 49360,
    "\u0120Rey": 24448,
    "\u0120Elijah": 38646,
    "\u0120weakest": 34968,
    "\u0120Goku": 27031,
    "Ub": 36609,
    "\u0120Croat": 22422,
    "ica": 3970,
    "rification": 38763,
    "Medium": 31205,
    "1960": 38503,
    "uity": 14834,
    "iberal": 16813,
    "\u0120haun": 17791,
    "\u0120Tent": 30765,
    "\u0120package": 5301,
    "\u0120backend": 30203,
    "207": 22745,
    "\u0120guide": 5698,
    "\u0120timeout": 26827,
    "80": 1795,
    "\u0120sunscreen": 44221,
    "\u0120nation": 3277,
    "\u0120sculpt": 14747,
    "\u0120donor": 17052,
    "\u0120Clash": 33117,
    "\u0120containment": 37149,
    "\u0120Werewolf": 40261,
    "\u0120Mis": 14136,
    "\u0120Akron": 45868,
    "earable": 40816,
    "\u0120Fantastic": 27948,
    "\u0120refunds": 36903,
    "\u0120GAM": 49965,
    "\u00d1\u0123": 21727,
    "\u0120earns": 29339,
    "normal": 11265,
    "\u0120normally": 7685,
    "\u0120Hearing": 34663,
    "ulators": 24325,
    "OSS": 18420,
    "\u0120Horde": 31838,
    "\u0120herpes": 45287,
    "\u0120Setting": 25700,
    "\u0120they": 484,
    "enf": 33701,
    "\u0120Flowers": 30036,
    "ko": 7204,
    "\u0120insurgency": 35121,
    "\u0120trustees": 36636,
    "\u0120tears": 10953,
    "\u0120Rapt": 21301,
    "\u0120pseud": 25038,
    "\u0120unpaid": 24268,
    "\u0120disapprove": 48866,
    "\u0120ambush": 34298,
    "Semitic": 28753,
    "\u0120accidentally": 14716,
    "\u012001": 5534,
    "gy": 1360,
    "\u00d7\u0140": 49168,
    "\u0120HI": 36210,
    "\u0120respectable": 27721,
    "EN": 1677,
    "\u0120traps": 20348,
    "LER": 39878,
    "ento": 50217,
    "\u0120usability": 42863,
    "\u0120underpin": 42185,
    "\u0120kios": 46739,
    "\u0120moment": 2589,
    "\u0120Korra": 38463,
    "\u0120fuel": 5252,
    "\u0120Scarborough": 36126,
    "ilst": 11750,
    "\u0120h": 289,
    "Manufact": 44445,
    "QUI": 43702,
    "arks": 5558,
    "\u0120cafe": 26725,
    "atorium": 30732,
    "\u0120adapting": 35135,
    "sch": 20601,
    "\u0120regime": 7142,
    "bles": 7689,
    "\u0120370": 28687,
    "\u0120218": 29217,
    "\u0120diving": 23186,
    "\u0120Chao": 41024,
    "\u0120McLaren": 33017,
    "\u0120gag": 32261,
    "\u0120null": 9242,
    "\u0120bisc": 36228,
    "\u0120paying": 5989,
    "][/": 44926,
    "\u0120itch": 49700,
    "\u0120reductions": 20691,
    "\u0120Bret": 39420,
    "Async": 42367,
    "\u0120chefs": 36236,
    "\u0120guiName": 30202,
    "\u0120releases": 10050,
    "\u0120stereotype": 31240,
    "yip": 39666,
    "\u0120purified": 46075,
    "\u012096": 9907,
    "mits": 24883,
    "\u0120infusion": 35547,
    "\u0120je": 11223,
    "\u0120Purple": 17265,
    "\u0120Presence": 46523,
    "\u0120Angelo": 48886,
    "info": 10951,
    "\u0120morbid": 34813,
    "\u0120Guardian": 8283,
    "\u0120fet": 11351,
    "\u0120Gerald": 27027,
    "\u0120Chrysler": 36477,
    "\u0120vigilance": 49202,
    "\u0120existential": 28954,
    "ISE": 24352,
    "etting": 35463,
    "\u0120Wast": 32929,
    "\u0120theorist": 46410,
    "smoking": 48783,
    "\u0120Inqu": 17193,
    "\u0120Punch": 24265,
    "ples": 2374,
    "mA": 42646,
    "\u0120Atk": 36379,
    "\u0120undis": 24149,
    "rote": 2519,
    "vere": 4119,
    "\u0120contra": 25736,
    "\u0120Mit": 11707,
    "\u0120Drac": 35693,
    "auder": 29233,
    "\u0120Developers": 34152,
    "\u0120MP": 4904,
    "\u0120Pokemon": 14878,
    "\u0120arose": 21172,
    "\u0120Bible": 9111,
    "\u0120credited": 18141,
    "\u0120USSR": 28905,
    "\u0120multiple": 3294,
    "vin": 7114,
    "\u0120dilig": 20645,
    "\u0120quotation": 35777,
    "\u0120nobles": 42173,
    "\u0120classrooms": 32579,
    "\u0120inference": 32278,
    "\u0120rejuven": 46834,
    "\u0120Miles": 20404,
    "\u0120obstacle": 22007,
    "Blu": 38676,
    "BIP": 47772,
    "\u0120pyramid": 27944,
    "\u0120renting": 34245,
    "\u0120immigration": 6272,
    "395": 31010,
    "\u0120Honda": 20059,
    "\u0120absent": 13717,
    "$$$$": 36737,
    "\u0127\u012d": 26534,
    "\u0120specifics": 23514,
    "\u0120Mag": 2944,
    "\u00e2\u0139\u0131": 28133,
    "\u0120Agent": 15906,
    "Soon": 28093,
    "\u0120charts": 15907,
    "\u0120Jones": 5437,
    "\u0120bit": 1643,
    "Catalog": 49015,
    "\u0120PS": 6599,
    "\u0120souven": 45043,
    "olves": 9010,
    "\u0120disorderly": 46191,
    "\u0120attributed": 14183,
    "irts": 9682,
    "itory": 37765,
    "\u0120everybody": 7288,
    "\u0120bug": 5434,
    "\u0120communications": 8062,
    "\u0120blessing": 20027,
    "\u0120spherical": 43180,
    "\u0120vomit": 44542,
    "\u0120fractures": 39381,
    "\u0120withhold": 34224,
    "channelAvailability": 39757,
    "\u0120Rhod": 22509,
    "\u0120telecom": 30452,
    "\u0120puts": 7584,
    "\u0120abrupt": 19363,
    "\u0120assum": 4368,
    "\u0120opt": 2172,
    "xxxx": 12343,
    "\u0120summed": 32794,
    "\u0120Pants": 41689,
    "\u0120presumptive": 39715,
    "\u0120Spells": 30656,
    "training": 34409,
    "mie": 44871,
    "\u0120erotic": 32739,
    "length": 13664,
    "entric": 22317,
    "\u0120IRS": 14440,
    "\u0120Entreprene": 42071,
    "\u0120hysterical": 46759,
    "\u0120banter": 46420,
    "\u0120Observatory": 25758,
    "UC": 9598,
    "\u0120assigning": 38875,
    "design": 26124,
    "\u0120Veterinary": 48928,
    "\u0120use": 779,
    "Roaming": 27352,
    "\u0120pengu": 38373,
    "\u0120parallels": 30614,
    "\u012093": 10261,
    "\u0120afternoon": 6672,
    "ERS": 4877,
    "VD": 8898,
    "\u0120lord": 15876,
    "G": 38,
    "\u0120ploy": 46945,
    "iameter": 13173,
    "\u0120sul": 33154,
    "haul": 15194,
    "\u0120compulsion": 48672,
    "\u0120Released": 28728,
    "TextColor": 42470,
    "Adam": 23159,
    "\u0120satellite": 11210,
    "\u0120stimulation": 20087,
    "\u0120Pref": 42195,
    "\u0120highs": 28227,
    "128": 12762,
    "\u0120Read": 4149,
    "\u0120Anchorage": 50066,
    "\u0120exhausted": 19064,
    "on": 261,
    "\u0120tell": 1560,
    "\u0120controller": 10444,
    "\u0120caves": 30923,
    "ged": 2004,
    "\u0120...": 2644,
    "\u0120anthem": 24577,
    "avan": 12421,
    "\u0120Mom": 11254,
    "\u0120eloqu": 32973,
    "\u0120ducks": 39694,
    "\u0120retain": 12377,
    "05": 2713,
    "\u0120Eco": 38719,
    "ognitive": 46610,
    "\u0120willingness": 16826,
    "\u0120aven": 27968,
    "\u0120unre": 14880,
    "aped": 5813,
    "\u0120Patient": 35550,
    "\u0120Bou": 14551,
    "\u0120comeback": 21933,
    "\u0120Pepper": 24346,
    "\u0120greeting": 31933,
    "enting": 36589,
    "\u0120Idol": 34392,
    "\u0120focused": 5670,
    "eff": 14822,
    "\u0120Dir": 36202,
    "\u0120criticized": 12318,
    "\u0120reviewers": 30702,
    "\u0120Malays": 12230,
    "\u0120exports": 15319,
    "\u0120Hert": 40030,
    "\u0120One": 1881,
    "ricks": 23706,
    "Had": 25383,
    "\u0120fast": 3049,
    "\u00d0\u00bb": 30143,
    "\u0120distinguish": 15714,
    "\u0120success": 1943,
    "atl": 25864,
    "\u0120bothers": 46293,
    "\u0120fit": 4197,
    "oulder": 17601,
    "\u0120rese": 1599,
    "\u0120pas": 38836,
    "\u0120Sym": 15845,
    "\u0120sod": 32581,
    "\u0120blurry": 44701,
    "kernel": 33885,
    "\u0120\"\\": 37082,
    "Story": 11605,
    "gex": 25636,
    "CHAT": 31542,
    "\"...": 26214,
    "ello": 11109,
    "\u0120emission": 25592,
    "\u0120ET": 12152,
    "701": 41583,
    "\u0120Protestant": 25310,
    "\u0120authorization": 19601,
    "\u0124\u0130": 43518,
    "Press": 13800,
    "\u0120approached": 10448,
    "\u0120iconic": 14133,
    "\u0120Take": 7214,
    "\u0120DOES": 38359,
    "\u0120rid": 5755,
    "\u0120Wis": 24884,
    "Edge": 37021,
    "isSpecial": 39714,
    "\u0120embassies": 49935,
    "\u0120diamond": 15291,
    "Email": 15333,
    "MI": 8895,
    "ForgeModLoader": 24934,
    "\u0120Thompson": 11654,
    "mong": 31059,
    "\u0120Tempest": 34367,
    "01": 486,
    "files": 16624,
    "\u0120rolls": 14088,
    "\u0120sim": 985,
    "\u0120harassed": 26775,
    "ulse": 9615,
    "\u0120compositions": 33543,
    "\u0120Anarch": 32229,
    "\u0120Guang": 36980,
    "printf": 37435,
    "\u0120adjacent": 15909,
    "Url": 28165,
    "\u0120Tok": 9453,
    "\u0120Warriors": 12090,
    "\u0120groundwork": 40641,
    "\u0120hypotheses": 35125,
    "\u00a5\u0140": 13945,
    "920": 37128,
    "\u0120wearer": 35958,
    "\u0120Jav": 49247,
    "otes": 6421,
    "\u0120allele": 45907,
    "able": 540,
    "\u0120defic": 12630,
    "\u0120prisoner": 17234,
    "\u0120Hutch": 30492,
    "\u0120attended": 9141,
    "\u0120vanishing": 49047,
    "\u0120Appears": 31254,
    "\u0120seal": 13810,
    "________________________________": 10221,
    "\u0120Dy": 23524,
    "\u0120terrifying": 17623,
    "\u0120condone": 48058,
    "\u0120axis": 16488,
    "996": 38565,
    "\u0120Wo": 22173,
    "\u00c5\u012f": 13090,
    "ustration": 44027,
    "\u0120beck": 47673,
    "\u0120Habit": 41950,
    "\u0120Lon": 39295,
    "\u0120Hayward": 41960,
    "\u0120genomes": 42136,
    "\u0120exams": 26420,
    "eeks": 32201,
    "\u0120commodities": 24392,
    "\u0120soccer": 11783,
    "\u0120goddamn": 43546,
    "\u0120caught": 4978,
    "www": 2503,
    "\u0120boiling": 24372,
    "\u0120Elise": 46174,
    "2012": 6999,
    "ate": 378,
    "plugins": 37390,
    "\u0120Eld": 19208,
    "kan": 27541,
    "\u0120litter": 25359,
    "\u0120shine": 18340,
    "\u0120shape": 5485,
    "\u0120floats": 36016,
    "\u0120cuff": 47291,
    "\u0120Aeg": 33821,
    "\u0120Lich": 35171,
    "\u0120Massacre": 40602,
    "\u0120oun": 16103,
    "Description": 11828,
    "\u0120dancers": 35837,
    "\u0120Plasma": 31226,
    "isted": 6347,
    "\u0120showc": 21876,
    "\u0120hijacked": 41554,
    "rawled": 49263,
    "\u0120Santos": 28458,
    "\u0120wounds": 14129,
    "\u0120cyt": 27104,
    "\u0120throat": 13589,
    "\u0120panels": 13043,
    "\u0120wills": 49928,
    "\u0120vivid": 21002,
    "\u0120General": 3611,
    "igslist": 40704,
    "atalie": 30951,
    "\u0120bis": 47457,
    "\u0120college": 4152,
    "\u0120Cor": 2744,
    "\u00e8\u00a3": 32518,
    "\u0120Paradise": 20494,
    "tags": 31499,
    "\u0120custod": 33702,
    "\u0120,": 837,
    "\u0120expressions": 14700,
    "\u0120cinem": 13483,
    "DonaldTrump": 27674,
    "Someone": 28211,
    "\u0120Trip": 18383,
    "hom": 26452,
    "\u0120vacations": 48695,
    "\u0120Contribut": 25767,
    "\u0120grasped": 45569,
    "Me": 5308,
    "\u0120320": 20959,
    "\u0120retrieve": 19818,
    "orde": 17531,
    "\u0120Nine": 16431,
    "\u0120nodding": 47583,
    "orial": 5132,
    "\u0120loyalty": 15843,
    "\u0120deviations": 47060,
    "\u0120mammoth": 44268,
    "\u0120willingly": 30981,
    "Library": 23377,
    "\u0120arr": 5240,
    "\u0120reminders": 40687,
    "\u0120single": 2060,
    "\u0120tox": 8293,
    "\u0120Carry": 36366,
    "\u0120Member": 10239,
    "\u0120371": 47343,
    "itute": 3678,
    "\u0120discussed": 6693,
    "\u0120Suz": 22691,
    "\u0120rad": 2511,
    "\u0120licences": 45475,
    "atson": 13506,
    "\u0120ensued": 38597,
    "\u0120unimagin": 37656,
    "ouse": 1076,
    "\u0120Tw": 1815,
    "\u0120announcer": 49032,
    "python": 29412,
    "\u0120existing": 4683,
    "report": 13116,
    "safe": 21230,
    "fts": 35594,
    "\u0120out": 503,
    "\u0120Khan": 11356,
    "bas": 12093,
    "\u0120Maze": 33412,
    "\u0120law": 1099,
    "\u0120u": 334,
    "\u0120regards": 13957,
    "\u0120partName": 37842,
    "SI": 11584,
    "Cause": 42323,
    "\u0120Comput": 22476,
    "\u0120theft": 12402,
    "\u0120sharper": 41415,
    "\u0120forgiveness": 26027,
    "179": 21738,
    "\u0120exception": 6631,
    "\u00c4\u00b1": 30102,
    "expr": 31937,
    "\u0120exhibits": 27508,
    "\u0120youthful": 35444,
    "\u0120esc": 3671,
    "\u0120irregularities": 48302,
    "\u0120consumer": 7172,
    "\u0120divided": 9086,
    "\u0120Obs": 11086,
    "\u0120specificity": 40763,
    "uro": 1434,
    "\u0120Xiaomi": 46726,
    "\u0120Tags": 44789,
    "\u0120Rid": 23223,
    "\u0120masculine": 27543,
    "stairs": 17617,
    "\u0120McKenzie": 44311,
    "\u0120thanks": 5176,
    "\u0120Ep": 4551,
    "\u0120Anim": 11586,
    "\u0120MLG": 48144,
    "\u0120Konami": 49531,
    "\u0120Fault": 40050,
    "502": 35126,
    "\u0120situated": 22765,
    "\u0120coral": 29537,
    "\u0120elevate": 36830,
    "Python": 37906,
    "ino": 2879,
    "An": 2025,
    "\u0120duplication": 50124,
    "\u0120indexes": 39199,
    "Name": 5376,
    "wd": 16993,
    "\u0120scientific": 5654,
    "\u0120among": 1871,
    "\u0120renov": 24317,
    "\u0120investigators": 10093,
    "pelled": 15803,
    "uggets": 26550,
    "\u0120Santana": 49067,
    "Storm": 32173,
    "Hist": 13749,
    "\u0120Innovation": 27724,
    "\u0120mistakes": 10135,
    "Grad": 42731,
    "\u0120Bezos": 48607,
    "\u0120glitch": 29204,
    "dep": 10378,
    "\u0120Tao": 32120,
    "\u0120toughness": 35879,
    "\u0120prosperous": 32757,
    "\u0120expenditure": 20705,
    "England": 39163,
    "gren": 32762,
    "\u0120Queen": 7542,
    "\u0120prepar": 9198,
    "\u0120budding": 44194,
    "\u0120LA": 9131,
    "\u0120Judah": 49931,
    "Please": 5492,
    "\u0120History": 7443,
    "jen": 48796,
    "\u0120frogs": 37475,
    "\u0120allotted": 44554,
    "\u0120Fountain": 40913,
    "\u0120Rodham": 41848,
    "\u0120Zucker": 27629,
    "\u00d7\u0133": 49603,
    "\u0120guilty": 6717,
    "peat": 18267,
    "\u0120strateg": 5352,
    "\u0120Madness": 24452,
    "\u0120menace": 36292,
    "\u0120Tammy": 50070,
    "CD": 8610,
    "oan": 24611,
    "\u0120Resident": 22373,
    "adoes": 46368,
    "agnar": 30475,
    "blood": 18041,
    "9999": 24214,
    "\u0120liability": 12247,
    "does": 22437,
    "\u0120responsibly": 43493,
    "\u0120idiot": 22324,
    "\u0120filler": 41134,
    "astered": 14054,
    "\u0120honour": 15393,
    "aple": 24052,
    "\u0120tribes": 15663,
    "\u0120Compact": 37904,
    "\u0120Neural": 47986,
    "259": 25191,
    "\u0120ultr": 23212,
    "\u0120Cubs": 21562,
    "Dog": 32942,
    "\u0120secular": 14589,
    "vas": 11017,
    "\u0120neur": 11943,
    "alys": 26266,
    "\u0120depict": 19583,
    "\u0120hitherto": 45053,
    "\u0120And": 843,
    "\u0120refriger": 19866,
    "442": 39506,
    "omatic": 13730,
    "\u0120equival": 6854,
    "\u0120Alaska": 12926,
    "SD": 10305,
    "\u0120Laurent": 39734,
    "\u0120wife": 3656,
    "Scotland": 47230,
    "\u0120thou": 14210,
    "ugal": 43778,
    "\u0120Ji": 29380,
    "entity": 26858,
    "\u0120theater": 13766,
    "\u0120ROCK": 41320,
    "oris": 37279,
    "ores": 2850,
    "\u0120glaciers": 40509,
    "\u0120ascert": 48818,
    "\u0120cance": 10450,
    "ugh": 6724,
    "\u0120rectangle": 35991,
    "\u0120Byte": 30589,
    "\u0120Rodgers": 19947,
    "\u0120damned": 28911,
    "\u0120vape": 44931,
    "figure": 26875,
    "\u0120DVDs": 35962,
    "\u0120Learning": 18252,
    "izontal": 38342,
    "\u0120Amtrak": 49145,
    "\u0120Federation": 11937,
    "iao": 13481,
    "wh": 1929,
    "Jen": 44875,
    "\u0120violation": 8747,
    "\u0120lineage": 31144,
    "\u0120anecd": 22077,
    "\u0120Tu": 16749,
    "coll": 26000,
    "\u0120ears": 11368,
    "\".[": 42924,
    "\u0120returns": 5860,
    "\u0120unworthy": 49284,
    "\u0120Kare": 49396,
    "\u012e": 234,
    "\u0120pest": 28064,
    "cms": 46406,
    "\u0120sister": 6621,
    "\u0120dolphin": 44136,
    "Sexual": 49161,
    "\u0120Considering": 27662,
    "\u0120dissatisf": 27570,
    "\u0120undermines": 37001,
    "\u0120faux": 36748,
    "\u0120taps": 34531,
    "\u0120Pictures": 20051,
    "\u0120depend": 4745,
    "\u0120nonsensical": 49569,
    "\u0120aspiration": 48217,
    "\u0120Once": 4874,
    "\u0120gull": 43289,
    "\u0120Jessica": 17352,
    "\u0120Chau": 49628,
    "\u0120diss": 6249,
    "\u0120pumped": 29104,
    "\u0120removal": 9934,
    "\u0120relinqu": 36610,
    "\u0120mic": 12314,
    "\u0120Particip": 13928,
    "\u0120spir": 9158,
    "cn": 31522,
    "\u0120inherited": 19552,
    "ILA": 47164,
    "\u0120mechanic": 21600,
    "ivid": 1699,
    "\u0120Franch": 41705,
    "\u0120hidden": 7104,
    "\u0120offer": 2897,
    "\u0120sacrifices": 24601,
    "iOS": 35742,
    "\u0120Humph": 32787,
    "\u0120pilgrims": 42408,
    "\u0120HUM": 45850,
    "\u0120Peace": 12689,
    "equal": 40496,
    "\u0120Legislature": 20815,
    "\u0120Eck": 45232,
    "\u0120sabot": 25118,
    "Tank": 32978,
    "olyn": 34742,
    "progress": 33723,
    "\u0120mmol": 47340,
    "\u0120OD": 31245,
    "secret": 21078,
    "\u0120Fixes": 34258,
    "folios": 45242,
    "\u0120Echo": 21455,
    "548": 49934,
    "\u0120principally": 41889,
    "\u0120=================": 36658,
    "\u0120laughable": 47623,
    "\u0120garments": 36097,
    "\u0120pronouns": 43947,
    "\u0120cascade": 44847,
    "\u0120way": 835,
    "\u0120evid": 25568,
    "\u0120ventures": 33787,
    "0": 15,
    "urrence": 33928,
    "\u0120salsa": 49529,
    "\u0120bells": 30987,
    "\u0120shattering": 48883,
    "\u0120doubtful": 31608,
    "arettes": 13890,
    "\u0120Loan": 32314,
    "\u0120Bright": 17558,
    "\u0120righteousness": 33738,
    "gression": 32383,
    "\u0120NEW": 12682,
    "iding": 2530,
    "\u0120arsenic": 48884,
    "\u0120maintain": 5529,
    "\u012092": 10190,
    "Mark": 9704,
    "\u0120Hungarian": 27304,
    "\u0120Electricity": 42048,
    "\u0120Conc": 13223,
    "\u0120Kir": 7385,
    "\u0120Whites": 29290,
    "\u0120dozen": 8667,
    "\u0120firsthand": 37318,
    "\u0120Germany": 4486,
    "\u0120glance": 16086,
    "\u0120MW": 29961,
    "erson": 882,
    "gotten": 21646,
    "\u0120SIG": 33993,
    "ester": 7834,
    "\u0120transgender": 10637,
    "wr": 18351,
    "\u0120Construction": 20395,
    "\u0120TG": 44121,
    "\u0120lucky": 9670,
    "\u0120instructor": 21187,
    "\u0120comparable": 13975,
    "okane": 41776,
    "\u0120pretended": 36766,
    "\u0120flew": 13112,
    "\u0120define": 8160,
    "\u0120failed": 4054,
    "\u0120adventurers": 36843,
    "cussion": 36262,
    "\u0120Dirty": 32052,
    "\u0120Droid": 46546,
    "\u0120classes": 6097,
    "\u0120hindered": 49186,
    "Winner": 48056,
    "\u0120measure": 3953,
    "Owner": 42419,
    "ZX": 40692,
    "\u0120Saskatchewan": 31346,
    "ically": 1146,
    "puting": 48074,
    "payers": 45773,
    "\u0120Reeves": 41533,
    "istics": 3969,
    "emon": 7966,
    "\u0120Mell": 32993,
    "\u0120Assistant": 15286,
    "\u0120Doodle": 45634,
    "cigarette": 46040,
    "Car": 9914,
    "automatic": 37800,
    "Jacob": 46751,
    "\u0120preceding": 18148,
    "\u0120alternate": 13527,
    "Matthew": 25372,
    "\u0120paramount": 37352,
    "\u0120plaus": 48923,
    "\u0120rectangular": 36954,
    "uctor": 33029,
    "\u0120Scholars": 26381,
    "NBC": 13175,
    "bane": 20235,
    "\u0120alarming": 24128,
    "Apart": 39182,
    "\u0120supreme": 17700,
    "\u0120ministry": 11957,
    "\u0120Used": 16718,
    "\u0120Supporting": 44188,
    "\u0120validity": 19648,
    "\u0120UM": 44352,
    "\u0120Inquisitor": 46741,
    "izons": 29457,
    "\u0120nest": 16343,
    "\u0120Ana": 17639,
    "As": 1722,
    "\u0120sources": 4237,
    "\u01200": 657,
    "\u0120announ": 2335,
    "\u0120reckoned": 46630,
    "\u0120loans": 10021,
    "roller": 10646,
    "\u0120RELEASE": 46492,
    "isitions": 29593,
    "\u0120men": 1450,
    "\u0120Epstein": 34594,
    "\u0120Kal": 12612,
    "idious": 33243,
    "\u0120az": 35560,
    "\u0120pse": 15838,
    "mid": 13602,
    "abis": 8102,
    "\u0120bun": 28773,
    "oslov": 50005,
    "\u0120venom": 30318,
    "ribute": 4163,
    "\u0120themselves": 2405,
    "\u0120arrive": 9240,
    "\u0120credits": 10824,
    "mentioned": 17181,
    "\u0120Euro": 1898,
    "shed": 35762,
    "\u0120Kavanaugh": 21195,
    "\u0120inoc": 49027,
    "\u0120publishers": 17604,
    "\u0120disparities": 35797,
    "\u0120mal": 6428,
    "\u0120Aliens": 39301,
    "................................": 8864,
    "\u0120decide": 5409,
    "\u0120Yar": 45184,
    "\u0120Daniels": 28162,
    "front": 8534,
    "kaya": 35372,
    "\u0120Klan": 31151,
    "\u0120Luna": 23694,
    "\u0120clinic": 15760,
    "\u0120Fulton": 44373,
    "\u0120bail": 12274,
    "\u0120wedding": 10614,
    "phas": 5902,
    "\u0120overe": 43656,
    "EED": 41841,
    "Chief": 23675,
    "\u0120busy": 8179,
    "\u0120SNP": 25632,
    "\u0120essentials": 41954,
    "debian": 24689,
    "\u0120crossing": 12538,
    "\u0120pile": 14540,
    "\u0120doubles": 21938,
    "\u0120Pearson": 31074,
    "\u0120indications": 26496,
    "mate": 9830,
    "\u0106": 194,
    "\u01201937": 28684,
    "\u0120Argentine": 36399,
    "iencies": 22139,
    "shape": 43358,
    "\u0120304": 31672,
    "chet": 20043,
    "\u0120Johnny": 15470,
    "nah": 40909,
    "ributes": 7657,
    "\u0120HHS": 45497,
    "\u0120Pour": 39128,
    "258": 25600,
    "\u0120RUN": 32494,
    "\u0120municipality": 27264,
    "\u0120majesty": 48565,
    "otics": 23891,
    "blooded": 50132,
    "\u0120larvae": 37346,
    "\u0120Viv": 25313,
    "Wo": 49450,
    "leasing": 48764,
    "\u0120indebted": 37816,
    "\u00e2\u0135\u013a": 45563,
    "\u0120TTL": 42654,
    "1995": 21908,
    "\u0120stalk": 31297,
    "mag": 19726,
    "\u0120millions": 5242,
    "\u0120typically": 6032,
    "\u0120Concept": 26097,
    "\u0120diameter": 14753,
    "\u0120Solomon": 22912,
    "\u0120mer": 4017,
    "\u0120activists": 7941,
    "\u0120governance": 18848,
    "\u0120unmarried": 39183,
    "\u0120expansion": 7118,
    "Luck": 35498,
    "Control": 15988,
    "\u0120clut": 32170,
    "\u0120Hague": 37206,
    "\u0120sexist": 24651,
    "\u0120Jenner": 39760,
    "\u0120pressuring": 49906,
    "accompan": 41974,
    "\u0120midday": 47168,
    "\u0120kins": 45338,
    "\u0120biology": 17219,
    "\u0120Jaguars": 28392,
    "liter": 17201,
    "\u0120siege": 20690,
    "oud": 2778,
    "\u0120claimants": 47841,
    "MAG": 45820,
    "ste": 4169,
    "\u0120congr": 19030,
    "\u0120dominating": 30651,
    "Org": 46808,
    "\u0120drag": 6715,
    "\u0120Android": 5565,
    "\u0120aesthetics": 35431,
    "eus": 27650,
    "\u0120farm": 5318,
    "ttle": 23296,
    "\u0120note": 3465,
    "lower": 21037,
    "\u0120Pig": 23097,
    "\u0120Yemen": 12492,
    "\u0120glue": 22749,
    "\u0120stomp": 32221,
    "Sphere": 38882,
    "($": 16763,
    "Develop": 19246,
    "example": 20688,
    "BM": 12261,
    "ende": 38396,
    "\u0120smells": 25760,
    "\u0120Extension": 27995,
    "\u0120Noise": 30964,
    "\u0120Rasmussen": 46549,
    "\u0120redevelopment": 40751,
    "\u0120embr": 7726,
    "\u0120nevertheless": 19032,
    "\u0120vet": 20202,
    "\u0120Performance": 15193,
    "\u0120operate": 8076,
    "\u0120cute": 13779,
    "'?": 30960,
    "\u0120slate": 27589,
    "uitous": 42412,
    "\u0120buggy": 46542,
    "rolled": 8375,
    "\u0120Unsure": 38481,
    "\u0120collagen": 45452,
    "\u0120liberated": 35112,
    "Health": 18081,
    "\u0120pushes": 20070,
    "\u0120hear": 3285,
    "lication": 10142,
    "\u0120runner": 17490,
    "\u0120CTR": 34577,
    "\u0120Vlad": 13080,
    "\u0120smelled": 37609,
    "\u0120978": 41417,
    "\u0120nerve": 16384,
    "\u0120Dress": 33611,
    "\u00e5\u00bd": 37605,
    "\u0120BUR": 45604,
    "disk": 39531,
    "\u0120obligatory": 44609,
    "\u0120Shared": 39403,
    "\u0120\u00c2\u00a5": 38221,
    "\u0120rod": 15299,
    "\u0120rails": 27587,
    "\u0120pont": 45443,
    "\u0120basil": 37792,
    "\u0120Same": 16766,
    "\u0120peers": 14495,
    "uve": 45177,
    "ordinary": 35947,
    "\u0120horribly": 33437,
    "\u0120wil": 39716,
    "tical": 22869,
    "\u0120impover": 30956,
    "Runner": 49493,
    "\u0120Continued": 22168,
    "uilt": 21955,
    "custom": 23144,
    "stal": 7757,
    "\u0120401": 22219,
    "\u0120abhor": 42934,
    "\u0120pussy": 18185,
    "\u0120Cassandra": 46750,
    "\u0120ashore": 45817,
    "\u0120stains": 43329,
    "318": 36042,
    "\u0120purchase": 5001,
    "\u0120cane": 33009,
    "\u0120doorway": 32439,
    "Var": 19852,
    "SOURCE": 47690,
    "\u0120subsidized": 37317,
    "\u0120url": 19016,
    "\u0120hall": 6899,
    "emet": 19261,
    "\u0120ruby": 43506,
    "\u0120Inspect": 20904,
    "\u0120Catalyst": 48238,
    "\u0120sequest": 46314,
    "\u0120Ful": 28040,
    "\u0120terribly": 22121,
    "\u0120encoding": 21004,
    "\u0120scheduled": 7530,
    "\u0120conson": 44278,
    "\u0120picture": 4286,
    "Series": 27996,
    "Alexander": 38708,
    "\u0120participated": 14888,
    "\u0120Feb": 3158,
    "2016": 5304,
    "\u0120zipper": 48992,
    "\u0120158": 24063,
    "physical": 42854,
    "\u0120poles": 24971,
    "\u0120crib": 48083,
    "\u0120criticizing": 26816,
    "\u0120Duo": 36086,
    "\u0120warming": 9917,
    "\u0120decipher": 42790,
    "\u0120infuri": 35905,
    "\u0120offending": 30810,
    "\u0120Ask": 16981,
    "\u0120Aaron": 12139,
    "mix": 19816,
    "\u0120ancestors": 18668,
    "\u0120unpleasant": 22029,
    "\u0120arbitration": 26038,
    "rugged": 21901,
    "cam": 20991,
    "hattan": 12904,
    "\u0120extr": 22820,
    "\u0120spoiled": 34781,
    "\u0120unlawfully": 48843,
    "\u0120Ashley": 20899,
    "\u0120merry": 44570,
    "\u0120regist": 4214,
    "ahime": 49997,
    "toe": 44579,
    "tic": 13370,
    "Ironically": 44850,
    "\u0120Rap": 12281,
    "\u0120help": 1037,
    "cuts": 23779,
    "\u0120delim": 46728,
    "\u0120misfortune": 41600,
    "\u0120illustration": 20936,
    "genre": 35850,
    "\u0120opio": 18356,
    "\u0120ur": 2956,
    "},\"": 9063,
    "\u0120linem": 22774,
    "\u0120learning": 4673,
    "\u0120Sik": 32615,
    "\u0120minutes": 2431,
    "\u0120bureaucracy": 25250,
    "\u0120Life": 5155,
    "\u0120WAR": 11837,
    "DEV": 39345,
    "\u0120amid": 10371,
    "\u0120abound": 41413,
    "\u0120ank": 16553,
    "\u012033": 4747,
    "cro": 19915,
    "\u0120Weeks": 33259,
    "\");": 15341,
    "\u0120retali": 28160,
    "\u0120hateful": 30367,
    "\u0120qualifies": 37782,
    "\u0120physicians": 17206,
    "utter": 10381,
    "\u0120depressive": 36568,
    "\u0120cloudy": 40026,
    "\u0120obviously": 6189,
    "ropolis": 25986,
    "Setup": 40786,
    "itate": 12027,
    "HL": 6581,
    "illation": 40903,
    "\u0120motorcycles": 39404,
    "\u0120carcin": 28164,
    "\u0120hrs": 36201,
    "\u0120Guests": 46936,
    "\u0120tampering": 42471,
    "\u0120Target": 12744,
    "ACY": 43300,
    "inc": 1939,
    "\u0120vel": 11555,
    "production": 25493,
    "\u0120grop": 39136,
    "\u0120twenty": 8208,
    "\u0120rm": 42721,
    "Animal": 40002,
    "imens": 12117,
    "Semitism": 25406,
    "\u0120MS": 6579,
    "\u0120versus": 9051,
    "159": 19707,
    "\u0120Alam": 41514,
    "\u0120rocked": 36872,
    "\u0120uncontrolled": 47913,
    "ents": 658,
    "\u0120Networks": 27862,
    "\u0120haven": 4398,
    "\u00e3\u0123\u00ae\u00e9": 33426,
    "\u0120state": 1181,
    "\u0120eb": 36649,
    "Additionally": 23216,
    "\u0120NIH": 37483,
    "\u0120Cyp": 48881,
    "\u0120SLI": 44538,
    "wagen": 29160,
    "mo": 5908,
    "thodox": 12836,
    "\u0120threaded": 40945,
    "topia": 46575,
    "\u0120intensive": 18590,
    "\u0120pes": 32317,
    "acular": 12754,
    "\u0120induce": 21155,
    "\u0120Victoria": 12313,
    "\u0120Exodus": 38557,
    "\u0120Napoleon": 28283,
    "tails": 26404,
    "\u0120Rules": 14252,
    "\u0120Border": 15443,
    "\u0120cornerback": 26683,
    "\u0120executes": 42985,
    "\u0120reapp": 24578,
    "Nature": 46934,
    "\u0120ballots": 20103,
    "ridges": 32124,
    "\u0120anatomical": 48631,
    "0100": 39103,
    "\u0120psychiatrists": 49218,
    "\u0120connected": 5884,
    "\u0120Sov": 6917,
    "\u0120Whatever": 15935,
    "otom": 43125,
    "\u0120dinosaurs": 27199,
    "\u0120complete": 1844,
    "\u0120chains": 14659,
    "\u0120motiv": 6556,
    "044": 43977,
    "charged": 17200,
    "1600": 36150,
    "\u0120settled": 10282,
    "\u0120relational": 50126,
    "\u0120>": 1875,
    "\u00a2": 95,
    "Yu": 40728,
    "\u0120RB": 17986,
    "\u0120instruction": 12064,
    "\u0120Dutch": 10914,
    "\u00e7\u0130\u012d": 25581,
    "stice": 43788,
    "HS": 7998,
    "anut": 20651,
    "\u0120fracture": 31846,
    "\u0120Categories": 45486,
    "\u0120educational": 9856,
    "\u0120Route": 18956,
    "\u0120Quadro": 48447,
    "\u0120Levin": 32325,
    "\u0120accusations": 14227,
    "Len": 30659,
    "\u0120elegance": 49198,
    "\u0120Handle": 33141,
    "regon": 8285,
    "\u0120Kazakh": 29766,
    "\u0120trib": 8433,
    "enstein": 37975,
    "\u0120televised": 30681,
    "\u0120Guardians": 19752,
    "\u0120Instit": 37931,
    "\u0120Francois": 40419,
    "U": 52,
    "\u01201916": 32811,
    "\u0120TOR": 40691,
    "\u0120ADV": 43685,
    "\u0120hilarious": 20105,
    "\u0120Portuguese": 21813,
    "having": 40965,
    "\u0120promotional": 18767,
    "Tell": 24446,
    "rals": 30691,
    "517": 48170,
    "\u0120Berg": 24626,
    "\u0120Trap": 21914,
    "\u0120Tables": 33220,
    "596": 45734,
    "atography": 45501,
    "\u0120Maurit": 46106,
    "\u0120consisted": 19954,
    "89": 4531,
    "negative": 31591,
    "directed": 34762,
    "\u0120safest": 33630,
    "\u0120mult": 1963,
    "\u0120eighty": 37516,
    "assets": 19668,
    "7": 22,
    "\u0120static": 9037,
    "\u0120regulars": 48128,
    "\u0120wounding": 40942,
    "\u00e3\u0124\u00b5": 26503,
    "care": 6651,
    "\u0120condos": 48093,
    "\u0120elevated": 15321,
    "border": 20192,
    "\u0120Plant": 16561,
    "less": 1203,
    "\u0120Zeus": 20620,
    "\u0120Ty": 7039,
    "\u0120Hades": 36857,
    "apple": 18040,
    "\u0120airstrike": 46504,
    "\u0120caster": 31680,
    "\u0120Meow": 42114,
    "SW": 17887,
    "?)": 10091,
    "\u0120KT": 42293,
    "\u0120accompl": 6424,
    "\u0120Badge": 44308,
    "Assuming": 48142,
    "\u0120develop": 1205,
    "\u0120newcom": 22315,
    "\u0120trending": 29056,
    "poke": 35924,
    "\u0120allegiance": 25696,
    "\u0120scramble": 36755,
    "\u0120crime": 4065,
    "\u0120Discount": 43474,
    "graph": 34960,
    "\u0120FRI": 48167,
    "\u0120portal": 17898,
    "\u0120Cait": 34118,
    "advertising": 34442,
    "century": 14792,
    "hai": 44488,
    "VI": 12861,
    "TeX": 49568,
    "\u0120aeros": 41376,
    "\u0120Environment": 9344,
    "Root": 30016,
    "\u0120rises": 16736,
    "\u0120understandably": 36250,
    "QL": 9711,
    "\u0120calorie": 28740,
    "\u0120affair": 14669,
    "nov": 37302,
    "\u0120Array": 15690,
    "\u0120ignited": 40442,
    "Services": 31007,
    "\u0120Adolf": 35333,
    "\u0120+=": 15853,
    "uders": 48739,
    "\u0120relative": 3585,
    "\u0120posterior": 34319,
    "\u0120unravel": 30282,
    "insky": 19870,
    "\u0120lifespan": 30458,
    "\u0120plenty": 6088,
    "\u00e3\u0125\u00ac": 24186,
    "\u0120culinary": 35956,
    "inators": 47721,
    "\u0120mustache": 49303,
    "aries": 3166,
    "\u0120inventor": 33475,
    "\u0120Danish": 20849,
    "\u0120Bayer": 48009,
    "\u0120ven": 8710,
    "\u0120scary": 14343,
    "\u0120lore": 24044,
    "']": 20520,
    "\u0120Bite": 44540,
    "plementation": 32851,
    "\u0120Beyon": 37361,
    "\u0120Laf": 31528,
    "\u01201990": 6303,
    "MpServer": 31765,
    "ope": 3008,
    "\u0120prosecutors": 11947,
    "\u0120recollection": 41285,
    "\u0120Chancellor": 19477,
    "\u0120Delicious": 39528,
    "\u0120grunt": 45836,
    "\u013b": 247,
    "Avoid": 38618,
    "\u0120metaphor": 23094,
    "Input": 20560,
    "426": 42780,
    "\u0120apprehend": 30200,
    "\u0120leased": 40352,
    "\u0120Plate": 23648,
    "\u0120treatment": 3513,
    "NV": 27159,
    "\u0120dwindling": 45215,
    "\u0120evaluations": 34109,
    "wcsstore": 12781,
    "\u0120Worlds": 19946,
    "\u0120accepts": 18178,
    "\u0120HTTP": 14626,
    "\u0120Seeking": 48160,
    "pedia": 50235,
    "\u0120prosecuting": 38242,
    "/*": 15211,
    "\u0120lineman": 33157,
    "\u0120Balloon": 47821,
    "vector": 31364,
    "\u0120Healthy": 30840,
    "\u0120metabolic": 19737,
    "ilage": 50006,
    "\u0120Festival": 11117,
    "orr": 38890,
    "\u0120Pose": 37557,
    "\u0120cybersecurity": 31335,
    "\u0120Rev": 5416,
    "\u0120Shelley": 46854,
    "TABLE": 38148,
    "\u0120cherished": 41238,
    "Champ": 48507,
    "\u0120punches": 25495,
    "\u0120Lies": 35337,
    "izers": 11341,
    "\u0120inventory": 13184,
    "\u0120Riot": 24528,
    "\u0120volleyball": 50196,
    "\u0120suspects": 11826,
    "\u0120braces": 47241,
    "\u0120Feather": 34501,
    "ranked": 28282,
    "\u0120restrooms": 48537,
    "\u0120stimulates": 49881,
    "\u0120estimation": 31850,
    "\u0120lends": 37733,
    "undrum": 46859,
    "\u0120disadvantages": 38457,
    "\u0120Foreign": 8708,
    "Snow": 28974,
    "\u0120unfounded": 40530,
    "locked": 24162,
    "Social": 20636,
    "\u0120Chargers": 23559,
    "accept": 13635,
    "952": 49234,
    "\u0120career": 3451,
    "arette": 14758,
    "\u0120approximate": 27665,
    "Malley": 33776,
    "\u0120Webs": 47736,
    "\u0120Gaia": 37471,
    "xi": 29992,
    "justice": 31012,
    "opathy": 27189,
    "\u0120around": 1088,
    "rees": 6037,
    "479": 31714,
    "\u0120NB": 41354,
    "\u0120Montana": 18311,
    "ethyst": 44166,
    "\u0120haha": 42254,
    "ouk": 38960,
    "OUND": 15919,
    "fold": 11379,
    "\u0120Chile": 17456,
    "\u0120Examination": 50105,
    "||||": 42210,
    "\u00e6\u0142": 43718,
    "\u0120th": 294,
    "\u0120BU": 20571,
    "\u0120remembering": 24865,
    "Jeremy": 35623,
    "\u0120curved": 26929,
    "\u0120Brandon": 14328,
    "\u0120applause": 28445,
    "\u0120prostate": 26711,
    "\u0120CES": 42700,
    "\u0120complexion": 48026,
    "\u0120routine": 8027,
    "\u0120dreamed": 27947,
    "save": 21928,
    "\u0120remotely": 19863,
    "\u0120option": 3038,
    "\u0120clown": 25573,
    "\u0120foothold": 48271,
    "\u00e3\u0124\u00aa": 20513,
    "\u0120NHL": 9481,
    "Course": 49046,
    "tx": 17602,
    "644": 29173,
    "\u0120Shape": 25959,
    "\u0120fulf": 8456,
    "\u0120dedication": 22445,
    "\u0120Val": 3254,
    "\u0120sizeable": 47225,
    "\u0120Leaving": 38068,
    "\u0120Archae": 32187,
    "olver": 14375,
    "packages": 43789,
    "\u0120drum": 13026,
    "\u0120qualities": 14482,
    "\u011c": 216,
    "\u0120objections": 21954,
    "\u0120Anfield": 44303,
    "ARE": 12203,
    "\u0120pill": 9582,
    "iggs": 20340,
    "Characters": 48393,
    "ogle": 2467,
    "\u0120Primary": 21087,
    "icro": 2500,
    "Home": 16060,
    "battle": 38471,
    "\u0120Wh": 854,
    "Turkish": 42872,
    "esm": 45798,
    "bro": 7957,
    "Bring": 31416,
    "\u00e8\u00a6\u013c\u00e9\u0128\u0134": 23614,
    "\u0120financial": 3176,
    "\u0120\u00e6": 10545,
    "isdom": 9350,
    "cus": 9042,
    "\u0120undo": 23981,
    "\u0120Pug": 33260,
    "Args": 42035,
    "\u0120glanced": 27846,
    "Quick": 21063,
    "rises": 26064,
    "\u0120Face": 15399,
    "isa": 9160,
    "\u0120associ": 2570,
    "\u0120protesting": 23655,
    "\u0120facing": 6476,
    "\u0120seismic": 37463,
    "\u0120fou": 46287,
    "\u0120pinned": 25711,
    "ALTH": 40818,
    "license": 43085,
    "\u0120sque": 35776,
    "\u0120account": 1848,
    "\u0120Line": 6910,
    "\u0120Wak": 46033,
    "\u0120flashy": 43115,
    "\u0120hypot": 8813,
    "\u0120formatted": 39559,
    "Ruby": 32101,
    "umo": 43712,
    "\u0120busted": 36193,
    "\u0120Cinema": 31535,
    "aband": 49248,
    "\u0120hugging": 46292,
    "\u0111": 205,
    "389": 29769,
    "\u0120fac": 1777,
    "itation": 3780,
    "\u0120Zub": 47828,
    "Tur": 17483,
    "\u0120topple": 49377,
    "\u0120279": 39466,
    "\u0120Wor": 16597,
    "\u0120nerds": 47088,
    "\u0120Vald": 38552,
    "\u0120Refugee": 42791,
    "\u0120mind": 2000,
    "oleon": 25637,
    "\u0120coincide": 37319,
    "eq": 27363,
    "Investigators": 33528,
    "\u0120\u00e2\u0122\u0136": 851,
    "usk": 17990,
    "\u0120melt": 16867,
    "ohl": 48988,
    "\u0120wasted": 18359,
    "\u0120pseudo": 24543,
    "\u0120groove": 35096,
    "cknow": 5319,
    "\u0120IS": 3180,
    "\u0120Whats": 28556,
    "\u0120Net": 3433,
    "PH": 11909,
    "\u0120analy": 4284,
    "ients": 2334,
    "\u0120ORIG": 43901,
    "teenth": 20283,
    "\u01203": 513,
    "Based": 15001,
    "worst": 41430,
    "ocks": 3320,
    "\u0120Wrestle": 41137,
    "\u0120beta": 12159,
    "LOD": 38543,
    "\u0120rehabilitation": 23668,
    "\u0128\u0134": 10253,
    "\u0120polarization": 42704,
    "\u0120Jak": 25845,
    "\u0120Create": 13610,
    "independent": 34750,
    "\u0120but": 475,
    "\u0120Implementation": 46333,
    "\u0120lurking": 36105,
    "ency": 1387,
    "aus": 8717,
    "AMES": 29559,
    "PO": 16402,
    "\u0120ho": 8169,
    "\u0120care": 1337,
    "\u0120tweeted": 10830,
    "tv": 14981,
    "\u0120entert": 14472,
    "ISC": 37719,
    "\u0120fundraising": 18066,
    "\u0120Challenges": 44495,
    "\u0120gore": 46835,
    "\"/>": 26700,
    "iece": 8535,
    "\u0120Pit": 16889,
    "beard": 39433,
    "\u0120Surf": 43771,
    "\u0120unh": 14274,
    "\u0120Pioneer": 31437,
    "\u0120creat": 1827,
    "osaurus": 47650,
    "\u0120Hound": 44900,
    "\u0120clans": 38501,
    "\u0120thor": 41899,
    "\u0120Avalanche": 39372,
    "\u0120slipped": 18859,
    "\u0120yesterday": 7415,
    "\u0120device": 3335,
    "andon": 5063,
    "\u0120resultant": 43440,
    "ify": 1958,
    "\u0120share": 2648,
    "disable": 40223,
    "\u0120gram": 14599,
    "Atl": 25255,
    "\u0120Aud": 7591,
    "*/(": 40278,
    "inding": 6020,
    "\u0120neck": 7393,
    "base": 8692,
    "\u0120blocks": 7021,
    "\u0120monastery": 38139,
    "\u0120TA": 21664,
    "\u0120awake": 21693,
    "\u0120biography": 26444,
    "ilated": 40080,
    "\u0120kept": 4030,
    "\u0120pupil": 34047,
    "\u0120clenched": 47344,
    "recogn": 26243,
    "che": 2395,
    "has": 10134,
    "\u0120wildlife": 15599,
    "\u0120ts": 40379,
    "orse": 7615,
    "\u0120Pic": 15085,
    "\u0120dated": 14567,
    "\u0120Oy": 39447,
    "spec": 16684,
    "\u0120coma": 33658,
    "\u0120done": 1760,
    "\u0120Charter": 23006,
    "\u0120headlines": 14408,
    "\u0120scient": 3062,
    "\u0120Athlet": 18093,
    "\u0120property": 3119,
    "LIN": 34509,
    "ickle": 39423,
    "\u0120Facility": 29118,
    "\u012018": 1248,
    "\u0120Statistics": 14370,
    "\u0120Tony": 8832,
    "\u0120filmmakers": 28303,
    "\u0120responders": 33339,
    "\u0120Denis": 33089,
    "UF": 36820,
    "\u0120Eminem": 49428,
    "\u0120Luk": 28102,
    "\u0120home": 1363,
    "\u0120judgments": 24195,
    "\u0120evangel": 17138,
    "\u0120turned": 2900,
    "ubes": 29080,
    "Wh": 1199,
    "Cele": 42741,
    "\u0120Leban": 13296,
    "\u0120racist": 9811,
    "Courtesy": 31825,
    "\u0120blockers": 43805,
    "\u0120succeeded": 14131,
    "\u0120Manhattan": 13458,
    "\u0120Amendments": 39169,
    "steamapps": 31881,
    "anse": 40054,
    "\u0120speaks": 9209,
    "\u0120hypert": 32608,
    "\u0120sewage": 34939,
    "\u0120abolition": 30480,
    "enezuel": 12596,
    "Laura": 43687,
    "\u0120setups": 44266,
    "\u0120hybrids": 45456,
    "OUT": 12425,
    "Democrats": 29969,
    "lasting": 24810,
    "=\"/": 35922,
    "\u0120Damien": 46107,
    "\u0120humans": 5384,
    "\u0120STEP": 49154,
    "\u0120then": 788,
    "\u0120activities": 4568,
    "iary": 8042,
    "\u0120Generation": 16588,
    "\u0120fragmented": 41630,
    "\u0120Armen": 17303,
    "\u0120incidence": 18349,
    "hib": 3145,
    "\u0120ingenuity": 45207,
    "limited": 10698,
    "\u0120graduation": 21571,
    "\u0120treacherous": 45365,
    "\u0120datas": 19395,
    "Don": 3987,
    "\u0120dimensional": 38517,
    "amd": 28745,
    "iovascular": 19381,
    "Andy": 35314,
    "\u0120finely": 32566,
    "\u0120wholesale": 24005,
    "\u0120electorate": 23879,
    "uncle": 29942,
    "Change": 19400,
    "far": 16370,
    "osh": 3768,
    "\u0120snatched": 43276,
    "ourage": 32885,
    "\u0120stake": 10171,
    "\u0120hacks": 30445,
    "SEA": 46887,
    "\u0120Administrator": 22998,
    "\u0120defence": 9366,
    "ASH": 11211,
    "\u0120fullback": 49570,
    "?).": 29865,
    "\u0120customer": 6491,
    "\u0120electors": 39259,
    "\u0120given": 1813,
    "\u0133": 239,
    "style": 7635,
    "\u0120started": 2067,
    "\u0120museums": 30794,
    "\u0120illustrating": 44000,
    "\u0120withdrawal": 15220,
    "\u0120stub": 17071,
    "\u0120Hook": 18531,
    "\u0120HH": 47138,
    "\u0120Mercy": 30759,
    "phasis": 28432,
    "cyclop": 22873,
    "ppers": 11799,
    "\u0120storm": 6388,
    "\u0120High": 3334,
    "ifiers": 13350,
    "\u0120Defenders": 26983,
    "\u0120Believe": 32018,
    "\u0120Historically": 48153,
    "PK": 40492,
    "local": 12001,
    "winter": 40078,
    "\u0120rally": 7903,
    "owner": 18403,
    "ician": 6749,
    "ec": 721,
    "\u0120pioneered": 43185,
    "\u0120Laboratories": 46779,
    "Soc": 37949,
    "red": 445,
    "Cro": 35403,
    "\u0120Gentle": 25066,
    "\u0120joining": 9679,
    "\u0120nationalist": 19848,
    "\u0120Development": 7712,
    "visor": 13131,
    "\u0120rewriting": 49614,
    "\u0120Creep": 41682,
    "\u0120temporary": 8584,
    "\u0120Gerrard": 49314,
    "\u0120Tools": 20003,
    "Tr": 2898,
    "Skill": 35040,
    "\u0120anim": 2355,
    "\u0120whispers": 37806,
    "GW": 33191,
    "\u0120shotguns": 47392,
    "628": 48200,
    "eds": 5379,
    "enforcement": 44976,
    "UB": 10526,
    "\u0120famed": 28331,
    "\u00c2": 126,
    "\u0120ruins": 20073,
    "crit": 22213,
    "\u0120fold": 5591,
    "Hi": 17250,
    "field": 3245,
    "brids": 40637,
    "atched": 14265,
    "\u0120Archer": 19333,
    "png": 11134,
    "\u0120lux": 10632,
    "\u0120dwarf": 24603,
    "\u0120convers": 3453,
    "\u0120Netanyahu": 17104,
    "\u0120assumptions": 14895,
    "etheless": 12845,
    "\u0120Pyro": 44954,
    "\u0120includ": 846,
    "Dat": 27354,
    "\u0120LU": 50168,
    "\u0120Jasper": 42992,
    "245": 22995,
    "\u01201400": 36641,
    "\u0120resists": 47786,
    "service": 15271,
    "eni": 43850,
    "assemb": 34455,
    "Ap": 25189,
    "\u0120Tele": 14318,
    "\u0120dime": 37062,
    "INESS": 44180,
    "\u0120index": 6376,
    "\u0120INTER": 23255,
    "\u0120Bel": 3944,
    "\u0120actively": 10630,
    "500": 4059,
    "ch": 354,
    "\u0120assessing": 24171,
    "\u0120football": 4346,
    "duc": 6077,
    "ateg": 2397,
    "\u0120UAE": 29367,
    "\u0120Organic": 31734,
    "\u0120Karn": 31625,
    "schild": 35058,
    "\u0120GOP": 6796,
    "\u0120Kepler": 40294,
    "661": 47159,
    "angers": 6606,
    "\u0120Dick": 11740,
    "\u0120uniform": 8187,
    "\u0120Retirement": 41863,
    "\u0120therapeutic": 21546,
    "\u0120Abby": 49220,
    "eers": 47619,
    "\u0120Kam": 12670,
    "acea": 44977,
    "\u0120geography": 27876,
    "\u0120Vil": 34037,
    "gru": 48929,
    "\u0120Future": 10898,
    "\u0120heritage": 15012,
    "chens": 29937,
    "esses": 44667,
    "Credits": 42855,
    "Mach": 49999,
    "\u0120charity": 11016,
    "\u0120welfare": 9490,
    "\u0120Rab": 28559,
    "DeliveryDate": 39749,
    "\u0120ABOUT": 33478,
    "\u0120paint": 7521,
    "\u0120Proc": 31345,
    "Russell": 46325,
    "\u0120member": 2888,
    "Italian": 45696,
    "\u0120Worse": 36855,
    "\u0120sympt": 6585,
    "cha": 11693,
    "\u0120reject": 4968,
    "Correct": 42779,
    "\u0120entangled": 47446,
    "\u0120grin": 16770,
    "\u0120empt": 23909,
    "\u0120Kut": 40323,
    "\u0120Jeanne": 48202,
    "\u0120Years": 13212,
    "\u0120__": 11593,
    "els": 1424,
    "\u0120Tip": 23095,
    "\u0120May": 1737,
    "la": 5031,
    "\u0120Agenda": 37029,
    "\u0120Different": 20615,
    "rily": 28904,
    "\u0120secretary": 7705,
    "piring": 12987,
    "\u0120Outlook": 30096,
    "\u0120supposed": 4385,
    "\u0120Tre": 4700,
    "devices": 42034,
    "\u0120Prim": 11460,
    "\u0120redacted": 44740,
    "\u01201930": 15533,
    "Ent": 14539,
    "\u0120streaks": 48356,
    "pocket": 31991,
    "Li": 32304,
    "\u0120Market": 5991,
    "\u0120Nicaragua": 38252,
    "htaking": 34148,
    "\u0120peel": 31738,
    "\u0120execut": 3121,
    "\u0120mirror": 10162,
    "\u0120reprint": 26589,
    "pose": 3455,
    "\u0120authored": 33941,
    "\u0120Led": 22964,
    "Working": 28516,
    "ost": 455,
    "stration": 12401,
    "ceptive": 25867,
    "pn": 21999,
    "\u01203000": 20343,
    "\u0120ref": 1006,
    "\u0120Hunters": 31196,
    "aid": 1698,
    "\u0120forced": 4137,
    "\u0120batteries": 13591,
    "Episode": 23758,
    "\u0120Cathedral": 32536,
    "\u0120arcade": 27210,
    "layout": 39786,
    "\u0120relief": 8259,
    "\u0120gin": 39733,
    "\u0120Latvia": 35794,
    "\u0120\"$": 17971,
    "\u00e3\u0125\u00aa": 12675,
    "319": 35175,
    "\u0120pigs": 22333,
    "\u0120Hispanic": 16949,
    "\u0120disband": 35758,
    "\u0120Input": 23412,
    "\u0120contribute": 8676,
    "\u0120Edit": 5312,
    "\u0120Buffalo": 14905,
    "\u0120cabal": 47548,
    "<?": 47934,
    "alf": 1604,
    "\u0120Transactions": 46192,
    "\u0120Wra": 27323,
    "\u0120Travel": 13524,
    "Newsletter": 33031,
    "\u0120\u00e9": 16268,
    "\u0120spinach": 39129,
    "\u0120Prest": 24158,
    "\u0120Hots": 41239,
    "\u0120veto": 18860,
    "\u0120fared": 43688,
    "\u0120Ast": 8304,
    "\u0120dign": 13469,
    "\u0120Trad": 8397,
    "\u0120vol": 2322,
    "\u0120Resist": 36136,
    "\u0120toggle": 19846,
    "\u0120Fou": 34296,
    "\u0120remarks": 10252,
    "\u0120medals": 28057,
    "\u0120fossils": 34066,
    "\u0120prescription": 15077,
    "ashi": 12144,
    "\u0120parse": 21136,
    "\u0120Operations": 16205,
    "\u0120majors": 26353,
    "\u0120<[": 29342,
    "\u0120Degree": 34486,
    "About": 8585,
    "\u0120sem": 5026,
    "\u0120downstairs": 34624,
    "\u0120Cabin": 16804,
    "ipation": 25857,
    "\u0120derailed": 48769,
    "\u0120trunk": 21427,
    "\u0120mythical": 37071,
    "ihara": 45902,
    "bean": 14289,
    "\u0120Beans": 49740,
    "Pope": 46172,
    "urches": 12730,
    "\u0120Prosper": 41342,
    "\u0120Ens": 48221,
    "\u0120inline": 26098,
    "\u0120Brass": 32309,
    "\u0120Directions": 47426,
    "\u0120redund": 22916,
    "oliath": 43009,
    "\u0120COVER": 47902,
    "Rev": 18009,
    "\u0120retri": 37715,
    "\u0120guidelines": 9949,
    "ird": 1447,
    "\u0120Il": 13778,
    "\u0120shows": 2523,
    "\u0120Wide": 23399,
    "mia": 20730,
    "clusive": 5731,
    "say": 16706,
    "plin": 46982,
    "President": 10364,
    "chan": 3147,
    "\u0120Vietnam": 10836,
    "\u0120HOU": 29068,
    "ERROR": 24908,
    "\u0120goods": 7017,
    "\u0120Nanto": 47614,
    "ophob": 13253,
    "Ac": 12832,
    ".}": 44587,
    "urally": 20221,
    "eteen": 34026,
    "ported": 9213,
    "\u0120seventy": 31989,
    "Frank": 17439,
    "\u0120Nancy": 18496,
    ">>>>": 16471,
    "recy": 20568,
    "SourceFile": 37226,
    "\u0120UTF": 41002,
    "\u0120halted": 27771,
    "iss": 747,
    "\u0120smokes": 44589,
    "\u0120Loll": 46478,
    "\u0120entered": 5982,
    "\u0120bracelet": 42893,
    "\u0120390": 33882,
    "\u0120manifold": 48048,
    "\u0120Daw": 17552,
    "c": 66,
    "\u0120172": 23120,
    "\u0120Dys": 46876,
    "\u0120Uncharted": 48272,
    "\u0120disposition": 24665,
    "\u0120UFOs": 49863,
    "\u0120excav": 22659,
    "\u0120accrued": 43802,
    "andem": 30025,
    "\u0120Circus": 46658,
    "\u0120Question": 18233,
    "\u0120Greenberg": 46702,
    "\u0120fascism": 31037,
    "Amy": 40797,
    "\u0120Stefan": 28842,
    "\u0120Shakespeare": 22197,
    "\u0120victory": 5373,
    "Syria": 40029,
    "\u0120Renault": 44083,
    "\u0120written": 3194,
    "\u0120sidewalk": 24058,
    "\u0120deadline": 12508,
    "\u0120catering": 39211,
    "ongyang": 20659,
    "\u0120inquiries": 23538,
    "\u0120Kendall": 36779,
    "\u0120rack": 19127,
    "ategor": 47467,
    "\u0120Lord": 4453,
    "\u0120Berger": 33337,
    "\u0120conceded": 24684,
    "semble": 15140,
    "\u0120Pitt": 10276,
    "XM": 37643,
    "eteria": 39622,
    "\u0120rebounds": 18841,
    "eret": 31229,
    "\u0120Haven": 21425,
    "\u0120Neuro": 13782,
    "\u0120Uriel": 49214,
    "\u0120Dat": 16092,
    "ds": 9310,
    "\u0120Tokens": 47365,
    "\u0120Trout": 42542,
    "IGN": 16284,
    "\u0120QB": 16135,
    "\u0120coli": 40395,
    "\u0120fil": 1226,
    "endor": 18738,
    "\u0120precision": 15440,
    "\u0120short": 1790,
    "\u0120DC": 6257,
    "\u0120Amanda": 23040,
    "\u0120Sam": 3409,
    "itled": 7803,
    "027": 44698,
    "\u0120death": 1918,
    "\u0120architectural": 27070,
    "\u0120astronaut": 33779,
    "\u0120genetic": 8513,
    "\u0120\u00e2\u013e": 14519,
    "ilogy": 19202,
    "\u0120Ecology": 39978,
    "\u0120cheaper": 11721,
    "ivas": 38630,
    "\u0120experiencing": 13456,
    "onga": 44294,
    "Roy": 32027,
    "\u0120Relic": 43437,
    "\u0120unintention": 30439,
    "otype": 8690,
    "\u0120brightly": 35254,
    "\u0120chaotic": 23458,
    "\u0120($": 7198,
    ")(": 5769,
    "35": 2327,
    "Love": 18565,
    "\u0120rg": 48670,
    "\u0120cunning": 34218,
    "\u0120retire": 8058,
    "\u0120GRE": 19928,
    "\u0120minimized": 49491,
    "jug": 31761,
    "COL": 25154,
    "\u0120COMM": 22240,
    "\u0120Startup": 40472,
    "\u0120cruiser": 35239,
    "\u0120Rohing": 32571,
    "\u0120\u00e3\u0124\u00b5": 38390,
    "\u0120Das": 29533,
    "Similarly": 28039,
    "ided": 1384,
    "\u0120Detroit": 8488,
    "\u0120DID": 35697,
    "\u0120runners": 19323,
    "\u0120traits": 12796,
    "\u0120Township": 32115,
    "\u0120NF": 41288,
    "\u0120Plum": 43178,
    "\u0120thwarted": 44200,
    "\u0120Le": 1004,
    "\u0120yo": 27406,
    "iny": 3541,
    "\u0120noon": 19613,
    "\u0120Tours": 42998,
    "\u0120HQ": 25112,
    "a": 64,
    "\u0120placement": 13127,
    "Brit": 17959,
    "\u0120UK": 3482,
    "med": 1150,
    "\u0120Cemetery": 35637,
    "\u0120accommodating": 49389,
    "Float": 43879,
    "Susan": 45842,
    "\u0120cheeks": 25839,
    "\u0120beast": 13824,
    "\u0120314": 34085,
    "\u0120reserve": 11515,
    "\u0120shrink": 22085,
    "\u0120hashing": 49544,
    "\u0120camouflage": 37353,
    "\u0120PC": 4217,
    "\u0120Blink": 41732,
    "knit": 47095,
    "\u0120disturbing": 14851,
    "\u0120Directory": 27387,
    "\u0120establishes": 30742,
    "digy": 41923,
    "\u0120Krugman": 46311,
    "LT": 27734,
    "STRUCT": 46126,
    "\u0120getting": 1972,
    "\u0120coworkers": 38945,
    "Charge": 50044,
    "\u0120FULL": 34958,
    "\u0120ropes": 31001,
    "hari": 49573,
    "istry": 4592,
    "\u0120laptop": 13224,
    "Lab": 17822,
    "\u0120happening": 5836,
    "itudinal": 29121,
    "issa": 13808,
    "\u0120Nat": 14393,
    "ifted": 21715,
    "\u0120shuffle": 36273,
    "odder": 35346,
    "\u0120Serbia": 27229,
    "\u0120fruit": 8234,
    "\u0120Partners": 14205,
    "\u0120rud": 28906,
    "\u00c3\u013d\u00c3\u013d": 48396,
    "\u0120Breitbart": 19923,
    "param": 17143,
    "\u0120Cl": 1012,
    "mer": 647,
    "fledged": 45223,
    "\u0120appe": 35787,
    "\u01201440": 49557,
    "\u0120riders": 13750,
    "\u0120galactic": 44280,
    "\u0120positioning": 22097,
    "\u0120diminished": 23476,
    "table": 11487,
    "------": 23031,
    "\u0120Rosen": 15564,
    "\u0120Sands": 35359,
    "ong": 506,
    "very": 548,
    "\u0120Sach": 20678,
    "\u0120petitions": 32890,
    "\u0120Shift": 15576,
    "\u0120tunnel": 13275,
    "\u0120vis": 1490,
    "\u0120laced": 49699,
    "\u0120FR": 8782,
    "\u0120Tou": 23359,
    "\u0120choked": 39283,
    "\u0120chests": 34572,
    "\u0120gre": 10536,
    "\u0120nonex": 36196,
    "ffe": 16658,
    "\u0120particularly": 3573,
    "\u0120kindergarten": 38717,
    "iron": 1934,
    "braska": 17088,
    "endra": 48286,
    "vu": 40939,
    "\u0120Russians": 13234,
    "\u0120Mecca": 35247,
    "\u0120drowning": 32249,
    "\u00be": 122,
    "\u0120Account": 10781,
    "\u0120Pages": 28221,
    "msg": 19662,
    "\u0120reused": 46823,
    "\u0131": 237,
    "-+-+-+-+": 42744,
    "NN": 6144,
    "\u0120cou": 2284,
    "enegger": 44028,
    "\u0120orbit": 13066,
    "eared": 3380,
    "entry": 13000,
    "\u0120Spectrum": 27217,
    "\u0120profession": 7573,
    "Focus": 34888,
    "\u0120reuse": 32349,
    "\u0120formations": 30648,
    "\u0120Mech": 18202,
    "\u0120confident": 6563,
    "definition": 46758,
    "DX": 36227,
    "\u0120nostalg": 22314,
    "zanne": 38395,
    "\u0120Human": 5524,
    "ricular": 41001,
    "\u0120microphone": 21822,
    "Ear": 8419,
    "\u0120mill": 3939,
    "\u0120Indones": 12638,
    "\u0120transistor": 49176,
    "method": 24396,
    "\u0120intended": 5292,
    "\u0120styling": 35517,
    "\u0120Conflict": 27863,
    "\u0120separation": 14139,
    "\u0120Quarter": 17264,
    "\u0120TED": 38436,
    "free": 5787,
    "\u0120Kaiser": 32670,
    "draw": 19334,
    "\u0120transform": 6121,
    "641": 42759,
    "\u0120tirelessly": 47905,
    "hair": 27108,
    "\u0120Connection": 26923,
    "\u0120Bro": 2806,
    "OGR": 49656,
    "\u0120upright": 24826,
    "Cap": 15610,
    "\u0120hey": 17207,
    "Safety": 45372,
    ":[": 33250,
    "\u0120ideally": 30274,
    "\u0120Mart": 3981,
    "\u0120miscon": 27849,
    "\u0120Rivers": 18280,
    "cture": 48715,
    "orth": 1506,
    "ensive": 2021,
    "\u0120400": 7337,
    "OY": 21414,
    "\u0120Threat": 25238,
    "\u0120Competition": 27348,
    "\u0120177": 26607,
    "gn": 4593,
    "violence": 37502,
    "Hong": 48559,
    "\u012083": 9698,
    "cy": 948,
    "\u0120potassium": 33156,
    "Jean": 38248,
    "\u0120shelters": 23629,
    "\u0120Eleven": 37339,
    "405": 26598,
    "\u0120Increases": 23920,
    "\u0120inauguration": 23166,
    "grain": 48270,
    "aroo": 38049,
    "cle": 2375,
    "\u0120donate": 16565,
    "\u0120Hawking": 50220,
    "\u0120lesson": 11483,
    "\u0120Toledo": 36026,
    "metadata": 38993,
    "666": 27310,
    "909": 44675,
    "\u0120psychotic": 37162,
    "\u01201993": 9656,
    "\u0120advertisers": 27835,
    "\u0120cured": 30703,
    "\u0120Anna": 11735,
    "\u0120Defender": 25533,
    "\u0120amplify": 47366,
    "\u0120desperately": 16459,
    "\u0120iodine": 50047,
    "ico": 3713,
    "\u0120neighbors": 12020,
    "\u0120sentient": 36834,
    "\u0120Playing": 23911,
    "Atlantic": 41120,
    "\u0120Avengers": 19845,
    "Maps": 47010,
    "ament": 3263,
    "\u0120encrypt": 34117,
    "\u0120Superior": 22953,
    "\u0120THE": 3336,
    "\u0120surprise": 5975,
    "\u0120detectable": 44187,
    "\u0120poop": 40125,
    "\u0120immersion": 36375,
    "\u0120fur": 9230,
    "\u0120Tuls": 33219,
    "timer": 45016,
    "cess": 919,
    "cal": 9948,
    "\u0120educator": 45562,
    "\u0120appears": 3568,
    "\u0120stranded": 28553,
    "\u0120relics": 40970,
    "her": 372,
    "\u0120Curt": 19569,
    "\u0120with": 351,
    "\u0120Moon": 6869,
    "\u0120Oliver": 15416,
    "\u0120PCB": 28700,
    "\u0120Oswald": 34374,
    "\u0120inhibits": 49543,
    "\u0120dug": 18735,
    "And": 1870,
    "oooooooooooooooo": 49135,
    "\u0120rightly": 22956,
    "\u0120Barron": 47412,
    "\u0120608": 39084,
    "\u0120scientist": 11444,
    "dk": 34388,
    "\u0120Assassin": 21401,
    "\u0120Aviation": 25186,
    "\u0120lyrics": 15844,
    "edo": 24757,
    "\u0120Halifax": 34438,
    "\u0120Ges": 45371,
    "iza": 23638,
    "ussian": 31562,
    "aaa": 46071,
    "Ar": 3163,
    "Plex": 46383,
    "\u0120plun": 19324,
    "ondon": 3391,
    "arson": 12613,
    "querade": 33357,
    "\u00c3\u0142": 24247,
    "Att": 8086,
    "\u0120chatter": 37303,
    "\u0120steered": 49300,
    "\u0120poisonous": 32199,
    "\u0120Ideas": 35365,
    "REDACTED": 45999,
    "inguishable": 41726,
    "\u0120crowded": 18012,
    "\u0120upscale": 44918,
    "onite": 46285,
    "\u0120dw": 43756,
    "\"": 1,
    "rel": 2411,
    "\u0120S": 311,
    "\u0120Matte": 38789,
    "\u0120XP": 11961,
    "Minecraft": 39194,
    "\u0120rapp": 29106,
    "\u0120surroundings": 21334,
    "CT": 4177,
    "\u0120poisoning": 22475,
    "\u0120parents": 3397,
    "Collection": 36307,
    "\u0120ample": 23933,
    "\u0120surviving": 16997,
    "\u0120robust": 12373,
    "Rep": 6207,
    "Layout": 32517,
    "isp": 8802,
    "\u0120Indiana": 10278,
    "\u0120sailors": 29996,
    "ginx": 42822,
    "EngineDebug": 49781,
    "\u0120Hau": 49696,
    "\u0120Torrent": 43399,
    "Ext": 11627,
    "\u0120Mormon": 13164,
    "\u0120volunte": 7105,
    "\u0120directions": 11678,
    "\u0120babys": 46711,
    "\u0120rapt": 38404,
    "\u0120range": 2837,
    "Repl": 39232,
    "\u0120Mel": 5616,
    "\u0120Pork": 44062,
    "\u0120vig": 10539,
    "\u0120packing": 24157,
    "\u0120NJ": 18732,
    "\u0120guiActiveUnfocused": 30210,
    "gd": 21287,
    "\u0120Actual": 33520,
    "uesday": 3322,
    "anne": 21952,
    "\u0120netted": 49403,
    "tained": 4644,
    "reet": 2871,
    "\u0120keyword": 21179,
    "\u0120occur": 3051,
    "\u0120steak": 26320,
    "\u0120til": 21502,
    "UTC": 17429,
    "\u0120Guantanamo": 34378,
    "\u0120obfusc": 44080,
    "\u0120Bolshevik": 48789,
    "\u0120Privacy": 16777,
    "fest": 23411,
    "\u0120ide": 1405,
    "\u0120Ste": 2441,
    "\u0120memoir": 24649,
    "ff": 487,
    "\u0120Mich": 2843,
    "\u0120Gi": 8118,
    "\u0120USE": 23210,
    "pretty": 37784,
    "\u0120promoter": 32972,
    "OSH": 45704,
    "archives": 48814,
    "\u0120Mad": 4627,
    "\u0120northwestern": 48164,
    "\u0120Tracker": 26885,
    "\u0120branches": 13737,
    "\u0120Kimber": 36015,
    "artz": 13636,
    "BD": 14529,
    "\u0120clone": 17271,
    "\u0120strip": 10283,
    "\u0120Honor": 21071,
    "\u0120Boe": 12415,
    "uter": 11894,
    "\u0120onward": 38232,
    "EB": 30195,
    "ux": 2821,
    "\u0120Kind": 14927,
    "gart": 41651,
    "\u0120Graph": 29681,
    "inf": 10745,
    "Below": 21106,
    "\u0120oh": 11752,
    "\u0120108": 15495,
    "\u0120dx": 44332,
    "podcast": 46032,
    "iating": 26336,
    "\u0120angels": 21981,
    "MAC": 44721,
    "\u0120particles": 13166,
    "\u0120transformation": 13389,
    "\u0120Gow": 41396,
    "\u0120hepatitis": 37439,
    "\u0120Bundesliga": 44323,
    "\u0120cemetery": 27316,
    "\u0120opposite": 6697,
    "\u0120Chi": 21380,
    "\u0120Kremlin": 19077,
    "ullah": 38665,
    "\u0120Runtime": 43160,
    "\u0120health": 1535,
    "\u0120peaked": 33948,
    "adia": 29523,
    "\u0120737": 37517,
    "\u0120Joey": 26154,
    "umbling": 14739,
    "\u0120purchaser": 39122,
    "\u0120Orche": 30369,
    "\u0120counted": 14789,
    "\u0120Might": 24213,
    "Marie": 44507,
    "chester": 35983,
    "\u0120Daniel": 7806,
    "uct": 4782,
    "\u0120Duchess": 40289,
    "induced": 17223,
    "\u0120ecosystems": 30020,
    "stanbul": 24179,
    "\u0120Influ": 46631,
    "FORE": 30818,
    "Fall": 24750,
    "\u0120cameo": 40794,
    "\u0120reproduced": 31759,
    "iners": 21257,
    "\u0120sheds": 40904,
    "\u0120Outbreak": 49139,
    "six": 19412,
    "ent": 298,
    "\u0120trace": 12854,
    "\u0120snap": 11495,
    "\u0120Rams": 16077,
    "\u0120Equality": 31428,
    "ocular": 37320,
    "\u0120volunteered": 32730,
    "Dist": 20344,
    "\u0120Meat": 19145,
    "\u0120Daredevil": 42390,
    "\u0120gay": 5650,
    "Director": 28702,
    "\u0120amusement": 30184,
    "reb": 34806,
    "\u0120comp": 552,
    "gorithm": 42289,
    "essional": 12743,
    "\u0120Symbol": 38357,
    "\u0120nesting": 46282,
    "\u0120synd": 11150,
    "\u0120Wyatt": 39017,
    "\u0120Hollow": 18710,
    "\u0120ringing": 32333,
    "\u0120heading": 9087,
    "\u0120Still": 7831,
    "\u0120piercing": 30662,
    "\u0120wed": 29445,
    "rad": 6335,
    "\u0120mk": 33480,
    "host": 4774,
    "\u0120administrators": 18618,
    "\u0120Manual": 17969,
    "\u0120pixel": 17465,
    "\u0120superv": 29745,
    "ols": 10220,
    "\u0120ax": 7877,
    "bt": 18347,
    "\u0120forth": 6071,
    "amination": 24979,
    "mk": 28015,
    "\u0120closet": 21615,
    "\u0120associate": 11602,
    "130": 12952,
    "\u0120trap": 12840,
    "\u0120Labrador": 45246,
    "\u0120turnaround": 34217,
    "\u0120reserv": 5463,
    "Occup": 47658,
    "rect": 2554,
    "test": 9288,
    "umbing": 28149,
    "\u0120Portsmouth": 48823,
    "1000": 12825,
    "\u0120recogn": 3018,
    "\u0120Blind": 24507,
    "\u0120balloons": 35485,
    "\u0120Templ": 31711,
    "\u0120mayors": 44660,
    "\u0120assistants": 29488,
    "\u01201976": 15408,
    "vision": 10178,
    "\u0120disliked": 43252,
    "\u0120Items": 17230,
    "\u0120Friend": 9182,
    "\u0120wart": 32943,
    "\u0120persist": 21160,
    "\u0120dyed": 50052,
    "traditional": 36380,
    "\u0120newsp": 6043,
    "\u0120Mayor": 10106,
    "\u0120Calls": 27592,
    "ef": 891,
    "\u0120Sterling": 23647,
    "\u0120extensive": 7667,
    "\u0120misc": 12747,
    "\u0120unbeliev": 20554,
    "ruit": 4872,
    "\u0120monop": 15848,
    "\u0120Platinum": 23851,
    "\u0120moss": 42853,
    "\u0120stocks": 14420,
    "reshold": 10126,
    "\u0120metres": 18985,
    "onis": 43524,
    "\u0120Craw": 20177,
    "\u0120Constantin": 41766,
    "\u0120Out": 3806,
    "\u0120Ala": 42682,
    "otherapy": 18952,
    "Neal": 40581,
    "title": 7839,
    "\u0120Orig": 6913,
    "alias": 26011,
    "\u0120hang": 8181,
    "\u0120Makoto": 40627,
    "\u0120Matthew": 9308,
    "\u0120gadget": 42892,
    "\u01202022": 33160,
    "\u0120smart": 4451,
    "yu": 24767,
    "adays": 20544,
    "\u0120analytics": 23696,
    "\u0120fungus": 39526,
    "\u0120intestinal": 32031,
    "\u0120Payton": 49338,
    "ersion": 6900,
    "\u00e0\u00b9": 31479,
    "ividual": 1896,
    "\u0120expans": 20628,
    "\u0120genuinely": 17170,
    "\u0120witnessing": 31121,
    "\u0120Haj": 29399,
    "ml": 4029,
    "\u0120154": 24235,
    "as": 292,
    "\u0125": 225,
    "\u0120inter": 987,
    "\u0120Cloak": 36558,
    "\u0120Observ": 19243,
    "ors": 669,
    "\u0120planet": 5440,
    "\u0120Fighters": 29165,
    "out": 448,
    "JB": 47858,
    "\u0120Gohan": 45281,
    "nard": 40542,
    "\u0120penalties": 12970,
    "\u0120palace": 20562,
    "\u0120guitar": 10047,
    "haw": 26615,
    "\u0120Tickets": 26878,
    "arkable": 45543,
    "\u0120age": 2479,
    "uating": 11927,
    "\u0120Protection": 9985,
    "\u0120Inner": 24877,
    "\u0120SCHOOL": 35883,
    "\u0120collect": 2824,
    "\u0120assigns": 46974,
    "\u0120Range": 13667,
    "\u0120for": 329,
    "\u0120pardon": 27322,
    "itsch": 48279,
    "\u0120tre": 2054,
    "\u0120intact": 16572,
    "\u0120blast": 11975,
    "\u0120teammate": 20052,
    "\u012052": 6740,
    "\u0120reinforced": 23738,
    "Mad": 18454,
    "\u0120interacts": 44020,
    "\u0120unnoticed": 33755,
    "\u0120\u00d8\u00a7\u00d9\u0126": 28981,
    "\u00e5\u012f": 39355,
    "\u0120curiously": 43211,
    "\u0120plentiful": 39976,
    "\u0120Books": 13661,
    "\u0120Soft": 8297,
    "play": 1759,
    "gas": 22649,
    "Arthur": 29874,
    "\u0120exceeds": 21695,
    "\u0120pilgrimage": 36068,
    "~~~~": 8728,
    "\u0120Bare": 38234,
    "rox": 13907,
    "\u0120garden": 11376,
    "\u0120century": 4289,
    "\u0120thriving": 27723,
    "\u0120expand": 4292,
    "orb": 27688,
    "\u0120screenshots": 23322,
    "Give": 23318,
    "\u0120civ": 36317,
    "shown": 42579,
    "\u0120Additional": 15891,
    "\u0120antidepress": 27293,
    "\u0120stamped": 28305,
    "\u0120Understand": 45010,
    "\u0120LONG": 44533,
    "\u0120820": 48964,
    "\u0120Gary": 10936,
    "Small": 18712,
    "ellow": 5037,
    "\u0120affidavit": 23942,
    "iu": 16115,
    "\u0120Branch": 20551,
    "\u0120Snapchat": 31546,
    "radical": 42325,
    "\u0120Spear": 27836,
    "Living": 36376,
    "Prof": 15404,
    "\u0120HIM": 45909,
    "\u0120traditions": 15421,
    "\u0120slideshow": 48828,
    "\u0120Polit": 7793,
    "\u0120Accessed": 48547,
    "\u0120deputies": 21861,
    "\u0120directories": 29196,
    "\u0120locking": 22656,
    "\u0120mol": 18605,
    "\u0120Flavoring": 49813,
    "strength": 41402,
    "\u0120unsettling": 38192,
    "\u0120Subscribe": 19808,
    "\u0120Basics": 45884,
    "\u0120Ports": 30824,
    "inatory": 23132,
    "PC": 5662,
    "\u0120Prof": 4415,
    "next": 19545,
    "\u0120mutually": 26519,
    "\u0120Kinnikuman": 43010,
    "jj": 41098,
    "\u00c2\u0142\u00c2\u0142\u00c2\u0142\u00c2\u0142\u00c2\u0142\u00c2\u0142\u00c2\u0142\u00c2\u0142\u00c2\u0142\u00c2\u0142\u00c2\u0142\u00c2\u0142\u00c2\u0142\u00c2\u0142\u00c2\u0142\u00c2\u0142": 39172,
    "electric": 31067,
    "\u0120SN": 11346,
    "hibited": 44139,
    "\u0120bend": 19396,
    "\u0120advisor": 20685,
    "\u0120Crossing": 31910,
    "\u0120simulations": 27785,
    "\u0120tags": 15940,
    "\u0120produced": 4635,
    "\u0120Bees": 46698,
    "\u0120specializes": 29786,
    "\u0120configurations": 25412,
    "\u0120Messages": 43534,
    "\u0120bipartisan": 20953,
    "\u0120PROT": 48006,
    "\u0120scripture": 36739,
    "ersed": 20204,
    "\u0120prevention": 14196,
    "\u0120Hannity": 35368,
    "\u0120Barbara": 16685,
    ">\"": 24618,
    "Queue": 34991,
    "\u0120semester": 24878,
    "Arizona": 40732,
    "\u0120Darrell": 44882,
    "\u0120debris": 16468,
    "Train": 44077,
    "mean": 32604,
    "\u0120Gu": 1962,
    "\u0120measurable": 40757,
    "\u0120Expand": 49368,
    "osed": 1335,
    "\u0120stable": 8245,
    "\u0120panel": 6103,
    "iving": 1412,
    "\u0120activist": 11276,
    "MM": 12038,
    "olphins": 16547,
    "\u0120displaced": 20085,
    "\u0120embarked": 36385,
    "\u0120PLA": 45838,
    "1971": 41208,
    "Transaction": 48720,
    "\u0120Robertson": 23590,
    "\u0120Cambridge": 14457,
    "\u0120sal": 3664,
    "rict": 2012,
    "\u0120cuisine": 33072,
    "ses": 8448,
    "727": 47760,
    "\u0120greed": 25474,
    "\u0120brut": 8938,
    "bilt": 34508,
    "becue": 31927,
    "Disable": 48893,
    "\u0120Presbyterian": 44150,
    "\u0120Cyprus": 27885,
    "\u0120drink": 4144,
    "\u0120responsibilities": 15171,
    "\u0120sought": 7194,
    "\u0120Git": 15151,
    "\u0120Click": 6914,
    "\u0120Parents": 28231,
    "\u0120Forever": 28285,
    "uably": 14632,
    "itte": 2654,
    "fg": 40616,
    "\u0120Economist": 36619,
    "\u0120epic": 12191,
    "\u0120beaches": 25585,
    "atana": 43777,
    "\u0120efforts": 4040,
    "venants": 43773,
    "\u0120desperation": 31265,
    "\u0120residency": 27308,
    "Ca": 24334,
    "\u0120preview": 12714,
    "i": 72,
    "JO": 45006,
    "\u0120Cod": 18720,
    "itage": 10208,
    "\u0120Cain": 28370,
    "Cour": 25877,
    "\u0120remaining": 5637,
    "\u0120Components": 36109,
    "\u0120performs": 17706,
    "\u0120annual": 5079,
    "requ": 8897,
    "\u0120Apache": 24843,
    "\u0120generate": 7716,
    "ity": 414,
    "\u0120outfit": 16313,
    "IB": 9865,
    "\u0120fine": 3734,
    "\u0120is": 318,
    "\u0120liquidity": 31061,
    "REP": 35316,
    "\u0120chimpan": 36064,
    "\u0120stereotyp": 29248,
    "d": 67,
    "\u0120ow": 12334,
    "albeit": 45781,
    "Still": 9590,
    "\u0120figuring": 22714,
    "\u0120Haste": 47708,
    "\u01201600": 26143,
    "itted": 2175,
    "Except": 30313,
    "\u0120Mat": 6550,
    "\u0120Sporting": 31790,
    "close": 19836,
    "\u0120\u00e2\u0138": 11019,
    "zer": 9107,
    "indu": 10259,
    "\u0120Viz": 36339,
    "\u012050": 2026,
    "post": 7353,
    "\u0120mandate": 14598,
    "\u0120inspecting": 49889,
    "\u0120wildfire": 44508,
    "\u0120booming": 32017,
    "phal": 27451,
    "nian": 44516,
    "irlfriend": 9872,
    "orio": 40974,
    "\u0120round": 2835,
    "\u0120Max": 5436,
    "ichen": 41437,
    "\u0120Name": 6530,
    "\u0120Estimated": 47737,
    "\u0120demonstrations": 18721,
    "\u0120Lois": 42879,
    "%);": 49563,
    "\u0120CrossRef": 42750,
    "aii": 42648,
    "\u0120clearer": 22363,
    "754": 41874,
    "insula": 16495,
    "erence": 1945,
    "\u0120Management": 8549,
    "fx": 21373,
    "mann": 9038,
    "\u0120Cree": 45699,
    "\u0120proble": 1369,
    "351": 35273,
    "\u0120Wi": 11759,
    "\u0120anarchism": 41661,
    "\u0120Small": 10452,
    "\u0120outcome": 8055,
    "abe": 11231,
    "\u0120prepaid": 46851,
    "\u0120borrowers": 31617,
    "\u0120NBN": 40841,
    "\u0120repair": 9185,
    "\u0120Sum": 5060,
    "Break": 31737,
    "writer": 16002,
    "\u0120THERE": 34702,
    "\u0120Sutton": 39964,
    "\u0120Dialogue": 34709,
    "\u0120contamination": 22733,
    "estern": 3330,
    "Connector": 34525,
    "tics": 14094,
    "\u0120mel": 7758,
    "\u0120noble": 15581,
    "uni": 35657,
    "CLE": 29931,
    "\u0120queries": 20743,
    "\u0120Boys": 17528,
    "TAG": 42197,
    "\u0120Results": 15691,
    "lights": 8091,
    "\u0120Finger": 39454,
    "or": 273,
    "\u0120ignorant": 20109,
    "774": 47582,
    "\u0120unto": 12722,
    "\u0120hiatus": 37009,
    "\u0120social": 1919,
    "anguages": 33213,
    "\u0120ASS": 24994,
    "\u0120ISBN": 32429,
    "\u0120manoeuv": 42618,
    "\u0120hometown": 20994,
    "\u0120our": 674,
    "female": 24724,
    "\u0120Jonathan": 11232,
    "\u0120entry": 5726,
    "\u0120tenth": 24395,
    "\u0120stricter": 36602,
    "\u0120encamp": 48020,
    "\u0120Rue": 45363,
    "\u0120Prism": 35417,
    "bugs": 32965,
    "ortunately": 4690,
    "oln": 10875,
    "\u0120mere": 5019,
    "\u0120Fle": 12005,
    "\u0120Communism": 39627,
    "\u0120Schwar": 29726,
    "\u0120hurricanes": 40370,
    "\u0120Alternatively": 25929,
    "!\"": 2474,
    "\u0120aest": 14606,
    "\u0120Breakfast": 32175,
    "\u0120M": 337,
    "\u0120kilometres": 23990,
    "\u0120TYPE": 41876,
    "\u0120relaxation": 34205,
    "fat": 17359,
    "ickr": 18994,
    "\u0120SVG": 45809,
    "\u0120maneuver": 20186,
    "\u0120Awesome": 25020,
    "\u0120Against": 12914,
    "\u0120questionnaire": 28301,
    "\u0120gold": 3869,
    "ARCH": 31315,
    "\u0120Brom": 31455,
    "\u0120Molly": 30236,
    "\u0120applicant": 16919,
    "\u0120mur": 4636,
    "\u0120Mex": 4413,
    "\u0120jud": 2553,
    "\u0120Cu": 14496,
    "\u0120chrome": 32030,
    "\u0120drew": 9859,
    "\u0120Mongo": 42591,
    "\u0120champions": 7827,
    "\u0120stamina": 32312,
    "\u0120Lone": 23405,
    "\u0120how": 703,
    "ervation": 13208,
    "\u0120clueless": 44865,
    "\u0120oranges": 48389,
    "ocon": 36221,
    "\u0120newcomer": 41422,
    "Dur": 36927,
    "=]": 48874,
    "\u0120bowed": 35737,
    "Mess": 36479,
    "\u0120board": 3096,
    "Multi": 29800,
    "auntlet": 32633,
    "\u0120turtle": 28699,
    "ons": 684,
    "FOR": 13775,
    "MAR": 40569,
    "\u0120hammer": 15554,
    "\u0120unauthorized": 22959,
    "\u0120Det": 4614,
    "\u0120spokeswoman": 12262,
    "\u0120Home": 5995,
    "mates": 7300,
    "wen": 21006,
    "dh": 34985,
    "\u0120Cherry": 23165,
    "352": 33394,
    "\u0120spaces": 9029,
    "\u0120sedan": 38988,
    "\u0120climbers": 39311,
    "\u0120Weapon": 13072,
    "FI": 11674,
    "\u0120Hunger": 32367,
    "\u0120continents": 33431,
    "\u0120induction": 28471,
    "\u0120bring": 2222,
    "\u0120agrees": 14386,
    "\u0120confounding": 43849,
    "\u0120comprise": 28889,
    "them": 18855,
    "\u0120shuff": 32299,
    "\u0120blonde": 21541,
    "\u0120grooming": 41836,
    "addon": 48078,
    "\u0120precise": 7141,
    "\u0120hereby": 29376,
    "\u0120Wings": 17330,
    "\u0120tu": 12777,
    "\u0120\u00cf": 18074,
    "\u0120Service": 4809,
    "pots": 40793,
    "\u0120impat": 28189,
    "404": 26429,
    "\u0120usefulness": 37496,
    "\u0120New": 968,
    "0002": 34215,
    "\u0120gn": 19967,
    "\u0120Bureau": 9840,
    "LLOW": 44765,
    "\u0120stead": 7978,
    "\u0120optional": 11902,
    "an": 272,
    "\u0120predominant": 45718,
    "mbol": 23650,
    "\u0120bleak": 30942,
    "affected": 43958,
    "\u0120standardized": 25713,
    "\u0120nonviolent": 42582,
    "Basically": 31524,
    "618": 47448,
    "\u0120chest": 7721,
    "ortality": 28337,
    "\u0120flap": 37699,
    "\u0120sunshine": 34488,
    "\u0120broadcast": 7025,
    "Bal": 24597,
    "\u0120altercation": 38880,
    "\u0120Dirk": 42761,
    "\u0120Cities": 20830,
    "\u0120Hulk": 22860,
    "\u0120Sour": 47694,
    "Notes": 16130,
    "ohn": 1562,
    "\u0120REALLY": 36413,
    "athi": 44202,
    "Bound": 49646,
    "\u0120Employ": 12645,
    "quad": 47003,
    "eno": 23397,
    "Rap": 35230,
    "\u0120unbiased": 46735,
    "\u0120ut": 3384,
    "peer": 33350,
    "\u0120orphans": 50213,
    "\u0120payload": 21437,
    "\u0120celebr": 4681,
    "\u0120Walker": 10120,
    "ffield": 31374,
    "\u0120disproportion": 18717,
    "dayName": 45392,
    "\u0120Feldman": 45498,
    "PA": 4537,
    "\u0120depth": 6795,
    "\u00f0\u0141\u0133": 41840,
    "\u0120470": 38634,
    "\u0120endlessly": 33903,
    "\u0120burned": 11544,
    "\u0120251": 34489,
    "\u0120Emerging": 48297,
    "alions": 50022,
    "herence": 23545,
    "39": 2670,
    "\u0120stret": 5759,
    "\u0120soy": 17797,
    "\u0120NASCAR": 30774,
    "\u0120Just": 2329,
    "\u0120redeemed": 42013,
    "\u00e7\u00ab": 44165,
    "\u0120irrig": 29344,
    "Department": 36261,
    "\u0120depiction": 33016,
    "\u0120Blacks": 27875,
    "antage": 36403,
    "\u0120throws": 12542,
    "\u0120disl": 19621,
    "\u0120Sheet": 21616,
    "holes": 28439,
    "\u0120pollutants": 41824,
    "\u0120Colonel": 21636,
    "\u0120Sequence": 45835,
    "\u0120aggression": 15569,
    "\u0120Enc": 14711,
    "1800": 39188,
    "\u0120billed": 33094,
    "\u0120TMZ": 46800,
    "eline": 4470,
    "436": 43690,
    "Java": 29584,
    "\u0120topp": 23126,
    "Thus": 19093,
    "aptop": 45007,
    "\u0120rejoice": 46201,
    "\u0120implies": 15565,
    "\u0120instrumental": 21543,
    "CDC": 47667,
    "\u0120Huang": 31663,
    "\u0120vowed": 19982,
    "\u0120insofar": 44061,
    "erie": 18287,
    "arij": 39010,
    "\u0120Initial": 20768,
    "\u0120frowned": 32198,
    "\u0120Islamist": 17780,
    "\u0120arthritis": 37954,
    "\u0120Barth": 44414,
    "\u0120shack": 32772,
    "72": 4761,
    "MP": 7378,
    "\u00e2\u0122\u0136\u00e2\u0122\u0136\u00e2\u0122\u0136\u00e2\u0122\u0136": 8184,
    "\u0120Plague": 35236,
    "\u0120testim": 8844,
    "\u0120powerhouse": 34886,
    "\u0120architects": 29518,
    "1967": 42830,
    "\u0120tasting": 26973,
    "\u0120Lat": 5476,
    "\u0120Salvador": 26482,
    "768": 30610,
    "!:": 48725,
    "rawdownload": 30905,
    "asuring": 45925,
    "\u0120Patent": 34830,
    "\u0120legitimacy": 22726,
    "\u0120marg": 6145,
    "\u0120relates": 18436,
    "riel": 11719,
    "\u0120FIR": 23703,
    "iffe": 22391,
    "stad": 24107,
    "\u0120levels": 2974,
    "\u0120indifference": 34324,
    "\u0120Spider": 12648,
    "\u0120nil": 18038,
    "\u0120Morg": 37417,
    "intel": 48779,
    "\u0120Knights": 15188,
    "\u0120Marks": 27366,
    "\u0120Shib": 44254,
    "\u0120seek": 5380,
    "Decl": 37835,
    "\u0120grades": 19051,
    "lords": 19673,
    "\u0120Place": 8474,
    "\u0120obliged": 23278,
    "cing": 2259,
    "ular": 934,
    "\u0120Submission": 42641,
    "etime": 8079,
    "\u0120hairc": 37363,
    "ets": 1039,
    "odge": 9728,
    "Dear": 20266,
    "\u0120Crab": 32379,
    "\u0120release": 2650,
    "\u0120opposing": 12330,
    "Congress": 25916,
    "\u0120MIA": 44903,
    "ether": 6750,
    "uggage": 29672,
    "\u0120CV": 26196,
    "\u0120torn": 12445,
    "\u0120careless": 36138,
    "\u0120\\'": 34373,
    "\u0120bourgeois": 19749,
    "Options": 29046,
    "\u0120Faction": 41552,
    "\u0120bachelor": 29384,
    "\u0120Ether": 20017,
    "\u0120forms": 5107,
    "\u0120youngsters": 33167,
    "icone": 27981,
    "gravity": 46453,
    "beta": 31361,
    "state": 5219,
    "\u00ef\u00b8\u0131": 37929,
    "\u0120Fam": 16513,
    "\u0120action": 2223,
    "Deb": 16587,
    "Bernie": 33433,
    "\u0120described": 3417,
    "eking": 18754,
    "\u0120rotation": 13179,
    "\u0120Reasons": 44923,
    "\u0120shield": 7614,
    "\u0120mas": 12422,
    "\u0120Urs": 37935,
    "Oak": 42426,
    "\u0120Trailer": 36923,
    "\u0120rog": 47524,
    "itor": 2072,
    "Sequ": 44015,
    "pin": 11635,
    "iet": 1155,
    "Registration": 47133,
    "\u0120assumption": 13196,
    "\u0120Dal": 12348,
    "};": 19629,
    "\u0120Grad": 17701,
    "img": 9600,
    "\u0120synergy": 42193,
    "iful": 4135,
    "\u0120Arizona": 7943,
    "\u0120Drone": 38959,
    "\u0120DJ": 13004,
    "nesium": 27619,
    "esville": 19641,
    "ught": 8951,
    "\u0120Tesla": 11938,
    "\u0120gall": 7976,
    "\u0120types": 3858,
    "\u0120Armory": 45388,
    "\u0120appointments": 23976,
    "\u0120infring": 14020,
    "NPR": 38588,
    "\u0120Gets": 29620,
    "\u0120Client": 20985,
    "za": 4496,
    "\u0120343": 37290,
    "\u0120encourage": 7898,
    "\u0120correcting": 39038,
    "\u0120intolerance": 31545,
    "\u0120numbered": 25840,
    "\u0120pans": 36209,
    "\u0120proudly": 23017,
    "zie": 49746,
    "560": 34135,
    "\u0120intimid": 12895,
    "roach": 28562,
    "umeric": 39223,
    "\u0120intimidate": 34903,
    "Deploy": 49322,
    "\u0120Charisma": 44859,
    "\u0120salvation": 21005,
    "\u0120advisory": 20852,
    "\u0120Deaths": 37044,
    "\u0120Polo": 49341,
    "\u0120Tun": 13932,
    "Training": 44357,
    "\u0120Unlimited": 26774,
    "\u0120canv": 39614,
    "\u0120appreciate": 9144,
    "\u0120textile": 45293,
    "University": 21009,
    "ucker": 12603,
    "ITIES": 30383,
    "\u0120id": 4686,
    "AMP": 23518,
    "\u0120Cornwall": 45294,
    "command": 21812,
    "MED": 30733,
    "ication": 3299,
    "\u00e4\u00b8\u012f": 38834,
    "session": 29891,
    "\u0120Destroyer": 30414,
    "\u0120meticulous": 47628,
    "BI": 3483,
    "AL": 1847,
    "\u0120Sisters": 25318,
    "annot": 34574,
    "liberal": 35739,
    "\u0120Within": 12511,
    "Crypt": 23919,
    "Engine": 13798,
    "Eat": 47659,
    "Spons": 43522,
    "\u0120Gilbert": 24023,
    "364": 26780,
    "FINE": 29940,
    "\u0120chili": 32728,
    "bey": 23454,
    "\u0120lymph": 28837,
    "nect": 1606,
    "198": 22337,
    "\u0120Holden": 43393,
    "Hat": 40483,
    "\u0120Brennan": 26577,
    "\u0120Phen": 34828,
    "\u0120evolving": 21568,
    "\u0120hanged": 40597,
    "\u0120vaping": 42106,
    "\u0120MLS": 13981,
    "rors": 5965,
    "irable": 13194,
    "\u0120coastline": 43415,
    "\u0120Hazel": 42805,
    "arna": 28610,
    "pur": 14225,
    "\u0120808": 41241,
    "\u0120Pf": 38477,
    "\u0120flipping": 33097,
    "Ret": 9781,
    "\u0120Please": 4222,
    "\u0120incur": 35870,
    "Edited": 45882,
    "\u0120mentor": 22387,
    "El": 9527,
    "cd": 10210,
    "\u0120Wes": 18622,
    "\u0120studio": 8034,
    "\u0120Tibet": 18910,
    "333": 20370,
    "pm": 4426,
    "\u0120southeastern": 35618,
    "Book": 10482,
    "\u0120inspirational": 40840,
    "relative": 43762,
    "fd": 16344,
    "\u0120fork": 15563,
    "baby": 40252,
    "OH": 12096,
    "ominated": 50251,
    "\u0120guns": 6541,
    "\u0120lumber": 34840,
    "company": 39722,
    "\u0120gays": 28067,
    "680": 37397,
    "\u0120whopping": 27833,
    "fy": 24928,
    "\u0120Hawk": 26698,
    "\u0120Asians": 30852,
    "\u0120withdrawing": 36395,
    "\u0120Wichita": 45526,
    "\u0120deciding": 14615,
    "\u0120documentation": 10314,
    "yers": 21200,
    "\u0120Danger": 20419,
    "\u0120constructing": 30580,
    "\u0120Playoff": 41325,
    "\u0120influencing": 32596,
    "\u0120Nate": 23486,
    "\u0120Donovan": 31565,
    "laughter": 27815,
    "\u0120sang": 25889,
    "chnology": 19587,
    "sk": 8135,
    "\u0120loud": 7812,
    "\u0120privileged": 21929,
    "\u0120garage": 15591,
    "\u0120el": 1288,
    "alky": 18354,
    "AD": 2885,
    "\u0120Geral": 49662,
    "\u0120Laws": 21153,
    "\u0120exits": 30151,
    "\u0120eq": 37430,
    "\u0120compliance": 11846,
    "pson": 8430,
    "luster": 48375,
    "\u0120Aj": 22028,
    "\u0120Disney": 8519,
    "umed": 18940,
    "\u0120envelop": 16441,
    "\u0120impl": 4114,
    "\u0120nucleus": 29984,
    "\u0120damage": 2465,
    "cipline": 34647,
    "168": 14656,
    "\u0120schedule": 7269,
    "\u00e4\u00bd\u013e": 43291,
    "\u0120ja": 45091,
    "\u0120Mind": 10175,
    "\u0120smoking": 9216,
    "\u0120descend": 15350,
    "\u0120Disorder": 31162,
    "\u0120DACA": 38061,
    "Table": 10962,
    "\u0120Westbrook": 35345,
    "months": 41537,
    "\u0120Secretary": 4986,
    "istani": 16688,
    "ethyl": 21610,
    "\u0120overdose": 27357,
    "\u0120explodes": 38711,
    "\u0120Psychology": 18430,
    "cyclopedia": 25497,
    "\u0120chau": 46901,
    "urnal": 35735,
    "\u0120crore": 22306,
    "\u0120binge": 34735,
    "\u0120viol": 1935,
    "\u0120flashed": 30050,
    "\u0120thunder": 18355,
    "sten": 26400,
    "iannopoulos": 36408,
    "\u0120rulers": 24925,
    "\u0120delivered": 6793,
    "\u0120spend": 4341,
    "ayers": 6962,
    "\u0120Leaves": 46597,
    "\u0120suicide": 7341,
    "ably": 1346,
    "ANT": 8643,
    "\u0120Macedonia": 36353,
    "ealing": 26919,
    "\u0120ze": 41271,
    "\u0120commenced": 32400,
    "isition": 10027,
    "could": 24089,
    "\u0120hesitate": 22898,
    "kers": 15949,
    "\u0120Angus": 41182,
    "\u0120Cisco": 28289,
    "\u0120diseng": 39402,
    "\u0120awaiting": 21859,
    "ai": 1872,
    "\u0120GeForce": 12975,
    "\u0120Sidd": 44487,
    "\u00e3\u0124\u00b4\u00e3\u0125\u00b3": 22997,
    "\u0120categories": 9376,
    "\u0120hovering": 33627,
    "\u0120Everywhere": 48201,
    "\u0120fingert": 35676,
    "\u0120pe": 613,
    "\u0120Celestial": 37231,
    "\u0120interestingly": 50226,
    "angered": 19041,
    "Therefore": 26583,
    "\u0120Republican": 3415,
    "\u0120War": 1810,
    "\u0120policies": 4788,
    "\u0120locked": 8970,
    "father": 11358,
    "\u0120composing": 49760,
    "\u0120milliseconds": 38694,
    "\u0120railways": 45247,
    "ihil": 20898,
    "\u0120plag": 19640,
    "lived": 24489,
    "\u0120ART": 24278,
    "aud": 3885,
    "\u0120shameful": 34078,
    "\u0120321": 39595,
    "\u0120familiar": 5385,
    "\u0120Surviv": 19455,
    "Luckily": 42332,
    "**": 1174,
    "icked": 9484,
    "\u0120javascript": 44575,
    "\u0120waving": 25849,
    "\u0120records": 4406,
    "\u0120Rousse": 42849,
    "\u0120tolerant": 33435,
    "rotein": 35574,
    "\u0120Dru": 21295,
    "necess": 10789,
    "\u0120continuum": 44422,
    "dogs": 22242,
    "\u0120Holocaust": 18661,
    "\u0120sizes": 10620,
    "aurus": 22302,
    "\u0120endings": 38168,
    "\u0120replacements": 36205,
    "\u0120surveillance": 8452,
    "\u0120liabilities": 25333,
    "\u0120sanctioned": 30572,
    "sen": 6248,
    "ass": 562,
    "desktop": 41375,
    "Soft": 18380,
    "\u0120guaranteeing": 50156,
    "amsung": 30136,
    "\u0120informative": 30304,
    "\u0120Hastings": 38330,
    "\u0120abroad": 10522,
    "\u0120radical": 7702,
    "\u0120clones": 32498,
    "\u0120disciple": 35567,
    "OME": 13649,
    "\u0120Scotia": 32586,
    "\u0120Bing": 21631,
    "\u0120920": 47679,
    "\u0120accustomed": 23840,
    "\u0120butcher": 38042,
    "reg": 2301,
    "oons": 13022,
    "\u0120Clockwork": 47120,
    "oters": 26008,
    "\u0120Rao": 48395,
    "\u0120questioned": 11434,
    "ffic": 2108,
    "\u00a3": 96,
    "\u0120Municipal": 31526,
    "icating": 12364,
    "roma": 42902,
    "\u0120certification": 18094,
    "Font": 23252,
    "\u0120breat": 4882,
    "urer": 15051,
    "\u0120Jericho": 47782,
    "\u0120Jos": 22568,
    "\u0120CAM": 32421,
    "\u0120Demo": 34588,
    "MET": 47123,
    "\u0120Marriage": 24509,
    "\u0120NCT": 40119,
    "Frames": 35439,
    "\u0120festivities": 42735,
    "ICAL": 20151,
    "\u0120conceive": 33669,
    "\u0120189": 27230,
    "\u0120CP": 16932,
    "tu": 28047,
    "\u0120wisdom": 11501,
    "\u0120WTO": 47074,
    "\u0120Zheng": 44583,
    "isine": 27480,
    "sun": 19155,
    "Win": 16643,
    "\u0120plus": 5556,
    "tail": 13199,
    "\u0120Legends": 14270,
    "\u0120Refugees": 38550,
    "\u0120digestion": 44639,
    "\u0120weed": 20349,
    "\u0120Franken": 25301,
    "\u0120probe": 12774,
    "\u0120healed": 28557,
    "iscovery": 40821,
    "\u0120perpetrators": 25185,
    "Surv": 34652,
    "\u0120hashtag": 23950,
    "\u0120DLC": 18068,
    "Alright": 31442,
    "\u0120tragic": 15444,
    "\u0120cheap": 7026,
    "\u0120products": 3186,
    "raction": 7861,
    "shell": 29149,
    "incoln": 11690,
    "\u0120specification": 20855,
    "elson": 10151,
    "\u0120submar": 18249,
    "\u0120certify": 46125,
    "black": 13424,
    "\u0120weighs": 24034,
    "\u0120clients": 7534,
    "\u0120\u00c2\u00a3": 4248,
    "ylon": 15158,
    "\u0120biblical": 24726,
    "\u0120customized": 27658,
    "lly": 12810,
    "\u0120graves": 30055,
    "\u012040": 2319,
    "\u0120stride": 33769,
    "\u0120chords": 34211,
    "\u0120ambitions": 22455,
    "\u0120Scala": 38334,
    "\u0120impede": 43195,
    "\u0120sharply": 18939,
    "\u0120wi": 45967,
    "288": 25270,
    "\u0120Increasing": 38921,
    "\u0120communicate": 10996,
    "Tesla": 41351,
    "\u0120princ": 5144,
    "smith": 21453,
    "\u0120enthusiast": 33471,
    "1984": 28296,
    "\u0120Ellen": 23811,
    "Lyn": 37207,
    "\u0120Chavez": 31039,
    "\u0120duck": 22045,
    "\u0120odds": 10402,
    "\u0120Sev": 37918,
    ".):": 47308,
    "\u0120ageing": 41310,
    "\u0120soda": 20584,
    "notation": 38983,
    "\u0120Sarah": 10490,
    "ingers": 40923,
    "umann": 40062,
    "\u0120Fo": 19434,
    "MIC": 49884,
    "\u0120Bed": 15585,
    "usher": 34055,
    "\u0120accounted": 17830,
    "again": 17776,
    "\u0120impacts": 12751,
    "conduct": 36495,
    "\u0120Numerous": 45261,
    "\u0120Samurai": 23882,
    "\u0120reorgan": 35459,
    "IST": 8808,
    "\u0120Krist": 14912,
    "\u0120retiring": 29040,
    "Termin": 44798,
    "\u0120oddly": 31414,
    "\u0120candle": 26839,
    "\u0120municipal": 13474,
    "\u0120acronym": 38787,
    "\u0120juveniles": 48660,
    "\u0120swear": 21192,
    "Phill": 41970,
    "isk": 1984,
    "\u0120Bearing": 28834,
    "leneck": 43163,
    "}}": 11709,
    "\u0120unatt": 29327,
    "\u0120frequ": 3593,
    "\u0120Lives": 18965,
    "ractive": 35587,
    "ids": 2340,
    "\u0120Notably": 45683,
    "\u0120Leilan": 50216,
    "GROUND": 46025,
    "\u0120Have": 8192,
    "rients": 18491,
    "\u0120optimize": 27183,
    "apy": 12826,
    "\u0120Cas": 11294,
    "\u0120incentive": 15660,
    "\u0120emulate": 33836,
    "535": 44465,
    "\u0120503": 44541,
    "iolet": 19194,
    "\u0104": 192,
    "\u0120Medicare": 13771,
    "\u0120Open": 4946,
    "\u0120steroids": 31397,
    "\u0120Increased": 25944,
    "\u0120reefs": 43190,
    "level": 5715,
    "repair": 49932,
    "\u0120finger": 7660,
    "\u0120wiped": 21122,
    "\u0120capacities": 32484,
    "\u0120Ney": 34506,
    "\u0120Nordic": 35834,
    "\u0120Rocks": 34243,
    "\u0120replicated": 35108,
    "\u0120logos": 29645,
    "\u0120requisite": 37088,
    "\u0120publish": 7715,
    "\u0120engraved": 41136,
    "attled": 43535,
    "\u0120Hank": 24386,
    "lihood": 11935,
    "\u0120widest": 46232,
    "TW": 34551,
    "\u0120demon": 3222,
    "\u0120DG": 46133,
    "bare": 49382,
    "uez": 14870,
    "\u0120pitch": 7078,
    "\u0120endogenous": 47064,
    "body": 2618,
    "\u0120Void": 18331,
    "\u0120diver": 12312,
    "\u0120Und": 13794,
    "\u0120structural": 13204,
    "ired": 1202,
    "\u0120substant": 5925,
    "PLIED": 49094,
    "demand": 28550,
    "tp": 34788,
    "\u0120Eval": 26439,
    "\u0120Funk": 37299,
    "EEP": 35238,
    "\u0120smokers": 24109,
    "\u0120deflect": 31685,
    "\u0120coronary": 37151,
    "\u0120Leeds": 29293,
    "\u0120tests": 5254,
    "\\<": 49778,
    "\u00e5\u012b": 30298,
    "\u0120Religious": 23945,
    "\u0120contrasts": 39469,
    "\"-": 26793,
    "\u0120bullying": 20714,
    "\u0120py": 12972,
    "illac": 40607,
    "rants": 15087,
    "\u0120Shinzo": 43531,
    "\u0120impractical": 43994,
    "\u0120coupon": 34990,
    "\u0120Murder": 23375,
    "revolution": 32243,
    "\u0120achievements": 16970,
    "mins": 42951,
    "576": 37452,
    "invoke": 37669,
    "\u0120Debian": 26062,
    "\u0120309": 40286,
    "\u0120Janeiro": 42799,
    "Enjoy": 27467,
    "isible": 12843,
    "\u0120contest": 8414,
    "\u0120Conserv": 7162,
    "Question": 24361,
    "\u0120inventive": 47602,
    "\u0143": 255,
    "\u0120compens": 7144,
    "detail": 49170,
    "vm": 14761,
    "\u0120Genetics": 43574,
    "\u0120estimate": 8636,
    "\u0120ROB": 36449,
    "\u0120veterinarian": 41404,
    "\u0120faint": 18107,
    "ocr": 1696,
    "Rob": 14350,
    "\u0120Kingdom": 7526,
    "\u0120Crate": 37504,
    "Bomb": 48478,
    "\u0120policemen": 33777,
    "\u0120disconnected": 28597,
    "iddler": 26458,
    "\u0120brisk": 35984,
    "\u0120alcoholic": 26016,
    "JA": 37048,
    "amiya": 38241,
    "\u0120alerted": 28608,
    "STATE": 44724,
    "\u0120hypers": 45086,
    "\u0120213": 28658,
    "ISTORY": 42480,
    "\u0120mom": 1995,
    "\u0120Commun": 4440,
    "\u00e2\u0122\u00a2\u00e2\u0122\u00a2": 22838,
    "ulu": 15712,
    "\u0120drills": 26721,
    "\u00e0": 156,
    "\u0120tavern": 42488,
    "\u0120elves": 31959,
    "elfare": 27122,
    "\u0120Eva": 32355,
    "\u0120rust": 17000,
    "\u0120Travis": 19804,
    "\u0120wastes": 43739,
    "287": 27800,
    "\u0120Engineers": 27170,
    "DT": 24544,
    "\u0120Nonetheless": 27251,
    "\u0120Well": 3894,
    "\u0120repro": 43969,
    "\u0120depart": 6313,
    "\u00e3\u0124\u00a2": 11839,
    "\u0120fixtures": 34609,
    "Sing": 29974,
    "\u0120referees": 42692,
    "ileaks": 27983,
    "\u01201939": 24414,
    "\u0120motto": 33600,
    "\u0120retail": 6308,
    "Keeping": 44815,
    "\u0120sleeve": 23179,
    "\u0120Luxembourg": 31864,
    "omination": 27744,
    "\u0120activation": 14916,
    "\u0120GI": 30616,
    "\u0120Soci": 31339,
    "Close": 26125,
    "\u0120hob": 32724,
    "\u0120whenever": 8797,
    "\u0120conclusive": 39689,
    "\u0120statistics": 7869,
    "lement": 1732,
    "rians": 19151,
    "ao": 5488,
    "\u0120governs": 47049,
    "SA": 4090,
    "\u01201918": 25859,
    "\u0120Freak": 45328,
    "LA": 13534,
    "\u0120awful": 12659,
    "\u0120steadily": 18434,
    "bits": 9895,
    "\u0120assessments": 21837,
    "\u0120ledge": 35614,
    "\u0120Cosmic": 32011,
    "\u0120bounce": 20110,
    "Publisher": 46471,
    "\u0120fisher": 17685,
    "casters": 26248,
    "Fax": 46512,
    "eeper": 41278,
    "\u0120Corbyn": 15673,
    "\u0120exempt": 13068,
    "\u0120field": 2214,
    "\u0120mint": 21043,
    "\u0120arbit": 9277,
    "\u0120Records": 13407,
    "bid": 14065,
    "\u0120meanings": 26368,
    "^^^^": 39397,
    "\u0120hes": 10818,
    "\u0120Currently": 16888,
    "Can": 6090,
    "\u0120Including": 41461,
    "\u0120malf": 27750,
    "\u0120voiced": 21346,
    "\u0120cytok": 42440,
    "\u00c3\u00bcr": 25151,
    "\u0120condemned": 15006,
    "vir": 37040,
    "\u0120lucid": 45464,
    "\u0120quadru": 40977,
    "meal": 28208,
    "har": 9869,
    "\u0120youngster": 40944,
    "\u0120arteries": 45894,
    "Opening": 43093,
    "\u0120suitable": 11080,
    "\u0120spirituality": 39409,
    "\u0120side": 1735,
    "\u0120limits": 7095,
    "stained": 44279,
    "roud": 5493,
    "\u0120Kentucky": 11867,
    "anian": 38336,
    "Islamic": 26723,
    "aver": 8770,
    "\u0120charms": 41700,
    "\u0120Leviathan": 32223,
    "skip": 48267,
    "\u0120evaluating": 22232,
    "Chart": 45488,
    "\u0120error": 4049,
    "Raid": 49043,
    "\u0120facilities": 7291,
    "writ": 8933,
    "radio": 37004,
    "Reader": 33634,
    "\u0120Barn": 11842,
    "\u0120plastics": 42257,
    "Ell": 30639,
    "\u0120wavelengths": 45656,
    "\u0120trigger": 7616,
    "License": 34156,
    "\u0120Laun": 19826,
    "\u0120Mix": 15561,
    "\u0120Eisen": 22633,
    "\u0120Alzheimer": 22434,
    "\u0120Ph": 1380,
    "hots": 17398,
    "\u0120\u00e2\u0136": 13305,
    "two": 11545,
    "\u0120Roberts": 10918,
    "\u00d1\u0125": 35072,
    "ect": 478,
    "Lat": 24220,
    "Anonymous": 20660,
    "\u0120drained": 29738,
    "\u0120antiqu": 27233,
    "\u0120UNESCO": 49372,
    "\u0120Wooden": 40143,
    "266": 25540,
    "\u0120mansion": 24141,
    "\u0120Riders": 34854,
    "angu": 2303,
    "\u0120append": 24443,
    "\u0120mashed": 49159,
    "\u01201980": 7169,
    "ynthesis": 44411,
    "\u0120docks": 45906,
    "\u0120Cory": 28785,
    "\u0120Birthday": 33511,
    "\u0120famine": 31261,
    "\u0120satirical": 40557,
    "\u0120possesses": 22194,
    "\u0120Late": 18319,
    "\u0120heartbreaking": 37154,
    "acle": 6008,
    "\u0120Parish": 35240,
    "\u0120info": 7508,
    "\u0120spins": 37621,
    "\u0120warnings": 14601,
    "\u0120ORDER": 38678,
    "\u0120switches": 18225,
    "FB": 26001,
    "\u0120GNOME": 40339,
    "\u0120explicitly": 11777,
    "Fear": 37798,
    "\u0120bat": 7365,
    "\u0120damages": 12616,
    "examination": 47779,
    "\u0120Paddock": 49762,
    "\u0120calib": 27417,
    "\u0120offence": 14148,
    "\u0120quick": 2068,
    "ouls": 42033,
    "\u0120wired": 28217,
    "ultural": 8596,
    "\u0120fab": 7843,
    "\u0120stripping": 37727,
    "\u0120Spe": 2531,
    "\u0120eyel": 29708,
    "\u0120Reve": 31091,
    "uned": 40881,
    "Launch": 38296,
    "\u0120Mongolia": 44364,
    "\u0120roomm": 26255,
    "\u0120reproduction": 20728,
    "\u0120Geoff": 24688,
    "\u0120bytes": 9881,
    "reviewed": 32974,
    "\u0120unpredict": 20378,
    "\u0120Editors": 48073,
    "\u0120sugar": 7543,
    "\u0120Toro": 42952,
    "\u0120canoe": 47434,
    "\u0120nm": 28642,
    "\u0120Fraz": 36914,
    "\u0120Meaning": 30563,
    "\u0120slowdown": 35621,
    "\u0120Tut": 22792,
    "itbart": 17868,
    "\u0120trek": 30784,
    "ANS": 15037,
    "\u0120subtitle": 37960,
    "ping": 13886,
    "\u0120MAN": 17254,
    "15": 1314,
    "erer": 11882,
    "illo": 16111,
    "\u0120Moj": 40120,
    "stra": 12044,
    "\u0120parking": 7647,
    "\u0120Marijuana": 29109,
    "\u0120Pop": 8099,
    "\u0120taller": 25242,
    "\u0120Player": 7853,
    "\u0120gener": 1152,
    "\u0120indigenous": 17673,
    "gate": 10494,
    "Kat": 25881,
    "\u0120Drum": 25331,
    "ocalypse": 15145,
    "please": 29688,
    "\u0120caches": 50177,
    "\u0120identifies": 21079,
    "011": 28555,
    "\u0120Kent": 8758,
    "tax": 19290,
    "\u0120cumbersome": 44491,
    "top": 4852,
    "spir": 45564,
    "\u0120clergy": 26014,
    "\u0120squash": 34613,
    "\u0120Box": 8315,
    "\u0120Xer": 44264,
    "\u0120Paula": 36025,
    "umi": 12994,
    "aunch": 11429,
    "\u0120protect": 1805,
    "\u0120Supp": 8105,
    "\u0120demanded": 12284,
    "ous": 516,
    "rongh": 36670,
    "\u0120echoing": 39915,
    "\u0120Ob": 1835,
    "Increase": 46890,
    "\u0120(*": 20789,
    "mon": 2144,
    "\u0120poke": 22620,
    "aples": 28624,
    "\u0120365": 21268,
    "\u0120Questions": 20396,
    "\u0120kind": 1611,
    "\u00d0\u00bd": 22177,
    "\u0120coordinates": 22715,
    "romptu": 49255,
    "\u0120British": 3517,
    "er": 263,
    "\u0120println": 44872,
    "mble": 11306,
    "\u0120agendas": 37611,
    "iced": 3711,
    "\u0120Dam": 5245,
    "\u0120TOP": 28662,
    "christ": 43533,
    "\u0120cholesterol": 18759,
    "\u0120spring": 6076,
    "\u0120Uni": 43376,
    "deb": 11275,
    "\u0120bankers": 25091,
    "\u0120notably": 14660,
    "\u0120Kennedy": 10401,
    "\u0120VP": 23342,
    "\u0120trials": 9867,
    "\u0120gave": 2921,
    "\u0120discoveries": 24362,
    "\u0120liked": 8288,
    "\u0120Lanc": 21534,
    "\u0120totally": 6635,
    "htt": 2804,
    "\u00c5\u00ab": 20317,
    "\u0120ep": 2462,
    "\u0120Brees": 46373,
    "\u0120Fleet": 20001,
    "hound": 39047,
    "\u0120arrangements": 14752,
    "\u0120Strat": 29186,
    "\u0120Wonders": 47497,
    "\":[": 20598,
    "Marg": 24428,
    "\u0120Manip": 35045,
    "orpor": 31150,
    "prem": 31605,
    "\u0120Greeks": 25059,
    "\u0120Football": 9957,
    "\u0120deserted": 36043,
    "fulness": 15538,
    "\u0120Reid": 16095,
    "\u0120cavern": 33932,
    "\u0120tallest": 38760,
    "abor": 4820,
    "\u0120Comment": 18957,
    "\u0120exploitation": 17238,
    "\u0120Hang": 24300,
    "CON": 10943,
    "\u0120particle": 18758,
    "Tickets": 43254,
    "\u0120approve": 14762,
    "\u0120161": 27829,
    "\u0120appendix": 43600,
    "\u0120delve": 39130,
    "\u0120ETH": 35920,
    "wit": 39289,
    "arsh": 5406,
    "\u0120citiz": 3523,
    "Mill": 22603,
    "\u0120legalize": 35605,
    "\u0120flaming": 39518,
    "\u0121": 221,
    "\u0120cereal": 33158,
    "\u0120\u00c4": 34754,
    "\u0120Damn": 40146,
    "\u0120crosses": 24234,
    "\u0120drums": 24730,
    "achy": 35586,
    "\u0120Che": 2580,
    "\u0120Toyota": 20182,
    "\u0120sur": 969,
    "\u0120RP": 25812,
    "\u0120therapist": 24636,
    "\u0120deline": 46925,
    "wake": 48530,
    "\u0120Impact": 17677,
    "\u0120Pharaoh": 42697,
    "\u0120statewide": 23605,
    "\u0120Satisf": 48168,
    "sym": 37047,
    "Dialogue": 41099,
    "ATA": 13563,
    "\u0120promoters": 43381,
    "\u0120Snyder": 22543,
    "\u0120compact": 16001,
    "ios": 4267,
    "\u0120Bonds": 39161,
    "ques": 13281,
    "\u0120Wraith": 40106,
    "\u0120FUN": 29397,
    "\u0120tremendously": 34355,
    "ela": 10304,
    "\u0120Malta": 35206,
    "\u0120sophomore": 24505,
    "\u0120barley": 38877,
    "orthy": 18906,
    "\u0120stepping": 17413,
    "\u0120Labor": 7882,
    "\u0120kan": 43998,
    "\u0120lottery": 22098,
    "\u0120Silent": 25083,
    "\u0120handset": 40445,
    "\u0120Maiden": 30591,
    "\u0120gaps": 17332,
    "\u0120Vij": 49219,
    "\u0120faulty": 30954,
    "\u0120Charges": 44620,
    "\u0120stakes": 21147,
    "\u0120indicated": 8203,
    "\u0120antagonist": 34667,
    "wives": 35234,
    "\u0120Duc": 24165,
    "\u0120staff": 3085,
    "\u0120shake": 13279,
    "\u0120Worldwide": 33140,
    "\u0120defeat": 7433,
    "\u0120deg": 3396,
    "ADE": 19266,
    "\u0120sense": 2565,
    "\u0120Pros": 27631,
    "\u0120windshield": 38866,
    "\u0120Roller": 24945,
    "\u0120blew": 17948,
    "\u0120PAX": 49742,
    "\u0120Equity": 35659,
    "icip": 4311,
    "oka": 17411,
    "\u0120Bench": 25187,
    "plates": 17041,
    "\u0120arri": 2914,
    "\u0120Naturally": 30413,
    "\u0120fascinating": 13899,
    "\u0120Owner": 23853,
    "\u0120Gur": 24797,
    "\u0120hur": 6990,
    "HUD": 28410,
    "\u0120Labs": 23500,
    "\u0120sockets": 37037,
    "\u0120ampl": 12306,
    "\u0120enrichment": 36513,
    "\u0120quarterly": 27868,
    "EU": 19684,
    "\u0120successful": 4388,
    "\u0120volatile": 22750,
    "\u0120visceral": 38259,
    "urations": 20074,
    "thens": 43895,
    "Desktop": 36881,
    "east": 23316,
    "\u0120VAT": 32313,
    "\u0120Lup": 32244,
    "\u0120absolute": 4112,
    "\u0120Cosby": 36485,
    "\u0120breathe": 18044,
    "\u0120leukemia": 49030,
    "\u0120locating": 42139,
    "activ": 15791,
    "Works": 23044,
    "roximately": 24378,
    "\u012053": 7192,
    "\u0120Consortium": 42727,
    "\u0120dad": 9955,
    "\u00e2\u012a": 24861,
    "Attribute": 33682,
    "pointer": 29536,
    "\u0120Panic": 34478,
    "Feed": 18332,
    "beat": 12945,
    "\u0120strapped": 37625,
    "\u0120nearing": 37242,
    "ampire": 13577,
    "\u0120allergy": 36197,
    "irin": 47388,
    "\u0120dur": 22365,
    "\u0120square": 6616,
    "\u0120soph": 9810,
    "\u0120Sync": 35908,
    "aiden": 17538,
    "slice": 48369,
    "\u0120withheld": 31453,
    "atts": 30353,
    "\u0120CPI": 42103,
    "\u0120casino": 21507,
    "olon": 43645,
    "\u0120Te": 1665,
    "\u0120Xander": 46122,
    "\u0120Grade": 22653,
    "\u0120Simone": 47592,
    "uments": 2886,
    "\u0120turbulence": 47741,
    "dig": 12894,
    "\u0120swing": 9628,
    "\u0120AFL": 25363,
    "\u0120Brus": 15507,
    "\u0120fors": 46931,
    "\u0120Buster": 34452,
    "\u0120Chev": 25233,
    "\u0120blah": 33367,
    "\u0120mentions": 15802,
    "akin": 27048,
    "\u0120investment": 4896,
    "\u0120rat": 4227,
    "\u0120Crazy": 19932,
    "orian": 22618,
    "\u0120whisper": 31992,
    "\u0120tourism": 19277,
    "enos": 28380,
    "Percent": 31905,
    "Download": 10002,
    "\u0120JOHN": 39263,
    "\u0120adversaries": 35177,
    "\u0120crit": 1955,
    "\u0120beet": 25679,
    "\u0120imports": 17944,
    "atra": 26066,
    "\u0120allergies": 36665,
    "\u0120women": 1466,
    "407": 30120,
    "\u0120Zen": 14760,
    "glass": 20721,
    "\u0120swiftly": 23994,
    "\u0120Ryan": 6047,
    "aughs": 19256,
    "\u0120improved": 6596,
    "\u0120Ferrari": 23502,
    "\u0120negotiating": 19025,
    "\u0120echoed": 22211,
    "ussia": 31269,
    "\u0120relay": 24248,
    "\u0120brokers": 36139,
    "\u0120Spiritual": 33944,
    "\u0120disagreements": 37990,
    "\u0120Keeping": 33311,
    "rm": 26224,
    "aws": 8356,
    "(-": 32590,
    "\u0120bankruptcy": 17235,
    "\u0120proportion": 9823,
    "Cor": 10606,
    "\u0120adm": 6178,
    "\u0120Volvo": 46950,
    "\u0120Ye": 11609,
    "\u0120unsub": 32793,
    "\u0120Sgt": 22925,
    "\u0120Soda": 43006,
    "\u0120Ragnar": 32797,
    "\u0120CAD": 37292,
    "\u0120Push": 23691,
    "\u0120beers": 16800,
    "\u0120Depend": 37947,
    "\u0120unsurprisingly": 49619,
    "rencies": 14038,
    "\u0120Newman": 27698,
    "\u0120\u00e2\u0135\u013a": 30684,
    "\u0120Poe": 34815,
    "\u0120cp": 31396,
    "\u0120tackling": 26348,
    "\u0120cro": 6763,
    "\u0120unprepared": 45102,
    "\u0120Hun": 5900,
    "\u0120boot": 6297,
    "\u0120scholar": 15606,
    "More": 5167,
    "\u0120Fatal": 41815,
    "\u0120trembling": 39228,
    "\u0120contemporaries": 46028,
    "author": 9800,
    "\u00b5": 113,
    "\u0120Details": 14890,
    "\u0120t": 256,
    "\u0120Regulatory": 38018,
    "\u0120GROUP": 44441,
    "cell": 3846,
    "\u0120Reaper": 29245,
    "\u00e3\u0125\u00bc\u00e3\u0125\u00b3": 31708,
    "\u0120pretend": 16614,
    "\u0120bankrupt": 13158,
    "\u0120peculiar": 19501,
    "\u0120Zi": 45643,
    "grades": 31177,
    "\u0120verbs": 41781,
    "\u0120rou": 13805,
    "Hand": 12885,
    "\u0120fused": 43954,
    "\u0120Parkway": 38613,
    "\u0120zone": 6516,
    "\u0120playful": 34264,
    "grass": 29815,
    "\u00e1\u00bd": 45495,
    "\u0120inmates": 16831,
    "\u0120recorder": 38156,
    "\u00e3\u0125\u00a5": 24440,
    "\u0120Very": 9576,
    "\u0120invoked": 24399,
    "ration": 1358,
    "\u0120visualize": 38350,
    "$,": 47113,
    "Sty": 18716,
    "\u0120User": 11787,
    "DD": 16458,
    "\u0120NET": 30502,
    "\u0120Optimus": 44863,
    "\u0120beh": 1372,
    "ircraft": 27002,
    "\u0120ling": 18459,
    "\u0120Nicolas": 29737,
    "fitted": 38631,
    "\u0120Adults": 35154,
    "idem": 28913,
    "\u0120mug": 25152,
    "14": 1415,
    "sup": 37330,
    "\u0120Benefits": 30582,
    "Disk": 40961,
    "\u0120marines": 45333,
    "\u0120Air": 3701,
    "\u0120bolster": 26091,
    "\u0120Boxing": 35921,
    "WR": 18564,
    "\u0120POL": 20634,
    "\u0120mortals": 49008,
    "\u0120density": 12109,
    "\u0120carrying": 6872,
    "Coming": 30804,
    "\u0120Billy": 15890,
    "\u0120listening": 8680,
    "\u0120utilitarian": 48239,
    "\u0120patrols": 34141,
    "Ur": 16692,
    "vati": 36868,
    "peror": 8723,
    "\u0120seams": 41280,
    "\u0120Patterson": 27042,
    "\u0120toilets": 32711,
    "\u0120emergencies": 36047,
    "\u0120bulldo": 44767,
    "BU": 19499,
    "\u0120infantry": 21548,
    "Non": 15419,
    "511": 41647,
    "chie": 3043,
    "995": 33438,
    "\u0120travel": 3067,
    "\u0120severity": 19440,
    "ulence": 32401,
    "\u0120fact": 1109,
    "pell": 23506,
    "\u0120Building": 11819,
    "worthiness": 48756,
    "\u0120MEM": 35153,
    "\u0120complexities": 42292,
    "\u0120Bentley": 38881,
    "():": 33529,
    "izer": 7509,
    "\u0120glimpse": 19350,
    "\u0120Hawks": 23445,
    "last": 12957,
    "GM": 15548,
    "\u0120bash": 27334,
    "igue": 15212,
    "Wiki": 32603,
    "\u0120teaching": 7743,
    "\u0120chip": 11594,
    "\u0120Scream": 36306,
    "\u0120coined": 33115,
    "\u0120Scriptures": 41622,
    "\u0120MPG": 48652,
    "\u0120hotels": 18505,
    "\u0120masterpiece": 30669,
    "eful": 13839,
    "\u0120Arm": 7057,
    "\u0120yog": 27423,
    "\u0120EMP": 38144,
    "\u0120des": 748,
    "\u0120Kristen": 44467,
    "\u0120hacking": 15656,
    "\u00e3\u0125\u013b": 35604,
    "rest": 2118,
    "\u0120museum": 13257,
    "\u0120triggers": 20022,
    "\u0120burgl": 26574,
    "\u0120anymore": 7471,
    "\u0120Analysis": 14691,
    "\u0120Sans": 20845,
    "\u0120Forty": 38223,
    "Rub": 21312,
    "\u0120commanding": 25771,
    "Mit": 43339,
    "\u0120Nationwide": 49232,
    "\u0120organize": 16481,
    "Log": 11187,
    "\u0120Way": 6378,
    "\u0120number": 1271,
    "\u0120Definition": 30396,
    "\u0120Waters": 21827,
    "ede": 18654,
    "\u0120evils": 33980,
    "mage": 25561,
    "\u0120Goose": 46317,
    "\u0120bar": 2318,
    "\u0120alleviate": 30885,
    "\u0120alias": 16144,
    "inters": 20193,
    "\u0120collabor": 6967,
    "\u0120postseason": 22905,
    "\u0120communities": 5348,
    "ci": 979,
    "\u0120Nicole": 25176,
    "sw": 2032,
    "\u0120dont": 17666,
    "\u00e5\u00a3\u00ab": 18803,
    "\u0120Oak": 9121,
    "Japan": 16504,
    "\u0120polymer": 30528,
    "\u0120pioneering": 36304,
    "\u01201936": 27653,
    "\u0120rul": 2155,
    "IM": 3955,
    "ova": 10071,
    "\u0120).": 6739,
    "\u0120links": 6117,
    "\u0120fake": 8390,
    "\u0120audible": 35282,
    "\u0120attending": 11969,
    "\u0120Raj": 13308,
    "matic": 13849,
    "Why": 5195,
    "\u01201971": 16382,
    "\u0120sr": 19677,
    "\u0120pacif": 47617,
    "\u0120Mog": 30926,
    "\u0120Male": 12674,
    "\u0120outdoor": 15162,
    "\u0120betray": 13935,
    "\u0120relentlessly": 37952,
    "\u0120SAM": 28844,
    "thereal": 37827,
    "\u0120MSI": 30781,
    "ortment": 33920,
    "\u0120revive": 26046,
    "\u0120PVC": 46377,
    "Push": 49222,
    "\u0120Ident": 11440,
    "Bern": 23927,
    "Details": 24259,
    "ourse": 9047,
    "\u0120Cooke": 46247,
    "inki": 38799,
    "each": 27379,
    "ads": 5643,
    "\u0120extinct": 28881,
    "\u0120Pret": 37123,
    "iscovered": 41168,
    "Final": 19006,
    "\u0120landscapes": 32964,
    "\u0120sessions": 10991,
    "\u0120massacre": 19050,
    "\u0120Walters": 43287,
    "Handler": 25060,
    "\u0120Local": 10714,
    "\u0120provinces": 17812,
    "\u0120Ming": 26980,
    "rums": 45241,
    "\u0120Fernand": 26366,
    "urb": 5945,
    "requires": 47911,
    "\u0120Bengals": 24037,
    "\u0120brushing": 42798,
    "\u0120behavi": 6598,
    "otted": 8426,
    "\u0120resources": 4133,
    "Pet": 25803,
    "\u0120staircase": 27656,
    "\u0120copies": 9088,
    "\u0120crown": 12389,
    "uncture": 39187,
    "\u0120weeds": 36708,
    "\u0120anarchists": 29676,
    "\u0120plutonium": 47901,
    "asha": 14715,
    "\u0120scrutiny": 14521,
    "\u0120inhibitor": 41704,
    "\u0120Thick": 45816,
    "\u0120again": 757,
    "\u0120Burma": 40306,
    "\u0120sworn": 20990,
    "\u0120antiquity": 46599,
    "\u0120unborn": 36172,
    "\u0120feed": 3745,
    "span": 12626,
    "ar": 283,
    "\u0120Jazz": 21406,
    "ember": 1491,
    "\u0120FN": 44260,
    "\u0120conservatives": 12471,
    "\u0120helps": 5419,
    "\u0120independently": 14799,
    "reality": 46290,
    "\u0120Centers": 22223,
    "\u0120explorers": 45531,
    "\u0120dope": 45654,
    "\u0120woods": 16479,
    "326": 39195,
    "\u0120absorption": 24774,
    "1964": 46477,
    "\u0120Sanskrit": 46178,
    "atown": 41079,
    "pped": 1496,
    "\u0120Colleg": 34890,
    "\u0120synt": 7419,
    "\u0120Feel": 18571,
    "iously": 6819,
    "vered": 21917,
    "\u0120Charity": 37575,
    "\u0120measuring": 15964,
    "\u0120snippet": 39442,
    "rible": 5547,
    "\u0120bushes": 37413,
    "prints": 17190,
    "oxicity": 44086,
    "clinton": 37821,
    "\u0120tangled": 41431,
    "ushing": 8023,
    "\u0120Terry": 14286,
    "\u0120GB": 13124,
    "\u0120Woods": 16483,
    "\u0120Vir": 16310,
    "\u0120Nuggets": 33978,
    "\u0120transient": 32361,
    "\u0120inspire": 18330,
    "Earth": 22840,
    "\u0120overpower": 42905,
    "few": 32146,
    "\u013a\u0127": 11805,
    "imir": 13057,
    "\u0120drain": 14782,
    "\u0120Perhaps": 8673,
    "\u0120emails": 7237,
    "\u0120tougher": 20516,
    "\u0120OL": 22258,
    "asting": 9222,
    "overs": 13801,
    "\u0120Humane": 45936,
    "Greg": 25025,
    "\u0120Island": 5451,
    "\u0120equilibrium": 29163,
    "\u0120minds": 9017,
    "\u0120Cav": 19931,
    "\u0120awards": 13304,
    "\u0120signing": 8415,
    "\u0120exposed": 7362,
    "scar": 13034,
    "\u0120halves": 37192,
    "ieri": 29864,
    "\u0120tang": 13875,
    "\u0120Kling": 28638,
    "\u0120rearr": 37825,
    "\u0120enters": 14170,
    "\u0120Halloween": 16032,
    "\u0120manifestations": 38538,
    "RA": 3861,
    "\u0120Drinking": 43963,
    "\u0120Referred": 47361,
    "\u0120Jade": 23386,
    "ssl": 45163,
    "\u0120Wealth": 35151,
    "\u0120Come": 7911,
    "\u0120RX": 24202,
    "\u0120IR": 14826,
    "\u0120mish": 29406,
    "Rand": 38918,
    "\u0120generals": 26770,
    "\u0120Voting": 30061,
    "\u0120Rift": 21222,
    "\u0120Barclays": 37985,
    "\u0120Hogwarts": 30922,
    "tree": 21048,
    "cost": 15805,
    "\u0120granddaughter": 46458,
    "\u0120drying": 29621,
    "infeld": 47187,
    "\u00c3\u0141": 39683,
    "\u0120laud": 28907,
    "\u0120Kuwait": 27028,
    "IENT": 28495,
    "\u0120switching": 15430,
    "\u0120Lauderdale": 45577,
    "\u0120separ": 2880,
    "\u0120attorney": 6136,
    "\u0120activates": 36206,
    "\u0120recognized": 8018,
    "\u0120Cha": 20703,
    "ICLE": 31419,
    "\u0120Direct": 4128,
    "\u0120ii": 21065,
    "TOP": 35222,
    "halla": 41911,
    "vag": 29821,
    "\u0120titan": 48047,
    "ket": 7126,
    "\u00e3\u0124\u00b9\u00e3\u0125\u012a": 43302,
    "similar": 38610,
    "\u0120hitting": 9008,
    "\u00e5\u00a4\u00a7": 32014,
    "_.": 44807,
    "\u0120lacked": 19989,
    "\u0120restructuring": 32324,
    "Way": 25309,
    "\u0120GG": 37442,
    "\u0120neighboring": 19651,
    "\u0120ever": 1683,
    "\u0120haul": 25647,
    "\u0120Prosecut": 26233,
    "\u0120sheer": 15163,
    "Author": 13838,
    "\u0120vines": 44439,
    "\u0120''": 10148,
    "\u0120allege": 33831,
    ")=": 47505,
    "layer": 29289,
    "\u0120curator": 46132,
    "bra": 16057,
    "\u0120Tanzania": 37270,
    "fam": 44769,
    "\u0120movies": 6918,
    "\u0120Super": 3115,
    "\u0120anticipated": 14486,
    "push": 14689,
    "\u0120deities": 43844,
    "zzo": 47802,
    "\u0120compartment": 26247,
    "\u0120Init": 44707,
    "\u0120Yas": 25957,
    "\u0120Democr": 2459,
    "ady": 4597,
    "\u0120lava": 28856,
    "\u0120TRI": 37679,
    "\u0120succeeding": 34195,
    "\u0120Standards": 20130,
    "\u0120Inc": 3457,
    "985": 42250,
    "\u0120bites": 26081,
    "\u0120cache": 12940,
    "\u0120JPM": 40145,
    "\u00c2\u00ab": 24328,
    "\u0120Randall": 29799,
    "\u0120cryptographic": 40705,
    "\u0120Certain": 16272,
    "\u0120rewarded": 20945,
    "\u0120Bond": 12812,
    "\u0120besie": 38128,
    "\u0120CDC": 20434,
    "\u0120SOME": 41670,
    "elong": 21537,
    "\u0120Wit": 40648,
    "anding": 27225,
    "jected": 35408,
    "\u0120disk": 11898,
    "Anti": 28795,
    "\u0120Manson": 41645,
    "\u0120dove": 38862,
    "Pub": 14876,
    "\u0120Glenn": 17551,
    "Marc": 22697,
    "\u0120Advertising": 40113,
    "\"},{\"": 11919,
    "ishing": 3929,
    "\u0120Burr": 38173,
    "\u0120Dreams": 21527,
    "\u0120Minutes": 23757,
    "Poll": 39176,
    "\u0120McD": 23394,
    "\u0120Juventus": 40912,
    "\u0120early": 1903,
    "\u0120sys": 25064,
    "Its": 20459,
    "\u0120swimming": 14899,
    "\u0120mail": 6920,
    "\u012f": 235,
    "pee": 39463,
    "\u0120due": 2233,
    "committee": 26799,
    "Jimmy": 40335,
    "\u0120Gavin": 30857,
    "wash": 34670,
    "\u0120freezes": 44389,
    "\u0120fitness": 13547,
    "\u0120LIC": 38559,
    "inv": 16340,
    "\u0120Laurel": 43442,
    "\u0120Reach": 25146,
    "belt": 37976,
    "Offic": 12710,
    "\u0120Sins": 50051,
    "\u0120Gross": 21796,
    "\u0120dolls": 36062,
    "itude": 3984,
    "Lady": 38887,
    "incerity": 40310,
    "Proxy": 44148,
    "eto": 27206,
    "\u0120distingu": 9418,
    "\u0120than": 621,
    "\u0120bush": 24484,
    "\u0120destroying": 13897,
    "reach": 16250,
    "\u0120Scrolls": 28859,
    "\u0120Convention": 11680,
    "\u0120Rage": 21663,
    "\u0120counts": 9853,
    "\u0120Fishing": 28944,
    "\u0120Sven": 44611,
    "\u0120Advisor": 35399,
    "ussen": 35951,
    "\u0120harms": 34859,
    "\u0120SW": 12672,
    "fi": 12463,
    "\u0120CB": 10078,
    "\u01202004": 5472,
    "Element": 20180,
    "\u0120Europeans": 20006,
    "ighthouse": 32303,
    "friend": 6726,
    "\u0120subway": 19612,
    "Road": 29197,
    "\u0120trucks": 13960,
    "\u0120fulfilling": 26187,
    "\u0120feds": 43646,
    "\u01201961": 20510,
    "\u0120Norman": 19636,
    "\u0120frequency": 8373,
    "warts": 26586,
    "\u0120Garg": 39013,
    "\u0120Royale": 49982,
    "inelli": 44076,
    "ologue": 39795,
    "\u0120medic": 6924,
    "umni": 25402,
    "Lu": 25596,
    "\u0120empire": 13735,
    "\u0120Witness": 21440,
    "amn": 34684,
    "\u0120bins": 41701,
    "\u0120collectively": 21329,
    "\u0120livestream": 49683,
    "\u0120pests": 44283,
    "\u0120Na": 11013,
    "\u0120guiIcon": 30211,
    "regation": 43068,
    "\u0120depends": 8338,
    "uations": 6055,
    "\u0120Inn": 10849,
    "\u0120Buy": 11763,
    "uj": 23577,
    "\u0120SPECIAL": 38846,
    "1982": 30763,
    "\u0120Nicholson": 40365,
    "\u0120Colon": 14049,
    "\u0120eval": 5418,
    "\u0120hydrogen": 17669,
    "\u0120urban": 7876,
    "\u0120Burst": 30635,
    "\u0120scholarship": 18652,
    "\u0120alternative": 5559,
    "\u0120furious": 21799,
    "\u0120\u00e0\u00a8": 42314,
    "IPP": 31444,
    "\u0120Sprint": 23178,
    "\u0120hunger": 16460,
    "\u0120con": 369,
    "310": 26717,
    "\u0120salts": 37056,
    "\u0120wrath": 26485,
    "ispers": 27148,
    "hens": 5135,
    "\u0120Oilers": 35004,
    "\u0120Syrian": 6318,
    "\u0120Birds": 27124,
    "oho": 40950,
    "Lock": 25392,
    "oti": 5092,
    "Lastly": 37511,
    "\u0120deprecated": 39224,
    "Lewis": 40330,
    "\u0120Yelp": 44628,
    "SCP": 48956,
    "\u0120committees": 17460,
    "\u0120great": 1049,
    "\u0120Homo": 41500,
    "\u0120Tyson": 27320,
    "Ag": 10262,
    "\u0120briefings": 44091,
    "\u0120Cran": 32919,
    "\u0120treaties": 30734,
    "\u0120repetitive": 28585,
    "\u0120design": 1486,
    "\u0120erupted": 23681,
    "\u0120Phelps": 40587,
    "truth": 35310,
    "\u0120Dong": 28831,
    "holy": 44287,
    "\u0120bright": 6016,
    "\u0120feudal": 37591,
    "\u0120Capture": 31793,
    "beans": 44749,
    "\u0120seizing": 37054,
    "\u0120boxer": 38660,
    "\u0120interstellar": 48851,
    "\u0120FD": 30002,
    "\u0120nutritional": 24000,
    "Adds": 46245,
    "chemist": 28899,
    "told": 44040,
    "\u0120sleep": 3993,
    "provided": 41279,
    "runtime": 43282,
    "\u0120Nora": 32561,
    "\u0120CSI": 49911,
    "PER": 18973,
    "Region": 47371,
    "\u0120Kodi": 44129,
    "702": 36680,
    "\u0120Lock": 13656,
    "rued": 21556,
    "\u0120overthrow": 25525,
    "\u0120Ry": 11089,
    "\u0120Talks": 47595,
    "RW": 46747,
    "ovo": 18768,
    "\u0120MOT": 42982,
    "\u0120attached": 7223,
    "\u0120Maximum": 22246,
    "oso": 28213,
    "\u0120template": 11055,
    "hw": 36599,
    "\u0120donkey": 50085,
    "\u0120Risk": 19602,
    "\u0120Gast": 31486,
    "\u0120font": 10369,
    "\u0120multiplication": 48473,
    "\u0120unlock": 12116,
    "aryn": 38621,
    "series": 25076,
    "ishi": 21644,
    "\u0120rule": 3896,
    "\u0120override": 20957,
    "Tomorrow": 49488,
    "\u0120horse": 8223,
    "ceptions": 11755,
    "Army": 45272,
    "'';": 44648,
    "repeat": 44754,
    "\u0120ie": 37941,
    "\u0120AAP": 31518,
    "\u0120five": 1936,
    "................": 4181,
    "\u0120strongh": 26733,
    "\u0120MOV": 28184,
    "ground": 2833,
    "answer": 41484,
    "\u0120verses": 24752,
    "iris": 29616,
    "\u0120urgency": 25615,
    "\u0120Exit": 29739,
    "rose": 13698,
    "\u0120shocked": 11472,
    "\u0120flexibility": 13688,
    "\u0120Speech": 24709,
    "\u0120library": 5888,
    "Rock": 19665,
    "\u0120teaspoons": 47234,
    "sche": 15952,
    "\u0120Asked": 26220,
    "ici": 44070,
    "\u0120Josh": 8518,
    "\u0120methamphetamine": 39278,
    "erk": 9587,
    "CAN": 44565,
    "\u0120AF": 12341,
    "\u0120biased": 21925,
    "\u0120Mortgage": 45446,
    "\u0120entertained": 34988,
    "\u0120Obama": 2486,
    "\u0120NI": 24947,
    "\u0120FreeBSD": 35841,
    "lem": 10671,
    "\u0120Kra": 21553,
    "\u0120unwittingly": 48726,
    "\u0120760": 48284,
    "Stage": 29391,
    "\u0120Narr": 28390,
    "\u0120fig": 2336,
    "arb": 38039,
    "\u0120dataset": 27039,
    "\u0120title": 3670,
    "\u0120babe": 42666,
    "ishable": 31785,
    "\u0120Oprah": 47857,
    "81": 6659,
    "\u0120Joe": 5689,
    "\u0120Veget": 23892,
    "urga": 45098,
    "NESS": 31097,
    "\u0120Montgomery": 21532,
    "\u0120Kraken": 43392,
    "\u0120embracing": 26005,
    "erves": 11184,
    "rifice": 31932,
    "\u0120El": 2574,
    "aryl": 36822,
    "\u0120indo": 23046,
    "\u0120hoops": 46730,
    "\u0120emanc": 37672,
    "\u0120touched": 12615,
    "\u0120SetTextColor": 45003,
    "rouch": 48626,
    "183": 24839,
    "\u0120pancakes": 47008,
    "\u0120LOL": 35513,
    "achable": 34446,
    "\u0120pitted": 46852,
    "\u0120LAW": 38675,
    "ophile": 37161,
    "\u0120Hyder": 47660,
    "\u0120prism": 46475,
    "\u0120tenant": 18285,
    "anye": 23495,
    "\u0120stances": 47814,
    "uterte": 23314,
    "\u0120Them": 26460,
    "Bad": 22069,
    "ufficient": 15267,
    "\u0120detachment": 42925,
    "\u0120Abuse": 24221,
    "\u0120Fre": 4848,
    "\u0120Appropriations": 37552,
    "sequence": 43167,
    "\u0120weekday": 28269,
    "ttp": 29281,
    "\u0120Amar": 44291,
    "\u0120stay": 2652,
    "\u0120Gr": 1902,
    "ipedia": 11151,
    "\u0120chef": 21221,
    "\u0120gasped": 45236,
    "lor": 4685,
    "\u0120pillars": 30485,
    "\u0120Cultural": 23897,
    "\u0120maybe": 3863,
    "\u0120Yep": 40810,
    "\u0120unfolding": 34502,
    "2019": 23344,
    "\u0120synchron": 18305,
    "\u0120cull": 37429,
    "iona": 32792,
    "\u0120earthquakes": 29781,
    "\u0120120": 7982,
    "\u0120mall": 17374,
    "\u0120mes": 18842,
    "EA": 16412,
    "Listen": 23061,
    "\u0120Faith": 16463,
    "\u0120IE": 28157,
    "\u0120Weather": 15615,
    "\u0120pipelines": 31108,
    "\u0120Birmingham": 18899,
    "BRE": 40438,
    "\u0120Utt": 36057,
    "****": 2466,
    "\u0120pony": 26902,
    "\u0120corrective": 46534,
    "performing": 37440,
    "\u0120para": 31215,
    "\u0120prescribe": 32651,
    "\u0120Normal": 14435,
    "\u0120900": 15897,
    "Pitt": 47627,
    "\u0120pretext": 35097,
    "\u0120upd": 2325,
    "\u0120priorities": 15369,
    "\u0120lam": 30592,
    "\u0120cubic": 27216,
    "\u0120FAA": 26228,
    "\u0120Ride": 21640,
    "\u0120Highly": 38254,
    "\u0120responses": 9109,
    "atti": 34891,
    "LAN": 25697,
    "\u0120foes": 20822,
    "69": 3388,
    "\u0120improving": 10068,
    "ritten": 9108,
    "ISON": 39960,
    "uscript": 15817,
    "\u0120Mess": 10626,
    "eely": 45269,
    "\u00ef\u00bf\u00bd\u00ef\u00bf\u00bd\u00ef\u00bf\u00bd": 48585,
    "essler": 33730,
    "\u0120moot": 41264,
    "\u0120substr": 47294,
    "\u0120conquer": 23875,
    "ias": 4448,
    "\u0120Usage": 29566,
    "do": 4598,
    "\u0120finer": 38575,
    "\u0120Chronicles": 17740,
    "\u0120communication": 6946,
    "\u0120Commonwealth": 17165,
    "\u0120Kn": 6102,
    "\u00f1": 173,
    "\u0120acclaimed": 27023,
    "\u0120ledger": 37208,
    "\u0120clubhouse": 48018,
    "ouses": 11370,
    "\u0120healthy": 5448,
    "\u0120edit": 4370,
    "\u0120HG": 48698,
    "netic": 9833,
    "farm": 43323,
    "\u0120bog": 22922,
    "cean": 5829,
    "\u0120billing": 26297,
    "\u0120replaced": 6928,
    "\u0120cooks": 38383,
    "\u0120reconnaissance": 39471,
    "received": 47844,
    "\u0120Apex": 49440,
    "fac": 38942,
    "\u0120150": 6640,
    "\u0120outlining": 36995,
    "\u0120medicine": 9007,
    "').": 27691,
    "icken": 5973,
    "\u0120ethic": 29520,
    "ogged": 42545,
    "\u0120downturn": 34540,
    "\u0120carving": 39510,
    "\u0120KDE": 36632,
    "\u0120cryst": 17787,
    "manship": 25428,
    "\u0120Phantom": 14407,
    "\u0120Extensions": 49751,
    "\u0120considered": 3177,
    "\u0120Meg": 8336,
    "cedented": 12292,
    "seed": 28826,
    "itter": 1967,
    "\u0120Rib": 23133,
    "\u0120Jorge": 34687,
    "\u0120Stella": 45856,
    "\u0120concerned": 5213,
    "\u0120operation": 4905,
    "\u0120move": 1445,
    "irit": 3276,
    "\u0120Rangers": 13804,
    "Fin": 18467,
    "DW": 42955,
    "\u0120Fed": 10169,
    "ingly": 4420,
    "\u0120Gerard": 41459,
    "\u0120psychologically": 39705,
    "uddenly": 18865,
    "\u0120Latin": 9133,
    "\u0120Haram": 33139,
    "oll": 692,
    "\u0120oldest": 13325,
    "\u0120Viet": 8730,
    "359": 30743,
    "\u0120Fri": 19480,
    "\u0120hitch": 35996,
    "\u0120Mort": 10788,
    "used": 1484,
    "rones": 9821,
    "\u0120settlement": 9443,
    "syn": 28869,
    "\u0120Enabled": 37344,
    "\u0120training": 3047,
    "\u0120Joy": 14087,
    "rypt": 6012,
    "\u0120don": 836,
    "\u0120automobile": 27930,
    "herry": 13372,
    "\u0120funn": 36090,
    "Sources": 21188,
    "\u0120Stadium": 10499,
    "323": 32637,
    "Fred": 30847,
    "645": 49259,
    "article": 20205,
    "\u0120plan": 1410,
    "ARP": 36035,
    "\u0120resp": 1217,
    "\u0120Sold": 12324,
    "\u0120disposal": 18264,
    "entin": 31371,
    "Empty": 40613,
    "round": 744,
    "\u0120\u00c3\u0139": 13958,
    "!--": 28112,
    "\u0120Sh": 911,
    "?\u00e3\u0122\u012f": 42943,
    "\u0120Ge": 2269,
    "\u0120NW": 21966,
    "\u0120Vladimir": 14840,
    "\u0120arguing": 11810,
    "Robert": 19156,
    "\u0120st": 336,
    "\u0120Bour": 20576,
    "\u0120vacuum": 17076,
    "\u0120Dise": 14865,
    "axe": 38231,
    "\u0120hasht": 20267,
    "\u0120indic": 2699,
    "erv": 712,
    "\u0120electrical": 12278,
    "\u0120Khalid": 44544,
    "\u0120nose": 9686,
    "\u0120dialog": 17310,
    "\u0120packets": 24624,
    "\u0120dual": 10668,
    "\u0120on": 319,
    "\u0120Dietary": 40767,
    "assault": 46635,
    "\u0120gro": 7128,
    "Michigan": 40610,
    "\u0120Track": 17762,
    "pres": 18302,
    "\u0120blog": 4130,
    "obic": 20803,
    "\u0120Os": 8834,
    "\u0120replies": 20616,
    "\u0120workings": 35084,
    "\u0120Mahmoud": 38554,
    "urden": 42568,
    "\u0120awoken": 43532,
    "\u0120Glacier": 49120,
    "That": 2504,
    "inker": 24275,
    "\u0120respons": 2424,
    "\u0120Zika": 30861,
    "\u0120atom": 22037,
    "ife": 901,
    "\u0120thinner": 30125,
    "\u0120MacBook": 28084,
    "SR": 12562,
    "\u0120crypto": 21473,
    "\u0120Coul": 27854,
    "DVD": 39218,
    "\u0120Strike": 12282,
    "\u0120Hatt": 48509,
    "\u0120tricks": 15910,
    "\u0120pointing": 10609,
    "\u0120eleg": 15361,
    "\u0120Scar": 12089,
    "\u0120Magnum": 48019,
    "\u0120Monica": 23240,
    "\u0120ceramic": 37973,
    "\u0120Someone": 17877,
    "\u01201895": 46425,
    "\u0120Kaplan": 37105,
    "\u0120some": 617,
    "Construct": 42316,
    "\u0120Pax": 48008,
    "\u0120Krish": 31372,
    "\u0120Bil": 24207,
    "\u0120poppy": 47867,
    "Master": 18254,
    "CO": 8220,
    "\u0120Cadillac": 46089,
    "\u0120Rhino": 47759,
    "\u0120slave": 11778,
    "\u0120Dartmouth": 47888,
    "\u0120concept": 3721,
    "hibit": 26964,
    "\u0120Alicia": 39607,
    "%)": 4407,
    "Info": 12360,
    "\u0120impedance": 47472,
    "aepernick": 28333,
    "\u0120specialize": 39868,
    "\u0120bake": 28450,
    "Old": 19620,
    "tern": 759,
    "alm": 38182,
    "\u0120October": 3267,
    "\u0120Gro": 10299,
    "\u0120///": 34013,
    "\u0120lun": 14678,
    "\u0120Grizz": 31106,
    "896": 48712,
    "296": 27137,
    "584": 46352,
    "\u0120levy": 35783,
    "\u0120regular": 3218,
    "363": 35447,
    "\u0120BEN": 44849,
    "\u0120advocated": 25828,
    "atin": 10680,
    "\u0120Platform": 19193,
    "\u0120prowess": 30721,
    "\u0120Margaret": 19579,
    "Window": 27703,
    "\u0120Romney": 8431,
    "\u0120lodging": 42906,
    "\u0120PTSD": 26974,
    "\u0120Kund": 45099,
    "\u0120inhab": 11381,
    "\u0120Nost": 48150,
    "\u0120courtyard": 34941,
    "rior": 7701,
    "\u0120key": 1994,
    "\u0120landsc": 25227,
    "Cos": 36734,
    "\u0120liver": 14383,
    "275": 23195,
    "Condition": 48362,
    "Feel": 35114,
    "\u0120clinicians": 41883,
    "\u0120Vaj": 39838,
    "\u0120unlocks": 23872,
    "\u0120ISPs": 28677,
    "record": 22105,
    "achelor": 19335,
    "\u0120emotional": 7016,
    "\u0120tightening": 36040,
    "000": 830,
    "\u0120monuments": 28814,
    "\u0120ideal": 7306,
    "spring": 16469,
    "inen": 42326,
    "\u0120recommend": 4313,
    "color": 8043,
    "\u0120awesome": 7427,
    "');": 24036,
    "\u0120initiate": 22118,
    "\u0120\u00e2\u012a\u00bc": 42783,
    "\u0120attendance": 14858,
    "\u0120rumours": 30427,
    "\u0120Publication": 45065,
    "\u0120Cout": 40253,
    "\u0120meant": 4001,
    "fb": 21855,
    "\u0120knees": 14475,
    "\u0120tablet": 14147,
    "\u0120param": 5772,
    "\u0120LINE": 48920,
    "\u0120Klopp": 43461,
    "\u0120bust": 13076,
    "levant": 14938,
    "\u0120dim": 5391,
    "\u0120metre": 42760,
    "\u0120blender": 40047,
    "\u0120BMI": 22456,
    "\u0120crates": 40382,
    "\u0120Manga": 27024,
    "\u0120man": 582,
    "END": 10619,
    "\u0120franc": 46754,
    "\u0120entirely": 5000,
    "\u0120Supplemental": 48165,
    "\u0120Pep": 24226,
    "\u0120asserts": 29348,
    "\u0120Equ": 7889,
    "\u0120vantage": 47929,
    "\u0120denies": 18866,
    "\u0120trophy": 16383,
    "RO": 13252,
    "pract": 29152,
    "\u0120Rent": 29832,
    "Fu": 41133,
    "\u0120152": 24848,
    "\u0120expectations": 9027,
    "Christian": 20298,
    "\u0120paw": 41827,
    "\u0120supported": 4855,
    "its": 896,
    "\u0120Abrams": 32414,
    "\u0120ATF": 39215,
    "\u0120squarely": 38590,
    "enced": 5864,
    "ROR": 16411,
    "\u0120tab": 7400,
    "Remote": 36510,
    "\u0120Forest": 9115,
    "rib": 822,
    "\u0120hippocampus": 38587,
    "\u00ce\u00b5": 30950,
    "empl": 18856,
    "\u0120coating": 26749,
    "matical": 44935,
    "\u0120important": 1593,
    "olphin": 27161,
    "oop": 11224,
    "\u0120CRE": 29244,
    "\u0127": 227,
    "\u0120respondent": 31282,
    "andr": 46273,
    "\u0120Relative": 45344,
    "\u0120thank": 5875,
    "='": 11639,
    "Cert": 37608,
    "\u0120gap": 7625,
    "\u0120thro": 9244,
    "\u0120Scientific": 22060,
    "\u0120brav": 49025,
    "\u0120Ank": 24792,
    "\u0120Pond": 41598,
    "\u0120comrades": 24863,
    "Sadly": 36725,
    "\u0120Nit": 24282,
    "\u0120maps": 8739,
    "\u0120plaintiff": 20870,
    "\u0120pieces": 5207,
    "ivation": 26939,
    "este": 29872,
    "Rest": 19452,
    "\u0120Kirby": 23965,
    "\u0120sample": 6291,
    "\u0120offences": 20819,
    "\u0120salary": 9588,
    "\u0120IRC": 30039,
    "aint": 2913,
    "\u0120Kills": 23478,
    "\u0120adjustable": 28138,
    "\u0120bought": 5839,
    "\u0120sorts": 10524,
    "\u0120NRA": 23962,
    "\u0120head": 1182,
    "\u0120Chest": 25544,
    "\u0120Data": 6060,
    "ACH": 16219,
    "\u0120KB": 14204,
    "MO": 11770,
    "\u0120fatig": 46291,
    "\u0120component": 7515,
    "players": 32399,
    "\u0120Packers": 17832,
    "\u0120physically": 10170,
    "tick": 42298,
    "\u0120implying": 30253,
    "\u0120STD": 48571,
    "\u0120applic": 2161,
    "\u0120blasp": 30459,
    "\u0120intention": 6778,
    "AP": 2969,
    "\u0120Population": 20133,
    "\u00e3\u0122\u0123": 23513,
    "Buff": 36474,
    "\u0120exporting": 39133,
    "owler": 30014,
    "\u0120Mike": 4995,
    "Arab": 31602,
    "iliary": 28129,
    "\u0120Petr": 47377,
    "\u0120Scully": 47953,
    "\u0120inception": 30839,
    "\u0120plea": 16720,
    "Ban": 30457,
    "\u0120Macron": 31362,
    "Ch": 1925,
    "greSQL": 47701,
    "\u0120vulgar": 31016,
    "\u0120frantically": 42352,
    "\u0120perish": 42531,
    "\u0120beware": 40600,
    "\u0120wireless": 12521,
    "\u0120Victorian": 24569,
    "bara": 39389,
    "\u0120emblem": 32094,
    "\u0120roll": 4836,
    "OS": 2640,
    ".?": 40791,
    "itutes": 16845,
    "?]": 26398,
    "mar": 3876,
    "\u0120Prize": 15895,
    "\u0120exiled": 38702,
    "started": 46981,
    "sle": 26738,
    "\u0120collects": 26609,
    "\u0120databases": 20083,
    "\u0120Headquarters": 32193,
    "\u012066": 7930,
    "DOC": 38715,
    "\u0120aboard": 15500,
    "\u0120charter": 17422,
    "\u0120Kel": 15150,
    "\u0120visitor": 21493,
    "\u0120confrontation": 19207,
    "\u0120adding": 4375,
    "\u0120belongings": 30985,
    "\u0120revisit": 32302,
    "411": 42224,
    "External": 41506,
    "Management": 48032,
    "\u0120BuzzFeed": 26321,
    "dq": 49506,
    "\u0120summarizes": 46145,
    "attr": 35226,
    "\u0120Legion": 15778,
    "\u0120wore": 12408,
    "ss": 824,
    "\u0120treated": 5716,
    "istence": 13274,
    "\u0120Natalie": 35571,
    "////": 9705,
    "aying": 8369,
    "\u0120Insert": 35835,
    "\u01202010": 3050,
    "\u0120spice": 25721,
    "\u0120Female": 15396,
    "\u0120AA": 15923,
    "iques": 6368,
    "\u0120components": 6805,
    "\u0120Practice": 19939,
    "otor": 20965,
    "\u00ef\u00bf\u00bd": 4210,
    "\u0120Length": 22313,
    "\u0120frust": 6730,
    "\u0120STOR": 46366,
    "\u0120postpone": 47328,
    "\u0120absurdity": 41793,
    "\u00cd": 137,
    "\u0120speeches": 18138,
    "FW": 24160,
    "246": 26912,
    "\u0120Gateway": 29916,
    "\u0120Shin": 11466,
    "sych": 2924,
    "priced": 30883,
    "BLE": 19146,
    "\u0120Offensive": 26855,
    "Exc": 40127,
    "han": 7637,
    "rik": 12602,
    "IAL": 12576,
    "\u0120multitude": 24124,
    "\u0120LTE": 28519,
    "\u0120scrim": 32157,
    "thouse": 23931,
    "lla": 8466,
    "friends": 36154,
    "AUT": 39371,
    "\u0120ol": 25776,
    "\u0120Photoshop": 29153,
    "Thunder": 45713,
    "\u0120Limit": 27272,
    "\u0120Riy": 33542,
    "\u0120advisable": 46511,
    "nice": 44460,
    "\u0120contemporary": 11811,
    "437": 43284,
    "mson": 24996,
    "urity": 1684,
    "\u0120perspect": 6009,
    "posium": 35864,
    "Turn": 17278,
    "\u0120Airbnb": 35079,
    "\u0120Output": 25235,
    "\u0120especially": 2592,
    "EY": 22348,
    "\u0120Teach": 42015,
    "\u0120appet": 16422,
    "\u0120alliances": 29614,
    "\u0120watershed": 42640,
    "\u0120blank": 9178,
    "achu": 32323,
    "\u0120extermin": 42393,
    "\u0120\u00c3\u00be": 40265,
    "\u0120bronze": 22101,
    "\u0120context": 4732,
    "\u012019": 678,
    "edia": 5507,
    "\u0120swayed": 47632,
    "\u0120FAT": 47200,
    "sis": 13429,
    "\u0120minimum": 5288,
    "\u0120silicon": 29867,
    "\u0120Compared": 27492,
    "\u0120SP": 6226,
    "\u0120RL": 45715,
    "\u0120Barton": 32342,
    "\u0120mixture": 11710,
    "\u0120poly": 7514,
    "Recent": 26446,
    "\u0120Monetary": 34112,
    "\u0120..........": 39864,
    "\u0120Vict": 6114,
    "\u0120Duel": 23958,
    "anca": 42124,
    "\u0120prejudice": 20226,
    "\u0120occupant": 47742,
    "284": 30336,
    "\u0120meas": 2212,
    "\u0120iso": 47279,
    "ials": 8231,
    "Court": 36699,
    "many": 21834,
    "\u0120CONFIG": 25626,
    "\u0120Elven": 40748,
    "\u0120EVENTS": 22399,
    "\u0120cylinder": 24911,
    "\u0120unm": 21303,
    "Be": 3856,
    "\u0120molecular": 18955,
    "\u0120Patriots": 13104,
    "\u0120Kore": 3374,
    "\u0120businessman": 19834,
    "integ": 18908,
    "029": 48891,
    "\u0120exclaim": 48775,
    "isel": 36811,
    "\u0120Osama": 29236,
    "\u00e3\u0125\u012b\u00e3\u0125\u00a9": 19073,
    "\u0120busiest": 42745,
    "\u0120suggest": 1950,
    "\u0120Situation": 49465,
    "\u0120never": 1239,
    "riv": 15104,
    "youtu": 32594,
    "\u0120vanish": 39572,
    "ime": 524,
    "\u0120repealing": 42753,
    "\u0120removed": 4615,
    "btn": 46118,
    "\u0120talents": 18054,
    "\u0120pocket": 10000,
    "\u0120novels": 16122,
    "\u0120decision": 2551,
    "\u0120Bib": 43278,
    "\u0120Intake": 48885,
    "Certain": 26469,
    "\u0120customize": 24184,
    "\u0120Thatcher": 31706,
    "saf": 49585,
    "\u0120Resolution": 22406,
    "users": 18417,
    "ETA": 20892,
    "\u0120valiant": 46258,
    "sit": 48937,
    "\u01201942": 22458,
    "\u0120libertarian": 19466,
    "rison": 7426,
    "\u0120diabetes": 12593,
    "atonin": 44248,
    "\u0120abstract": 12531,
    "\u0120dotted": 38745,
    "\u0120Shal": 47974,
    "itle": 2578,
    "\u0120EC": 13182,
    "\u0120trout": 49411,
    "ucer": 48915,
    "\u0120clerics": 47964,
    "lez": 36858,
    "\u0120Sector": 25892,
    "\u0120increasing": 3649,
    "468": 38472,
    "afe": 8635,
    "\u0120Preservation": 47805,
    "\u0120Mur": 5921,
    "\u0120Argentina": 16519,
    "\u0120unab": 40986,
    "\u0120whales": 24635,
    "DE": 7206,
    "\u0120Istanbul": 25299,
    "\u0120seize": 21031,
    "\u0120ebook": 47179,
    "REC": 38827,
    "\u0120consumers": 7008,
    "\"\u00e2\u0122\u0136": 15327,
    "Georg": 33428,
    "\u0120bolts": 24667,
    "\u0120native": 6868,
    "\u0120FedEx": 45212,
    "Buyable": 39693,
    "\u0120rays": 24823,
    "\u0120stocking": 49774,
    "\u0120admirable": 37959,
    "\u0120condemnation": 28215,
    "\u0120stuffing": 43672,
    "\u0120details": 3307,
    "\u0120tmp": 45218,
    "\u0120Cr": 3864,
    "762": 48194,
    "\u0120upsetting": 38423,
    "\u0120Gaz": 21347,
    "\u0120reclaim": 28232,
    "\u0120forgiving": 43486,
    "\u0120Kobe": 29493,
    "\u0120Bol": 10797,
    ")].": 25295,
    "gt": 13655,
    "\u0120Diseases": 39988,
    "Actually": 26417,
    "anson": 23103,
    "\u0120bless": 12012,
    "popular": 47568,
    "\u0120Marcel": 36547,
    "issan": 24112,
    "Prom": 24129,
    "\u012000000000": 27551,
    "\u0120Dual": 20446,
    "\u0120Michel": 12386,
    "inals": 6897,
    "\u0120Gab": 12300,
    "angle": 9248,
    "\u0120Text": 8255,
    "\u0120synthesis": 21263,
    "\u0120Terms": 17637,
    ".........": 34617,
    "Folder": 41092,
    "\u0120relegation": 47652,
    "fl": 2704,
    "\u0120Vs": 31280,
    "Fil": 11928,
    "\u0120Cob": 14828,
    "\u0120earned": 7366,
    "\u0120rab": 27998,
    "\u0120Sevent": 35734,
    "Week": 20916,
    "\u0120CPR": 42920,
    "lex": 2588,
    "\u0120sect": 15951,
    "\u0120Virus": 40584,
    "rastructure": 6410,
    "\u01201880": 34865,
    "\u0120Forward": 19530,
    "\u0120Region": 17718,
    "imedia": 20626,
    "\u0120Virtual": 15595,
    "\u0120earlier": 2961,
    "isky": 34041,
    "\u0120leasing": 42150,
    "non": 13159,
    "\u0120continually": 17451,
    "\u0120spoon": 24556,
    "\u0120Killer": 19900,
    "ollywood": 31777,
    "acons": 37256,
    "\u0120tone": 8216,
    "\u0120ARTICLE": 48301,
    "\u0120mushroom": 28520,
    "acements": 28613,
    "Tokens": 22906,
    "Hal": 40202,
    "\u0120optimizations": 41446,
    "ixty": 19404,
    "\u0120banned": 9301,
    "\u0120looting": 39473,
    "\u0120onstage": 38500,
    "TV": 6849,
    "\u0120flavors": 17361,
    "\u0120music": 2647,
    "\u0120Funny": 40473,
    "v": 85,
    "hler": 49737,
    "\u0120FF": 18402,
    "\u0120intu": 14605,
    "\u0120almost": 2048,
    "\u0120Harbor": 21146,
    "298": 27728,
    "\u0120Clint": 21549,
    "\u0120pus": 4192,
    "\u0120seated": 21639,
    "hoe": 38979,
    "pipe": 34360,
    "ulpt": 13327,
    "\u0120Never": 7236,
    "\u0120inconsistencies": 40467,
    "je": 18015,
    "\u0120cr": 1067,
    "\u0120Melanie": 49872,
    "Dust": 43767,
    "OV": 8874,
    "\u0120blatant": 29000,
    "trigger": 46284,
    "\u0120somewhat": 6454,
    "\u0120burnt": 22999,
    "rovers": 31257,
    "\u0120tether": 49477,
    "\u0120discretion": 14130,
    "oly": 3366,
    "higher": 46503,
    "\u0120meltdown": 37824,
    "\u0120surveys": 16255,
    "\u0120Troy": 21439,
    "members": 30814,
    "\u0120discharged": 26476,
    "development": 31267,
    "onel": 26261,
    "\u0120ear": 1027,
    "Anna": 31160,
    "acly": 39691,
    "\u0120Languages": 42860,
    "VERTISEMENT": 18679,
    "idation": 24765,
    "\u0120weaknesses": 20256,
    "\u0120possibility": 5885,
    "Cry": 26677,
    "\u0120Liberties": 34226,
    "\u0120Club": 6289,
    "asser": 24929,
    "\u0120Storm": 8865,
    "\u0120ki": 47748,
    "success": 13138,
    "\u0120Ultr": 46487,
    "\u0120Shirt": 45180,
    "\u0120curfew": 49565,
    "\u0120conflicts": 12333,
    "uries": 4740,
    "Dispatch": 49354,
    "branded": 35559,
    "\u0120simplistic": 35010,
    "\u0120Passing": 46389,
    "\u0120macro": 15021,
    "\u0120Genie": 49405,
    "\u0120struggling": 9648,
    "\u0120cabin": 9351,
    "\u0120hospitality": 33362,
    "\u0120Stall": 35719,
    "\u0120mand": 6855,
    "-[": 49146,
    "\u0120bicycles": 35426,
    "\u0120dinner": 8073,
    "\u0120alluded": 45652,
    "endar": 9239,
    "\u0120columnist": 22309,
    "eyed": 18834,
    "\u0120trailed": 40060,
    "\u0120Dakota": 13336,
    "VILLE": 38526,
    "\u0120pics": 27618,
    "\u0120ey": 1926,
    "\u0120intimately": 42075,
    "gewater": 40843,
    "\u0120Ham": 4345,
    "float": 22468,
    "alist": 49845,
    "\u0120Giving": 35603,
    "\u0120apprehension": 46473,
    "ferred": 18186,
    "\u0120prosper": 13983,
    "Scene": 36542,
    "\u0120tal": 3305,
    "\u0120Nu": 21733,
    "ardo": 13109,
    "\u0120aged": 9722,
    "\u0120widening": 38118,
    "\u0120actu": 43840,
    "Der": 28532,
    "\u0120unaccount": 48422,
    "\u0120situation": 3074,
    "\u0120buddy": 24407,
    "\u0120Explan": 50125,
    "\u0120ad": 512,
    "\u0120dismay": 29793,
    "\u0120194": 30483,
    "Bir": 50091,
    "106": 15801,
    "\u0120destruct": 15256,
    "....": 1106,
    "DOS": 35178,
    "\u0120gaze": 17841,
    "\u0120Alc": 43757,
    "\":\"/": 15473,
    "\u0120endeavour": 47054,
    "\u0120older": 4697,
    "\u0120designated": 11032,
    "ADVERTISEMENT": 19053,
    "\u0120pri": 1293,
    "\u0120Norton": 30722,
    "\u0120singing": 13777,
    "\u0120contention": 22627,
    "\u0120limitation": 17385,
    "Mem": 13579,
    "\u0120Mills": 19790,
    "\u0120intrigued": 33720,
    "\u0120Bind": 41211,
    "elaide": 25078,
    "\u0120Burger": 28983,
    "ivariate": 42524,
    "Disc": 15642,
    "etc": 14784,
    "Man": 5124,
    "\u0120substance": 9136,
    "\u0120predicting": 25539,
    "amara": 47848,
    "\u0120Process": 10854,
    "\u0120Hamburg": 32526,
    "\u0120inver": 40631,
    ".............": 44274,
    "\u0120Thailand": 16952,
    "\u0120spilled": 31896,
    "\u0120patched": 39378,
    "97": 5607,
    "\u0120proving": 17742,
    "\u0120styl": 22152,
    "\u0120walking": 6155,
    "\u0120Seoul": 22372,
    "\u0120sheet": 9629,
    "\u0120Reilly": 47879,
    "\u0120APIs": 23113,
    "\u0120Austria": 17322,
    "\u0120indict": 16056,
    "2006": 13330,
    "\u0120evangelicals": 44881,
    "\u0120thigh": 19341,
    "uri": 9900,
    "\u0120pap": 20461,
    "Accessory": 41629,
    "Lake": 43035,
    "\u0120Arduino": 27634,
    "\u0120sql": 44161,
    "CP": 8697,
    "\u0120beads": 36116,
    "\u0120birthday": 10955,
    "\u0120relating": 11270,
    "\u0120cathedral": 41756,
    "\u0120incredible": 8082,
    "\u0120dab": 45553,
    "\u0120chiefs": 30217,
    "\u0120147": 22909,
    "\u0120seventh": 14024,
    "\u0120Phase": 18983,
    "\u0120Ukrainians": 49114,
    "\u0120backward": 19528,
    "ALSE": 23719,
    "\u0120node": 10139,
    "\u0120Brick": 28347,
    "\u0120ponder": 37375,
    "\u0120vari": 5553,
    "\u0120rightful": 43133,
    "\u0120grouped": 32824,
    "\u0120collection": 4947,
    "\u0120independence": 10404,
    "\u0120sexes": 32487,
    "\u0120Cumber": 38732,
    "avage": 33757,
    "rendered": 26238,
    "\u0120air": 1633,
    "db": 9945,
    "\u0120Panzer": 46294,
    "vised": 16149,
    "\u0120Lin": 5164,
    "\u0120heroes": 10281,
    "\u0120redd": 14688,
    "\u0120markings": 30390,
    "ridor": 44425,
    "\u0120disadvant": 14560,
    "\u0120relevant": 5981,
    "\u00e1\u00b9": 26292,
    "\u0120candles": 32268,
    "\u0120Nich": 12760,
    "\u0120critics": 9188,
    "\u00c8": 132,
    "\u0120seem": 1283,
    "\u0120sung": 23568,
    "\u0120Amateur": 48576,
    "\u0120opium": 40299,
    "zeb": 38130,
    "Tri": 14824,
    "\u0120Bernardino": 35680,
    "\u0120accommodations": 33839,
    "verson": 49589,
    "olicy": 21424,
    "ITION": 17941,
    "\u0120app": 598,
    "\u0120addition": 3090,
    "abl": 23117,
    "\u0120IPM": 50200,
    "\u0120342": 44341,
    "ombies": 12676,
    "igel": 47709,
    "\u0120Lean": 45661,
    "\u0120Toronto": 6586,
    "\u0120Jan": 2365,
    "\u0120lapse": 42689,
    "checks": 42116,
    "\u0120bisexual": 24249,
    "\u0120Polaris": 41193,
    "776": 39509,
    "conserv": 38925,
    "Five": 20029,
    "apest": 35746,
    "Invest": 19070,
    "\u0120Federal": 5618,
    "\u0120Scotch": 46755,
    "322": 37283,
    "AKING": 43602,
    "ilty": 6267,
    "\u0120Execution": 37497,
    "\u0120\"\"": 13538,
    "\u0120Pse": 49693,
    "Marvel": 38864,
    "\u0120tops": 21246,
    "\u0120abused": 15519,
    "\u0120techno": 44950,
    "99": 2079,
    "orf": 24263,
    "\u0120heav": 6002,
    "\u0120commer": 4412,
    "\u0120Required": 20906,
    "\u0120webcam": 49823,
    "Rare": 26737,
    "\u0120Guinness": 41559,
    "so": 568,
    "\u0120wealthier": 49311,
    "\u0120staggered": 48480,
    "Beer": 49802,
    "Sim": 8890,
    "\u0120speak": 2740,
    "\u0120protagonist": 20281,
    "\u0120bikini": 45810,
    "\u0120recall": 10014,
    "450": 17885,
    "\u0120Temporary": 46042,
    "\u0120piracy": 30955,
    "otta": 12375,
    "\u0120quantify": 36336,
    "\u0120Department": 2732,
    "\u0120lan": 26992,
    "\u0120Visitors": 44535,
    "\u0120ENTER": 46962,
    "\u0120Clay": 15551,
    "\u0120Aerial": 47475,
    "iness": 1272,
    "\u0120Fel": 13937,
    "\u0120Forge": 24855,
    "\u0120Forces": 12700,
    "\u0120Training": 13614,
    "\u0120SATA": 35070,
    "against": 32826,
    "\u0120170": 16677,
    "\u0120Fellow": 29764,
    "\u0120Animals": 25390,
    "\u0120spect": 5444,
    "entious": 43787,
    "\u0120SetFontSize": 39446,
    "\u0120derogatory": 44094,
    "Ts": 33758,
    "frac": 31944,
    "\u0120reviews": 8088,
    "ult": 586,
    "Age": 23396,
    "iz": 528,
    "\u0120:=": 19039,
    "uddle": 24500,
    "\u0120animal": 5044,
    "\u0120Horses": 49122,
    "itz": 4224,
    "\u0120masse": 41869,
    "\u0120Enh": 15860,
    "\u0120,\"": 42911,
    "\u00e8\u00a1": 26193,
    "'ll": 1183,
    "\u0120strat": 25369,
    "lisher": 8191,
    "ptives": 43903,
    "\u0120UPS": 33513,
    "\u00dd": 153,
    "\u0120hops": 29438,
    "\u0120history": 2106,
    "\u0120descript": 12145,
    "\u0120stunt": 25756,
    "\u0120emot": 4085,
    "highly": 47444,
    ")-": 13219,
    "\u0120edge": 5743,
    "\u0120Miranda": 29575,
    "\u0120semblance": 45960,
    "\u0120advantages": 13391,
    "htar": 38672,
    "\u0120sonic": 36220,
    "\u0120initiatives": 15446,
    "\u0120comfort": 4467,
    "SELECT": 46506,
    "\u0120temporarily": 13413,
    "\u0120tra": 1291,
    "\u0120Arab": 4498,
    "Domain": 43961,
    "\u0120Poverty": 30627,
    "\u00e2\u0122\u0136\u00e2\u0122\u0136\u00e2\u0122\u0136\u00e2\u0122\u0136\u00e2\u0122\u0136\u00e2\u0122\u0136\u00e2\u0122\u0136\u00e2\u0122\u0136\u00e2\u0122\u0136\u00e2\u0122\u0136\u00e2\u0122\u0136\u00e2\u0122\u0136\u00e2\u0122\u0136\u00e2\u0122\u0136\u00e2\u0122\u0136\u00e2\u0122\u0136": 30542,
    "\u0120rapport": 49498,
    "\u0120sink": 14595,
    "\u0120CE": 18671,
    "ryption": 13168,
    "\u0120owned": 6898,
    "caliber": 43288,
    "rences": 34303,
    "\u0120Say": 13816,
    "\u0120TER": 28994,
    "\u0120deprive": 41613,
    "\u0120watching": 4964,
    "\u0120survivors": 13644,
    "Reilly": 25819,
    "E": 36,
    "\u0120Hiroshima": 42922,
    "\u0120196": 28817,
    "ten": 1452,
    "\"],\"": 34171,
    "\u0120ME": 11948,
    "\u0120regulating": 26379,
    "\u0120Second": 5498,
    "Check": 9787,
    "ndum": 11021,
    "actions": 4658,
    "\u0120attachment": 18231,
    "\u0120Lisp": 38593,
    "\u0120Atmospheric": 41516,
    "\u0120Evans": 13922,
    "\u0120RSA": 42319,
    "\u0120illuminating": 46717,
    "\u0120Concord": 34732,
    "\u0120Freedom": 10204,
    "\u0120barrel": 9036,
    "\u0120overr": 23170,
    "\u0120borrow": 8804,
    "ISIS": 29322,
    "\u0120frightening": 23101,
    "\u0120Immortal": 32888,
    "olitical": 13781,
    "\u0120territories": 16771,
    "\u0120wake": 7765,
    "ulic": 28575,
    "\u0120Wiley": 43424,
    "++++": 14030,
    "fell": 23299,
    "\u0120Reverse": 31849,
    "\u0120Vac": 25709,
    "\u0120insulin": 14588,
    "\u0120Garden": 11652,
    "ricted": 20941,
    "sh": 1477,
    "\u0120angular": 32558,
    "\u0120traveler": 40168,
    "dt": 28664,
    "\u0120unfortunately": 12716,
    "ottage": 29480,
    "\u0120countries": 2678,
    "chio": 40900,
    "\u0120Augustus": 48339,
    "\u0120database": 6831,
    "\u0120Prison": 16999,
    "\u0120northern": 7840,
    "\u0120AX": 43051,
    "generic": 41357,
    "\u0120Sergio": 36759,
    "\u0120fuller": 44757,
    "\u0120circuitry": 42344,
    "orks": 3647,
    "\u0120Chapter": 7006,
    "\u0120FROM": 16034,
    "\u0120tropes": 43275,
    "\u0120Amazon": 6186,
    "\u0120earners": 37342,
    "focus": 37635,
    "\u0120houses": 7777,
    "udden": 16557,
    "\u0120cleaned": 20750,
    "\u0120strength": 4202,
    "fml": 38122,
    "\u0120Aviv": 28890,
    "\u0120Things": 11597,
    "\u0120Saga": 19743,
    "\u0120troops": 6553,
    "acist": 20279,
    "\u0120victorious": 31956,
    "hat": 5183,
    "Others": 25599,
    "\u0120countering": 50043,
    "\u0120restless": 42537,
    "\u0120Ang": 2895,
    "\u00e3\u0125\u012b": 13765,
    "\u0120usur": 39954,
    "\u0120Telescope": 36789,
    "\u0120subtract": 34128,
    "---------------": 24305,
    "\u0120Laura": 16753,
    "\u0129": 229,
    "aign": 1784,
    "\u0120nonsense": 18149,
    "\u0120quart": 28176,
    "ords": 3669,
    "\u0120orn": 25322,
    "\u0120blinded": 38497,
    "\u0120Abram": 39631,
    "\u0120//[": 31161,
    "\u0120mocked": 29180,
    "Hardware": 49865,
    "\u0120UE": 27595,
    "\u0120discuss": 2112,
    "\u0120Witcher": 36018,
    "\u0120sciences": 19838,
    "\u0120ate": 15063,
    "\u0120Memorial": 14861,
    "\u0120Bernstein": 37584,
    "ooo": 34160,
    "Leaks": 17874,
    "\u0120attack": 1368,
    "\u0120caul": 46087,
    "\u0120Learns": 30667,
    "290": 24369,
    "\u0120tray": 26473,
    "\u0120Schultz": 26530,
    "\u0120residences": 45402,
    "member": 19522,
    "\u0120119": 15136,
    "\u0120spying": 23649,
    "\u0120risk": 2526,
    "inkle": 19894,
    "\u0120Wednesday": 3583,
    "\u0120Window": 26580,
    "\u00e2\u013a": 24583,
    "Tom": 13787,
    "\u0120root": 6808,
    "\u0120onlook": 47747,
    "\u0120Hannah": 26013,
    "\u0120ambition": 20505,
    "aka": 8130,
    "roy": 3287,
    "icrobial": 48518,
    "\u0120prolonged": 20573,
    "\u0120Opera": 26049,
    "\u0120Aure": 43737,
    "\u0120rh": 9529,
    "\u0120Hicks": 31750,
    "\u0120resistor": 45032,
    "RAFT": 44700,
    "\u0120ordered": 6149,
    "David": 11006,
    "\u0120substantially": 13788,
    "\u0120Alic": 34745,
    "std": 19282,
    "ww": 1383,
    "\u0120Wald": 24261,
    "\u0120syntax": 15582,
    "\u0120stating": 12316,
    "\u0120trails": 19196,
    "\u0120Rosenberg": 40827,
    "\u0120International": 4037,
    "\u0120licens": 8240,
    "\u0120Blumenthal": 44888,
    "any": 1092,
    "udder": 41686,
    "\u0120NETWORK": 49791,
    "\u0120gu": 915,
    "\u0120Medals": 42171,
    "\u0120Fees": 37691,
    "\u0120evil": 6181,
    "bike": 32256,
    "\u0120Legislation": 30270,
    "hz": 32179,
    "posted": 40578,
    "\u0120source": 2723,
    "\u0120Kardash": 42239,
    "\u0120evidence": 2370,
    "\u0120irrad": 47537,
    "\u0120Alice": 14862,
    "Ros": 35740,
    "\u0120investors": 7713,
    "\u0120avoided": 13941,
    "ombie": 9081,
    "\u0120game": 983,
    "\u0120legal": 2742,
    "552": 40427,
    "\u0120Oblivion": 34181,
    "\u0120studies": 3640,
    "\u0120fraternity": 32474,
    "\u0120gentlemen": 28527,
    "iances": 16097,
    "ort": 419,
    "\u0120Jo": 5302,
    "\u0120Sultan": 37399,
    "\u0120examine": 10716,
    "\u0120whipping": 44637,
    "john": 30686,
    "\u0120ISIS": 7768,
    "strous": 22501,
    "piration": 10514,
    "\u0120Keller": 35999,
    "\u0120comics": 12770,
    "\u0120focus": 2962,
    "\u0120Royals": 30245,
    "driver": 26230,
    "efficiency": 45888,
    "789": 40401,
    "\u0120Alter": 32770,
    "ateurs": 45211,
    "\u0120Goodman": 33318,
    "\u0120orbs": 37403,
    "\u0120shelling": 38406,
    "URRENT": 39237,
    "\u0120loudspe": 48792,
    "\u0133\u00e5\u00a3\u00ab": 39374,
    "\u0120sorting": 29407,
    "\u00c3\u00b6n": 48863,
    "aps": 1686,
    "Travel": 33074,
    "\u0120commitments": 19405,
    "\u0120eurozone": 37465,
    "\u0120selfie": 38704,
    "\u0120USD": 11403,
    "\u0120nationality": 29835,
    "three": 15542,
    "hit": 17945,
    "\u0120immense": 13964,
    "\u0120extinction": 21935,
    "Four": 15137,
    "\u0120crop": 13833,
    "\u0120Jeffrey": 19627,
    "Target": 21745,
    "pent": 16923,
    "\u0120nar": 30083,
    "ariat": 21621,
    "iae": 33100,
    "\u0120praise": 13463,
    "brates": 44835,
    "\u0120Bok": 47390,
    "\u0120enormously": 36005,
    "\u0120Piper": 33503,
    "\u0120exposes": 32142,
    "\u0120CONC": 39962,
    "\u0120ST": 3563,
    "\u0120stark": 19278,
    "oric": 8146,
    "338": 28460,
    "\u00e8\u00bf": 32573,
    "\u0120grinned": 36268,
    "\u0120reverse": 9575,
    "\u00e3\u0123\u00ae\u00e9\u0143\u0136": 34633,
    "\u0120Mim": 39312,
    "\u00e5\u00b8": 30585,
    "\u0120Dustin": 37616,
    "rase": 22789,
    "letal": 47293,
    "\u0120Harm": 17925,
    "349": 27371,
    "\u0120Emir": 21579,
    "ickson": 46381,
    "\u0120URI": 43975,
    "\u0120Great": 3878,
    "\u0120vandal": 26271,
    "\u0120electric": 5186,
    "ored": 1850,
    "\u0120secondly": 48550,
    "\u0120deals": 7529,
    "\u0120sheltered": 49448,
    "\u0120budgetary": 47560,
    "\u0120coupons": 45972,
    "\u0120111": 13374,
    "etr": 21879,
    "\u0120Pistol": 36414,
    "Wind": 8731,
    "\u0120Sa": 10318,
    "\u0120Huge": 35225,
    "\u0120stuffed": 22259,
    "onew": 44181,
    "\u0120INV": 34899,
    "486": 34251,
    "\u0120Rays": 36199,
    "\u0120syll": 27226,
    "FAULT": 38865,
    "ECH": 25994,
    "Sometimes": 15468,
    "\u0120velvet": 47750,
    "\u0120Suzuki": 35807,
    "\u0120patriarch": 28915,
    "\u0120j": 474,
    "\u0120mined": 35959,
    "\u0120Ros": 10018,
    "\u0120catastrophe": 27767,
    "\u0120imbalance": 32556,
    "\u0120oppression": 18345,
    "\u0120disrupted": 30067,
    "472": 37856,
    "\u0120forceful": 42262,
    "?\".": 43634,
    ",'\"": 16078,
    "\u0120analges": 48895,
    "\u0120Shuttle": 35143,
    "\u0120deserve": 10925,
    "center": 16159,
    "\u0120Kate": 16693,
    "\u0120SK": 14277,
    "eph": 27446,
    "\u00c3\u00b6r": 30570,
    "\u0120Conservative": 11132,
    "HOU": 46685,
    "\u0120survey": 5526,
    "\u0120Severus": 41343,
    "og": 519,
    "VAL": 23428,
    "\u0120continues": 4477,
    "abo": 34748,
    "\u0120go": 467,
    "\u0120Territories": 42354,
    "\u0120Edition": 5061,
    "\u0120roster": 9354,
    "ibli": 29142,
    "\u0120compr": 12084,
    "UU": 30100,
    "\u0120mutation": 15148,
    "\u0120distribute": 14983,
    "\u0120Daddy": 26926,
    "\u0120jihadists": 31395,
    "\u0120Tracks": 42259,
    "chrome": 46659,
    "uthor": 1457,
    "od": 375,
    "\u0120Coal": 12896,
    "twitter": 6956,
    "Neill": 26538,
    "stead": 28044,
    "\u0120cunt": 40267,
    "\u0120strained": 30744,
    "\u0120standard": 3210,
    "\u0120fullest": 40830,
    "\u0120singles": 25287,
    "\u0120ahead": 4058,
    "\u0120attends": 32743,
    "\u0120suits": 14803,
    "spot": 20485,
    "clave": 44281,
    "\u00aa": 103,
    "nova": 38438,
    "imize": 48439,
    "DON": 41173,
    "\u011a": 214,
    "\u0120Sponge": 42681,
    "\u0120hugs": 40657,
    "\u0120lamps": 32209,
    "\u0120dues": 40789,
    "\u0120partition": 18398,
    "\u0120lone": 13497,
    "\u0120Sasha": 32151,
    "\u01201888": 49584,
    "825": 47338,
    "\u0120administration": 3662,
    "aji": 26436,
    "\u0120journal": 3989,
    "\u0120tariff": 36427,
    "\u0120extends": 14582,
    "Different": 40341,
    "114": 16562,
    "phies": 19380,
    "\u0120Monteneg": 50008,
    "\u0120Deus": 37365,
    "\u0120venue": 14359,
    "\u0120smugglers": 42876,
    "416": 35218,
    "site": 15654,
    "Reference": 26687,
    "\u0120contamin": 33554,
    "\u0120RW": 33212,
    "\u0120robbed": 26773,
    "Apply": 44836,
    "\u0120Fiorina": 49028,
    "\u0120bulbs": 34122,
    "oward": 46138,
    "\u0120discovering": 21611,
    "ithmetic": 29848,
    "\u0120monopol": 30797,
    "\u0120reminded": 14516,
    "\u0120Vote": 19175,
    "\u0120entrepreneurial": 39365,
    "oral": 6864,
    "\u0120lineback": 16166,
    "\u0120Wildlife": 18006,
    "\u0120Harden": 35017,
    "\u0120QUEST": 43658,
    "\u0120Kell": 25043,
    "\u0120powered": 13232,
    "\u0120Make": 6889,
    "eness": 9449,
    "[_": 29795,
    "\u0120Cathy": 40636,
    "mercial": 15790,
    "\u0120Cube": 23315,
    "\u0120Colorado": 7492,
    "\u0120internet": 5230,
    "\u0120revolutionaries": 44347,
    "reenshots": 39551,
    "RN": 42336,
    "\u0120reverted": 50239,
    "\u0120Miliband": 38199,
    "\u0120stickers": 28568,
    "\u0120spor": 35810,
    "202": 19004,
    "\u0120CBC": 20244,
    "\u0120narrated": 46190,
    "\u0120mummy": 38567,
    "'m": 1101,
    "\u0120Gators": 47470,
    "Jonathan": 30365,
    "lab": 23912,
    "--------------------------------------------------------": 43801,
    "\u0120hitter": 30858,
    "\u0120Summer": 10216,
    "weed": 39054,
    "\u0120revolutionary": 12253,
    "\u0120HUGE": 48068,
    "\u0120Dominic": 36401,
    "\u0120Hunt": 12937,
    "riors": 8657,
    "\u0120venture": 13189,
    "\u0120exhibited": 25212,
    "comb": 24011,
    "Sep": 19117,
    "ogene": 20878,
    "\u0120Unicode": 34371,
    "upp": 7211,
    "dom": 3438,
    "\u0120383": 49814,
    "Simple": 26437,
    "\u0120HMS": 44247,
    "\u0120sensit": 44752,
    "\u0120Selling": 47919,
    "\u0120acne": 32877,
    "indust": 23213,
    "\u0120Loki": 31771,
    "\u00c2\u00ae,": 45088,
    "\u0120revis": 22124,
    "\u0120McDonald": 14115,
    "\u0120defender": 13191,
    "iox": 12190,
    "\u0120Halo": 18597,
    "\u0120Internal": 18628,
    "wolf": 18829,
    "\u00ce\u00bc": 34703,
    "Paper": 42950,
    "Whatever": 21875,
    "bnb": 31971,
    "\u0120Calder": 36468,
    "Dead": 20489,
    "\u0120Cars": 25277,
    "\u0120bicycl": 48094,
    "\u0120prep": 3143,
    "Imagine": 25153,
    "\u0120Tube": 34510,
    "\u0120Armenian": 29388,
    "\u0120Wet": 32930,
    "':": 10354,
    "upon": 27287,
    "mun": 6199,
    "\u0120surn": 33113,
    "\u0120Sacred": 17380,
    "rf": 41871,
    "\u0120Warsaw": 32955,
    "uary": 2838,
    "\u0120Ajax": 46362,
    "\u0120FANTASY": 30626,
    "\u0120cellul": 47354,
    "\u0120cases": 2663,
    "\u01201960": 9507,
    "\u0120ordinances": 36968,
    "\u0120missionaries": 37458,
    "eday": 23712,
    "\u0120reaching": 8978,
    "ellen": 40635,
    "\u0120Decoder": 34580,
    "\u00e2\u0136\u0122": 7280,
    "\u0120legion": 41453,
    "\u0120reinstated": 40685,
    "razil": 7098,
    "\u0120Cameron": 10821,
    "\u0120thorn": 38999,
    "\u0120Whether": 10127,
    "\u0120exceed": 7074,
    "\u0120Martin": 5780,
    "\u0120dye": 30121,
    "\u0120drought": 18393,
    "ilts": 50076,
    "ine": 500,
    "\u0120starts": 4940,
    "Users": 14490,
    "\u0120adulthood": 28003,
    "\u0120eclipse": 25872,
    "\u0120Yan": 10642,
    "rr": 21062,
    "itized": 36951,
    "\u0120stationary": 31607,
    "ogs": 18463,
    "\u0120revol": 35891,
    "wid": 28029,
    "\u0120Dust": 16240,
    "\u0120lighting": 12019,
    "\u0120Mic": 7631,
    "externalActionCode": 31576,
    "\u0120brood": 50167,
    "Rec": 6690,
    "\u0120pointed": 6235,
    "\u0120French": 4141,
    "\u0120Nazis": 19147,
    "\u0120internationally": 19765,
    "\u0120insurance": 5096,
    "\u0120tact": 6293,
    "ixie": 39291,
    "\u0120fluor": 26967,
    "\u0120Kum": 19162,
    "Sum": 13065,
    "\u0120Py": 9485,
    "\u0120harmonic": 49239,
    "\u0120council": 6745,
    "igi": 25754,
    "\u0120Ago": 48210,
    "\u0120unsu": 48092,
    "\u0120Orders": 30689,
    "\u0120SHAR": 39225,
    "arthed": 36370,
    "amas": 17485,
    "ivism": 25085,
    "\u0120real": 1103,
    "marine": 42380,
    "\u0120scare": 19437,
    "\u0120trips": 13229,
    "\u0120mt": 45079,
    "\u0120joke": 9707,
    "opter": 32563,
    "\u0120saga": 26784,
    "\u0120possibly": 5457,
    "\u0120Ware": 28593,
    "doctor": 35580,
    "\u0120convincing": 17101,
    "GP": 16960,
    "\u0120shred": 21163,
    "\u0120Frozen": 23673,
    "\u0120aiding": 37221,
    "\u0120illustrations": 27128,
    "\u0120Ack": 36031,
    "inion": 23971,
    "\u0120Saul": 31603,
    "\u00e0\u00a5": 24231,
    "\u013b\u00bd": 50159,
    "\u0120328": 39093,
    "\u0120frig": 36780,
    "ipp": 3974,
    "\u0120LAN": 24192,
    "isms": 6583,
    "\u0120weap": 2432,
    "Color": 10258,
    "\u0120intensified": 32413,
[...]
