{
    "\u0120Bullet": 18003,
    "\u0120fue": 37911,
    "Sil": 15086,
    "ENT": 3525,
    "jer": 44009,
    "uce": 7234,
    "\u0120punishable": 30124,
    "\u0120Crane": 38376,
    "\u0120heightened": 25556,
    "\u0120Minimum": 26265,
    "\u00e1\u00b8": 41585,
    "\u0120probe": 12774,
    "\u0120manager": 4706,
    "button": 16539,
    "cz": 26691,
    "\u0120DJs": 48644,
    "\u0120Cris": 15088,
    "\u0120unlimited": 15822,
    "\u0120Ahmed": 21157,
    "\u0120skirt": 23967,
    "\u0120adequ": 9939,
    "\u0120blast": 11975,
    "\u0120eyeing": 48847,
    "\u00e8\u0122": 32003,
    "\u0120navigate": 16500,
    "\u0120Emirates": 24880,
    "\u0120Len": 12592,
    "Hash": 26257,
    "\u0120Tele": 14318,
    "\u0120creations": 28443,
    "ino": 2879,
    "\u0120Occup": 15227,
    "\u0120See": 4091,
    "ibrarian": 35808,
    "\u0120exhibited": 25212,
    "\u0120Pip": 25149,
    "\u0120works": 2499,
    "First": 5962,
    "\u00ee\u0122": 29773,
    "\u0120tendon": 42205,
    "\u0120caf\u00c3\u00a9": 40304,
    "\u0120travelled": 21650,
    "Mer": 13102,
    "870": 46951,
    "med": 1150,
    "energy": 22554,
    "\u0120articulated": 36877,
    "Leary": 48487,
    "\u0120roomm": 26255,
    "\u0120Unlock": 39626,
    "\u0120Precision": 39281,
    "\u0120aval": 37441,
    "\u0120Completed": 32983,
    "sey": 4397,
    ":#": 43922,
    "\u0120misled": 38796,
    "\u0120daunting": 30496,
    "origin": 47103,
    "\u0120technician": 33024,
    "\u0120disturbed": 24069,
    "\u0120Ric": 15868,
    "\u0120polarized": 46469,
    "ongyang": 20659,
    "rolley": 42639,
    "\u0120orderly": 39164,
    "rop": 1773,
    "\u0120Allison": 33461,
    "\u0120Shall": 38451,
    "\u010a": 198,
    "\u0120320": 20959,
    "tarian": 14012,
    "\u0120ber": 18157,
    "\u0120Record": 13266,
    "\u0120sweets": 42402,
    "\u0120climates": 45225,
    "eth": 2788,
    "\u0120Kitt": 43670,
    "010": 20943,
    "\u0120coordination": 19877,
    "\u0120fing": 8038,
    "Father": 34823,
    "\u0120labels": 14722,
    "anked": 14076,
    "\u0120light": 1657,
    "\u0120Provision": 43161,
    "\u0120cater": 20825,
    "\u0120dun": 12574,
    "\u0120microbiome": 48465,
    "aci": 32009,
    "\u0120RG": 34359,
    "\u0120Substance": 50021,
    "\u0120receive": 3328,
    "\u0120625": 48868,
    "\u0120picks": 11103,
    "\u0120counterpart": 11283,
    "\u0120helpers": 49385,
    "\u0120leap": 16470,
    "\u0120Rail": 12950,
    "\u0120paramilitary": 43542,
    "q": 80,
    "\u0120looph": 24307,
    "\u0120\u00e2\u0136": 13305,
    "\u0120oceans": 23744,
    "\u0120tee": 30479,
    "need": 31227,
    "\u0120Prediction": 46690,
    "false": 9562,
    "\u0120vow": 23268,
    "\u0120contradicted": 44853,
    "ashington": 2542,
    "1": 16,
    "Canada": 17940,
    "\u0120discussing": 11142,
    "\u0120Bucs": 44099,
    "\u0120supposed": 4385,
    "\u0120Antiqu": 47789,
    "\u0120leadership": 5531,
    "Drop": 26932,
    "\u0120penis": 16360,
    "\u0120communist": 20555,
    "stration": 12401,
    "VA": 11731,
    "\u0120Ventura": 43204,
    "\u0120Rs": 12820,
    "\u0120futures": 25650,
    "chance": 39486,
    "\u00e3\u0123\u00be": 30159,
    "\u00a5\u00b5": 35069,
    "\u0120assumes": 18533,
    "Jim": 18050,
    "akespe": 20621,
    "\u0120anticipate": 23794,
    "\u0120towel": 24808,
    "\u0120Chim": 28466,
    "\u0120receiving": 6464,
    "\u0120Vaj": 39838,
    "\u0120greedy": 31828,
    "OTAL": 27510,
    "\u0120sticky": 23408,
    "\u0120into": 656,
    "\u0120quarter": 3860,
    "eners": 36014,
    "\u0120playback": 16388,
    "\u0120accessory": 28207,
    "\u0120Randall": 29799,
    "\u0120Stream": 13860,
    "Capture": 49630,
    "\u0120Recre": 30009,
    "/+": 28404,
    "\u0120afore": 18036,
    "\u0120inhib": 11062,
    "bath": 37648,
    "Guest": 42481,
    "604": 31916,
    "uchin": 43416,
    "\u0120enticing": 47460,
    "Joseph": 29458,
    "\u0120prox": 14793,
    "\u0120summary": 10638,
    "bia": 23339,
    "IV": 3824,
    "Small": 18712,
    "\u0120songs": 7259,
    "\u0120Lund": 33609,
    "\u0120humorous": 36102,
    "\u0120settling": 25446,
    "\u0120somebody": 8276,
    "\u0120fonts": 26806,
    "\u0120Triumph": 41337,
    "\u0120document": 3188,
    "igg": 6950,
    "MAN": 10725,
    "\u0120closes": 20612,
    "\u0120Meier": 40860,
    "\u0120subclass": 47611,
    "\u0120eng": 1786,
    "\u0120Anaheim": 31100,
    "\u0120Kon": 17431,
    "\u0120exclusive": 8568,
    "\u0120dou": 2255,
    "Jes": 22290,
    "\u0120cone": 27763,
    "\u01201700": 35665,
    "\u0120collisions": 31998,
    "But": 1537,
    "382": 36243,
    "\u0120defeats": 29234,
    "\u0120Cream": 19979,
    "England": 39163,
    "eness": 9449,
    "\u0120disarm": 35526,
    "\u0120Layout": 47639,
    "\u0120statistical": 13905,
    "\u0120request": 2581,
    "gex": 25636,
    "\u0120dug": 18735,
    "ale": 1000,
    "izont": 12071,
    "\u0120Demo": 34588,
    "\u0120Meh": 37070,
    "ancy": 3883,
    "\u0120\u00c2\u0142\u0120\u00c2\u0142\u0120\u00c2\u0142\u0120\u00c2\u0142": 22686,
    "\u0120Siege": 30207,
    "\u0120Pittsburgh": 12767,
    "\u0120soap": 19533,
    "elta": 12514,
    "\u0120inauguration": 23166,
    "246": 26912,
    "\u0120Florida": 4744,
    "105": 13348,
    "vant": 4520,
    "\u0120WE": 12887,
    "668": 35809,
    "\u0120impatient": 33440,
    "afia": 22214,
    "\u0120typo": 46517,
    "ither": 1555,
    "kell": 17164,
    "\u0120danger": 3514,
    "onduct": 12920,
    "\u0120RC": 13987,
    "DeliveryDate": 39749,
    "ocom": 42829,
    "\u0120rig": 7805,
    "\u0120Naz": 12819,
    "\u0120Walking": 21276,
    "phabet": 19557,
    "erey": 48023,
    "mel": 17694,
    "\u0120Superman": 14951,
    "\u0120Afric": 3295,
    "brown": 33282,
    "\u0120opioid": 23039,
    "\u0120dominated": 13354,
    "\u0120congressional": 11702,
    "\u0120poorest": 27335,
    "\u0120Samantha": 34778,
    "\u0120stared": 18484,
    "\u0120Building": 11819,
    "\u0120\u00c2\u00a5": 38221,
    "\u0120Brist": 23072,
    "\u0120Ibn": 29375,
    "\u0120buy": 2822,
    "\u0120eye": 4151,
    "\u0120troublesome": 35778,
    "Does": 13921,
    "\u0120organising": 46729,
    "\u0120proposal": 6961,
    "\u0120plague": 23684,
    "\u0120infancy": 38120,
    "tale": 29429,
    "\u0120drain": 14782,
    "CLASS": 31631,
    "\u0120Freeman": 22394,
    "\u0120transcend": 26231,
    "\u0120soup": 17141,
    "\u0120Speed": 8729,
    "elsen": 25328,
    "Client": 11792,
    "ath": 776,
    "\u0120waived": 28170,
    "\u0120hunted": 34275,
    "\u0120indecent": 45400,
    "\u0120Bulg": 37957,
    "Scene": 36542,
    "Ware": 38824,
    "\u0120horses": 14260,
    "\u0120gaming": 7776,
    "\u0120spans": 32727,
    "rov": 18657,
    "\u0120Leaders": 19658,
    "berra": 31358,
    "maker": 10297,
    "\u0120vertex": 37423,
    "\u0120details": 3307,
    "alky": 18354,
    "\u0120KDE": 36632,
    "\u0120guise": 34731,
    "\u0120inappropriate": 15679,
    "\u0120jacket": 15224,
    "\u0120Resp": 10328,
    "\u0120Hare": 42285,
    "Gas": 39699,
    "\u0120Cornell": 27119,
    "results": 43420,
    "\u0120Tribunal": 31189,
    "\u0120Sound": 9506,
    "\u0120troop": 31874,
    "\u0120advocates": 11009,
    "\u0120inherited": 19552,
    "\u0120Verizon": 18062,
    "\u0120Astros": 27463,
    "\u0120WWII": 27256,
    "\u0120Lisa": 15378,
    "\u0120elites": 21887,
    "\u0120Squadron": 27242,
    "\u0120Tone": 45362,
    "Clock": 44758,
    "\u0120analysts": 13440,
    "\u0120expire": 24264,
    "\u0120Work": 5521,
    "\u0120strongh": 26733,
    "\u0120flaw": 11804,
    "\u0120gratification": 47459,
    "\u0120ancest": 10790,
    "\u0120pulse": 19445,
    "\u0120derivative": 27255,
    "538": 49561,
    "CHECK": 50084,
    "aint": 2913,
    "\u0120realistically": 39659,
    "\u0120astonishing": 21994,
    "\u0120Uganda": 30872,
    "\u0120Euph": 47441,
    "\u0120Tea": 15777,
    "\u0120highlighted": 14537,
    "Cloud": 18839,
    "\"!": 40484,
    "\u0120found": 1043,
    "\u0120biased": 21925,
    "ifestyle": 42004,
    "\u0120702": 43379,
    "organ": 9971,
    "bestos": 40651,
    "\u0134": 240,
    "\u0120Sw": 2451,
    "rophic": 18191,
    "\u0120faster": 5443,
    "\u0120Assistant": 15286,
    "\u0120how": 703,
    "\u0120contexts": 26307,
    "gaming": 48616,
    "\u0120Sport": 12771,
    "\u0120solicit": 25063,
    "AFTA": 32106,
    "Frank": 17439,
    "town": 12735,
    "\u0120Volunteer": 45202,
    "\u0120Latin": 9133,
    "hen": 831,
    "\u0120Pant": 11427,
    "\u0120disple": 34421,
    "*:": 47026,
    "\u0120bribe": 40879,
    "itary": 9331,
    "\u0120Plenty": 43257,
    "uable": 7153,
    "\u0120ill": 2801,
    "aters": 8605,
    "\u0120~/": 47795,
    "\u0120sport": 6332,
    "ipher": 10803,
    "ascript": 15961,
    "\u0120Upon": 14438,
    "\u0120null": 9242,
    "\u0120Gorge": 48420,
    "\u0120z": 1976,
    "\u0120Xander": 46122,
    "184": 22883,
    "zhen": 46732,
    "\u0120EVENT": 49261,
    "\u0120sleeves": 27409,
    "\u0120quant": 5554,
    "\u0120tedious": 32460,
    "\u0120overseeing": 29852,
    "\u0120Boot": 18892,
    "\u0120Mag": 2944,
    "\u0120bio": 13401,
    "\u0120tempered": 45735,
    "ono": 29941,
    "\u0120inheritance": 24155,
    "\u0120hangar": 44338,
    "\u0120Road": 5567,
    "\u0120mysql": 48761,
    "\u0120else": 2073,
    "\u0120187": 27649,
    "VID": 11008,
    "\u0120revealed": 4602,
    "\u00d7\u013e": 40010,
    "\u0120larger": 4025,
    "\u0120Rich": 3998,
    "\u0120workplaces": 47364,
    "izational": 22684,
    "low": 9319,
    "\u0120darkened": 44261,
    "\u0120Pen": 7507,
    "dan": 25604,
    "\u0120Wonderland": 42713,
    "\u0120Municipal": 31526,
    "\u0120experiences": 6461,
    "\u0120FANTASY": 30626,
    "\u0120Shogun": 46775,
    "\u0120advanced": 6190,
    "\u0120decades": 4647,
    "\u0120disappearing": 28867,
    "olated": 50027,
    "\u0120bloated": 45709,
    "\u0120drummer": 34269,
    "\u0120(\u00c2\u00a3": 23068,
    "iegel": 28210,
    "\u0120Postal": 32881,
    "Foreign": 33616,
    "\u0120Bland": 49524,
    "\u0120shape": 5485,
    "iri": 14783,
    "\u0120enlightenment": 35957,
    "\u0120brunch": 50219,
    "haven": 39487,
    "\u0120Spect": 13058,
    "\u0120anomal": 26921,
    "\u0120Noble": 20833,
    "aggressive": 49639,
    "icate": 5344,
    "Hard": 17309,
    "Coll": 22667,
    "\u0120sulph": 45558,
    "\u0120arrives": 14443,
    "ryn": 29441,
    "\u0120mattered": 33343,
    "\u0120booming": 32017,
    "\u0120pr": 778,
    "\u0120begged": 32946,
    "Introdu": 15005,
    "\u01201971": 16382,
    "\u0120closed": 4838,
    "\u0120showdown": 33338,
    "\u0120Ops": 26123,
    "\u0120Ends": 46756,
    "ylan": 18554,
    "racuse": 28268,
    "\u0120Donn": 48007,
    "\u0120enslaved": 39216,
    "BUG": 12953,
    "Pre": 6719,
    "\u0120families": 4172,
    "\u0120process": 1429,
    "\u0120paralysis": 35858,
    "gy": 1360,
    "\u0120wandered": 36036,
    "\u0120relegation": 47652,
    "\u00e2\u0122\u00a6.\"": 50248,
    "rooms": 9649,
    "\u0120cardiac": 26077,
    "\u0120referencing": 32578,
    "\u0120480": 23487,
    "\u0120outfield": 28307,
    "\u0120meaning": 3616,
    "\u0120Hos": 30789,
    "reviewed": 32974,
    "\u0120noticeable": 19787,
    "\u0120?": 5633,
    "asures": 13846,
    "otaur": 35269,
    "romptu": 49255,
    "\u0120storylines": 44880,
    "\u0120sluggish": 40186,
    "\u0120vine": 17793,
    "hemer": 39557,
    "\u0120traction": 23692,
    "771": 46761,
    "\u0120overl": 12893,
    "\u0120contest": 8414,
    "\u0120spirited": 46875,
    "Merit": 21583,
    "agree": 49221,
    "marriage": 45394,
    "\u0120Dumb": 42989,
    "\u0120vegetables": 13701,
    "\u0120parachute": 41015,
    "\u0120fermented": 44543,
    "Flags": 40053,
    "\u0120Reef": 34151,
    "\u0120Own": 11744,
    "response": 26209,
    "rast": 5685,
    "\u0120nerv": 8660,
    "Sen": 10445,
    "\u0120compl": 2299,
    "\u0120sid": 9785,
    "\u0120Versus": 44079,
    "\u0120transitional": 35577,
    "\u0120Contrary": 43607,
    "\u0120believed": 4762,
    "\u0120somewhere": 7382,
    "\u0120driveway": 33515,
    "\u0120specifications": 20640,
    "\u0120Points": 11045,
    "\u0120wanna": 18869,
    "\u0120D": 360,
    "umenthal": 42300,
    "\u0120Elemental": 21340,
    "\u0120fires": 12252,
    "\u0120287": 38721,
    "alloc": 32332,
    "ellen": 40635,
    "\u0120Pike": 29539,
    "Eng": 7936,
    "\u0120lax": 36919,
    "\u0120Production": 19174,
    "\u0120Squid": 48799,
    "\u0120inform": 4175,
    "quist": 30062,
    "\u0120Violence": 20908,
    "\u0120promise": 6991,
    "\u0120financial": 3176,
    "\u0120Period": 18581,
    "hover": 43753,
    "\u0120boring": 14262,
    "Balt": 41312,
    "acity": 4355,
    "\u00e5\u00b9": 33176,
    "\u0120intr": 9913,
    "\u0120Things": 11597,
    "\u0120bailed": 47739,
    "\u0120dissemin": 30548,
    "Cruz": 41811,
    "anding": 27225,
    "\u0120innovative": 13097,
    "Wire": 29451,
    "nov": 37302,
    "\u0120therapies": 29596,
    "\u0120bang": 20188,
    "\u0120voting": 6709,
    "\u0120Rove": 48351,
    "\u0135\u013a": 23596,
    "rive": 11590,
    "const": 9979,
    "nutrition": 40482,
    "AX": 25922,
    "\u0120spreads": 26779,
    "\u0120scient": 3062,
    "\u0120reeling": 45341,
    "\u0120photons": 44378,
    "paid": 20333,
    "\u00ed\u0137": 47991,
    "\u0120paused": 24487,
    "iversal": 11480,
    "\u0120Comed": 37024,
    "handler": 30281,
    "\u0120fate": 10030,
    "ices": 1063,
    "\u0120hundreds": 5179,
    "\u0120Distribut": 46567,
    "uf": 3046,
    "\u0120touring": 25583,
    "\u0120mage": 29241,
    "\u0120retrospective": 41432,
    "usher": 34055,
    "\u0120Notre": 23382,
    "\u0120168": 23378,
    ";;;;;;;;": 25887,
    "\u0120caution": 13041,
    "\u0120\u00e2\u0122\u00a2": 5595,
    "\u0120successes": 23682,
    "\u0120Downing": 31355,
    "\u0120roller": 24471,
    "traditional": 36380,
    "\u0120hatched": 49353,
    "inence": 18386,
    "\u0120Tears": 40328,
    "\u0120outbreak": 17645,
    "\u0120timelines": 46881,
    "\u0120rise": 4485,
    "\u0120Abilities": 31447,
    "\u0120Legends": 14270,
    "\u0120ballpark": 40598,
    "\u0120manslaughter": 35083,
    "\u0120tucked": 29779,
    "DK": 48510,
    "\u0120Han": 9530,
    "\u0120Tra": 4759,
    "Attribute": 33682,
    "rieving": 37418,
    "\u0120alerted": 28608,
    "\u0120sket": 28427,
    "\u0120slavery": 13503,
    "\u0120Ruby": 10888,
    "\u0120corner": 5228,
    "\u0120pursuits": 45968,
    "\u0120dig": 3100,
    "\u0120SE": 7946,
    "\u0120GDDR": 50092,
    "\u0120rapidly": 8902,
    "720": 23906,
    "MC": 9655,
    "\u0120indign": 35187,
    "\u0120leased": 40352,
    "\u0120avatar": 30919,
    "\u0120benches": 43183,
    "ary": 560,
    "\u00e2\u0122\u00b2": 17478,
    "\u0120loss": 2994,
    "\u0120rescued": 19868,
    "Plex": 46383,
    "\u0120emotion": 9942,
    "\u0120Chamber": 15840,
    "ifax": 26590,
    "\u0120Rebecca": 23489,
    "\u0120Axel": 42575,
    "\u0120Kimberly": 48685,
    "\u0120Defendants": 44162,
    "\u0120pine": 20161,
    "\u0120Aim": 36223,
    "\u0120LE": 12509,
    "\u0120ambulance": 22536,
    "\u0120Syrians": 26648,
    "\u0120Spawn": 36356,
    "\u0120Rockets": 23328,
    "\u0120diligent": 47334,
    "\u0120Clement": 27311,
    ">\"": 24618,
    "vp": 36133,
    "oma": 6086,
    "CP": 8697,
    "\u0120proximity": 20387,
    "\u0120match": 2872,
    "\u0120flow": 5202,
    "liber": 33203,
    "azeera": 28535,
    "\u0120virtuous": 41276,
    "\u0120Ready": 23432,
    "\u0120Territ": 18968,
    "\u0120indef": 16536,
    "Sea": 37567,
    "aldehyde": 44895,
    "\u0120Sally": 25737,
    "lot": 26487,
    "Sean": 26408,
    "dll": 12736,
    "\u0120Weber": 28137,
    "\u0120Obj": 38764,
    "\u0120Preview": 22217,
    "\u0120Killer": 19900,
    "orr": 38890,
    "\u0120joking": 29711,
    "Boston": 31710,
    "\u0120spit": 27591,
    "\u0120Scientist": 33374,
    "\u0120orbs": 37403,
    "Students": 28239,
    "compatible": 38532,
    "\u0120thanking": 41892,
    "\u0120Sch": 3059,
    "\u0120Swansea": 36019,
    "\u0120crime": 4065,
    "Hundreds": 38150,
    "\u0120industrialized": 47670,
    "\u0120muff": 27563,
    "inders": 29700,
    "\u0120fatigue": 18787,
    "anz": 35410,
    "\u0120decorative": 39798,
    "\u0120Ports": 30824,
    "\u0120anus": 47285,
    "\u0120pap": 20461,
    "\u0120Reaction": 39912,
    "\u0120swoop": 38527,
    "\u0120autism": 15998,
    "\u0120pred": 2747,
    "P": 47,
    "\u0120resin": 36536,
    "\u0120penchant": 41773,
    "\u0120Ub": 12021,
    "local": 12001,
    "\u0120withholding": 34180,
    "zzi": 46218,
    "Haunted": 46979,
    "\u0120Chattanooga": 45851,
    "\u012037": 5214,
    "Pok\u00c3\u00a9mon": 46602,
    "\u0120FAT": 47200,
    "Adds": 46245,
    "ao": 5488,
    "\u0120Sas": 23771,
    "isation": 5612,
    "\u0120Jungle": 26411,
    "\u0120CONTR": 27342,
    "\u0120hamm": 25755,
    "\u0120VOL": 38570,
    "\u0120reside": 26412,
    "\u0120Cot": 42266,
    "ossibility": 43691,
    "\u00b7": 115,
    "Mike": 16073,
    "\u0120himself": 2241,
    "\u0120Carry": 36366,
    "eker": 28233,
    "\u0120Fortunately": 20525,
    "auth": 18439,
    "\u0120wondered": 14028,
    "\u0120Patriot": 26888,
    "ochem": 18958,
    "hof": 39891,
    "BU": 19499,
    "\u0120hacked": 19957,
    "\u0120wrought": 38733,
    "ritch": 46510,
    "\u0120slows": 33019,
    "\u0120hip": 10359,
    "wit": 39289,
    "\u0120700": 13037,
    "urchase": 18737,
    "\u0120banging": 42028,
    "ibaba": 37541,
    "\u0120Disp": 36060,
    "\u0120Series": 7171,
    "\u0120agent": 5797,
    "1991": 24529,
    "iro": 7058,
    "ipop": 42800,
    "ung": 2150,
    "\u0120Jindal": 49816,
    "\u0120Horizon": 22776,
    "astery": 29310,
    "\u0120Craft": 15745,
    "\u0120over": 625,
    "jay": 33708,
    "\u0120Haku": 39222,
    "\u0120Rush": 13063,
    "\u0120humidity": 27716,
    "649": 33300,
    "\u0120Pagan": 46856,
    "100": 3064,
    "\u0120Pluto": 32217,
    "\u0120Samar": 34077,
    "\u0120Alabama": 9266,
    "\u0120mysteries": 26045,
    "\u0120survives": 36417,
    "iquette": 40387,
    "\u0120tends": 12444,
    "592": 45839,
    "\u00e5\u0132": 28938,
    "\u0120halls": 24350,
    "author": 9800,
    "\u0120Wars": 6176,
    "house": 4803,
    "\u0120deline": 46925,
    "\u0120resemble": 22464,
    "Gun": 22993,
    "\u0120dysfunction": 19327,
    "branded": 35559,
    "za": 4496,
    "\u0120selves": 40823,
    "\u0120commerce": 19497,
    "itation": 3780,
    "osure": 4567,
    "\u0120Follow": 7281,
    "Ground": 35539,
    "\u0120diction": 48589,
    "airy": 13021,
    "\u0120Sach": 20678,
    "omez": 30010,
    "udos": 42418,
    "Glass": 47698,
    "\u0120richer": 26192,
    "shr": 36007,
    "\u0120freely": 12748,
    "oper": 3575,
    "ilit": 6392,
    "\u0120incumbent": 23526,
    "beer": 42428,
    "bsite": 12485,
    "\u0120strikingly": 47305,
    "Bern": 23927,
    "550": 22730,
    "intern": 23124,
    "\u0120filmmakers": 28303,
    "\u0120dimensional": 38517,
    "pecially": 2333,
    "\u0120Resolution": 22406,
    "\u00e3\u0124\u00b9\u00e3\u0125\u012a": 43302,
    "\u0120Prison": 16999,
    "\u0120reciprocal": 48135,
    "\u0120370": 28687,
    "oreAndOnline": 40240,
    "\u0120cheek": 19353,
    "\u0120deductions": 31086,
    "\u0120reservoir": 22115,
    "\u0120Topic": 47373,
    "\u0120differences": 5400,
    "\u0120linen": 41822,
    "avoid": 27080,
    "\u0120Heavy": 14089,
    "\u0120century": 4289,
    "inka": 48955,
    "\u0120lived": 5615,
    "\u0120Horizons": 39519,
    "\u0120Bee": 24719,
    "\u0120provided": 2810,
    "\u0120beat": 4405,
    "\u0120murky": 39574,
    "\u0120displaced": 20085,
    "UPDATE": 16977,
    "nes": 2516,
    "016": 27037,
    "\u0120chop": 30506,
    "\u0120Cooking": 33774,
    "\u0120Chris": 5180,
    "\u0120routers": 41144,
    "\u0120Ec": 14003,
    "\u0120produces": 11073,
    "OND": 18672,
    "\u0120plant": 4618,
    "\u0120shut": 4423,
    "\u0120steadfast": 35690,
    "\u0120Cambodia": 31057,
    "storms": 38563,
    "jury": 21871,
    "urtle": 17964,
    "\u0120Echo": 21455,
    "\u0120hasn": 5818,
    "\u0120bott": 3005,
    "\u0120CPUs": 32340,
    "\u0120PS": 6599,
    "\u0120disturbance": 30497,
    "development": 31267,
    "ERSON": 29086,
    "\u0120Browne": 46760,
    "\u0120reporter": 9095,
    "emption": 11221,
    "\u0120VER": 33310,
    "\u0120rite": 46048,
    "\u00e3\u0123\u00aa": 26945,
    "kHz": 44191,
    "opening": 29443,
    "\u0120motiv": 6556,
    "\u0120Transformers": 39185,
    "\u0120dance": 9280,
    "Statistics": 48346,
    "\u0120squeezing": 40237,
    "\u0120preached": 38737,
    "85": 5332,
    "comment": 23893,
    "rosis": 37172,
    "HHHH": 41100,
    "Finding": 36276,
    "repl": 35666,
    "987": 44183,
    "illusion": 35760,
    "uv": 14795,
    "\u0120Tucker": 25951,
    "\u0120subjug": 43629,
    "morph": 24503,
    "oji": 31370,
    "christ": 43533,
    "\u0120Beats": 40210,
    "\u0120vowel": 48617,
    "\u0120focal": 25397,
    "orbit": 42594,
    "\u0120Chou": 41699,
    "\u0120Tenn": 9034,
    "Po": 18833,
    "\u0120strengthened": 27324,
    "\u0120ghosts": 25899,
    "\":-": 48219,
    "max": 9806,
    "\u0120Chrom": 18255,
    "\u0120finite": 27454,
    "\u0120certified": 15704,
    "\u0120occur": 3051,
    "\u0120brigade": 35889,
    "\u0120XT": 44235,
    "Ox": 38208,
    "\u0120violation": 8747,
    "\u0120corrobor": 30220,
    "\u0120frontline": 44956,
    "\u0120276": 38147,
    "ourney": 5604,
    "\u0120Zamb": 44418,
    "\u0120FIG": 19697,
    "\u0120infertility": 47906,
    "\u0120daddy": 35822,
    "\u0120licensed": 11971,
    "\u0120inhal": 40982,
    "\u0120lawmakers": 10191,
    "\u0120conceptual": 23355,
    "\u0120grateful": 14066,
    "\u0120activist": 11276,
    "\u0120attachments": 32161,
    "\u0120erg": 39035,
    "vm": 14761,
    "\u0120Fug": 47832,
    "\u0120st": 336,
    "\u0120chatter": 37303,
    "\u0120reminds": 17603,
    "\u0120ENT": 47353,
    "Rh": 38576,
    "Rest": 19452,
    "\u0120shade": 17979,
    "hot": 8940,
    "\u0120shortstop": 40388,
    "MI": 8895,
    "\u0120Metall": 35616,
    "pez": 46057,
    "\u0120van": 5719,
    "\u0120Euras": 35769,
    "fest": 23411,
    "\u0120Levant": 42607,
    "\u0120Potential": 32480,
    "\u0120auction": 14389,
    "\u0120Pett": 35043,
    "eye": 25379,
    "\u0120TAG": 37801,
    "\u0120Level": 5684,
    "\u0120eased": 44828,
    "\u0120messed": 32621,
    "\u0120Cause": 24228,
    "\u0120manned": 34737,
    "\u0120url": 19016,
    "surface": 42029,
    "\u0120hopeless": 23292,
    "rose": 13698,
    "XY": 34278,
    "\u0120mercenaries": 37569,
    "\u0120lifes": 25622,
    "\u0120Eight": 18087,
    "\u0120sm": 895,
    "\u0120SAP": 48323,
    "\u0120outspoken": 27687,
    "edience": 20826,
    "\u0120dign": 13469,
    "\u0120Whit": 13183,
    "arted": 19112,
    "edge": 14907,
    "f": 69,
    "\u0120livestock": 24424,
    "\u0120make": 787,
    "\u0120Within": 12511,
    "\u0120recorder": 38156,
    "zing": 9510,
    "Desc": 24564,
    "\u0120Originally": 19486,
    "Farm": 48412,
    "\u0120deteriorated": 44525,
    "\u0120rigged": 31043,
    "\u0120scenery": 31068,
    "302": 22709,
    "\u0120impressions": 25885,
    "\u0120connection": 4637,
    "\u0120Sylv": 24286,
    "marine": 42380,
    "\u0120referring": 9759,
    "\u0120muse": 26817,
    "isive": 13911,
    "ensen": 18756,
    "InstoreAndOnline": 40241,
    "iar": 12571,
    "\u0120DRM": 31400,
    "\u0120Tah": 26293,
    "ter": 353,
    "258": 25600,
    "ay": 323,
    "\u0120Nguyen": 42379,
    "\u0120volumes": 15343,
    "starter": 12339,
    "\u0120highways": 27239,
    "\u0120horrified": 32816,
    "thood": 12951,
    "\u0120Floor": 22343,
    "\u0120\u00ce\u00bc": 18919,
    "\u0120indication": 12955,
    "HK": 38730,
    "rawdownload": 30905,
    "oval": 8325,
    "\u00e5\u0130": 43889,
    "\u0120collective": 10098,
    "\u0120solicitor": 48709,
    "cpu": 36166,
    "brates": 44835,
    "889": 39121,
    "location": 24886,
    "borgh": 49870,
    "ing": 278,
    "Hol": 28115,
    "\u0120Darren": 26203,
    "gil": 37718,
    "umbnails": 13668,
    "\u0120fulfilling": 26187,
    "\u0120any": 597,
    "\u0120issued": 4884,
    "ional": 1538,
    "iked": 17951,
    "\u0120mand": 6855,
    "\u0120Offensive": 26855,
    "\u0120insurg": 17844,
    "\u0120deals": 7529,
    "\u0120SDK": 26144,
    "\u0120Treasury": 13419,
    "\u0120persuasive": 40116,
    "\u0120Duck": 21867,
    "\u0120drowning": 32249,
    "\u0120Passive": 31652,
    "gp": 31197,
    "\u0120Tao": 32120,
    "224": 24137,
    "scene": 29734,
    "adder": 26676,
    "ki": 4106,
    "\u00e4\u00b8\u012b": 49011,
    "Ms": 10128,
    "\u0120ra": 2179,
    "inter": 3849,
    "\u0120roam": 35563,
    "\u0120entrances": 43818,
    "\u0120scrap": 15881,
    "Population": 45251,
    "\u0120aversion": 41608,
    "\u00e3\u0125\u00bb": 4707,
    "peace": 22988,
    "adjusted": 29117,
    "\u0120shoot": 2686,
    "\u0120nominee": 10429,
    "\u0120pigs": 22333,
    "\u0120FSA": 42894,
    "\u0120PERSON": 46740,
    "oses": 4629,
    "\u0120\u00e2\u0139\u0131": 48049,
    "\u0120potency": 35950,
    "Ward": 49021,
    "\u0120repaid": 48417,
    "\u0120Diane": 26542,
    "\u0120Required": 20906,
    "iology": 12371,
    "\u0120Hanna": 43766,
    "\u0120Promise": 34920,
    "\u0120appeared": 4120,
    "\u0120etched": 48755,
    "\u0120deploy": 6061,
    "\u0120NB": 41354,
    "\u0120terrible": 7818,
    "\u0120inherent": 11519,
    "Battery": 47006,
    "\u0120gol": 43791,
    "\u0120sick": 6639,
    "\u0120Gun": 6748,
    "zn": 47347,
    "\u0120dir": 26672,
    "\u0120tidal": 40738,
    "\u0120emits": 48300,
    "\u0120assaulting": 31540,
    "eters": 7307,
    "anity": 19689,
    "Sound": 21369,
    "Wed": 19864,
    "\u0120understands": 14759,
    "\u0120Sund": 3309,
    "\u0120GN": 15484,
    "ATCH": 11417,
    "\u0120page": 2443,
    "\u0120grinned": 36268,
    "multiple": 48101,
    "\u0120accountant": 42627,
    "\u0120\\'": 34373,
    "\u0120fuse": 32738,
    "\u0120ind": 773,
    "ogeneous": 32269,
    "\u0120Learned": 38514,
    "ea": 18213,
    "@#&": 48193,
    "background": 25249,
    "\u0120matured": 48491,
    "\u00e2\u0122\u00a2": 3581,
    "\\\">": 38214,
    "\u0120Ord": 14230,
    "\u0120recogn": 3018,
    "\u0120relation": 8695,
    "\u0120Sang": 30043,
    "\u0120Mos": 5826,
    "\u0120Au": 40666,
    "ando": 25440,
    "Luckily": 42332,
    "\u0120Rhod": 22509,
    "\u01201950": 11445,
    "\u0120Clarke": 19635,
    "\u0120Europa": 29890,
    "nder": 681,
    "ba": 7012,
    "jud": 10456,
    "\u0120healed": 28557,
    "\u0120pink": 11398,
    "German": 16010,
    "\u0120fertil": 19078,
    "\u0120Plasma": 31226,
    "\u0120arrests": 14794,
    "\u0120Coalition": 15135,
    "\u0120legitimately": 36491,
    "\u0120helps": 5419,
    "\u0120equipment": 5112,
    "\u0120pharmac": 25702,
    "\u0120oft": 28639,
    "------------": 10541,
    "\u0120rem": 816,
    "\u0120sleeps": 44263,
    "\u0120Fit": 25048,
    "\u0120advers": 16907,
    "Remote": 36510,
    "ammu": 49487,
    "Domin": 43417,
    "\u0120embarrassing": 18997,
    "\u0120socks": 24359,
    "icus": 24552,
    "\u0120innov": 6237,
    "\u0120Eclipse": 30991,
    "missible": 21597,
    "\u0120categ": 4253,
    "function": 8818,
    "%-": 33963,
    "\u0120airspace": 34216,
    "rigan": 35631,
    "\u0120outsiders": 29028,
    "shot": 9442,
    "\u0120occurrences": 40279,
    "AC": 2246,
    "\u0120governors": 26824,
    "zed": 8863,
    "\u0120pacing": 37572,
    "bitious": 14228,
    "\u0120years": 812,
    "intosh": 37638,
    "Learn": 20238,
    "\u0120ble": 7245,
    "imore": 9401,
    "spir": 45564,
    "ensitive": 18464,
    "Like": 7594,
    "\u0120learned": 4499,
    "\u0120nursery": 41326,
    "Marco": 37179,
    "\u0120Kazakh": 29766,
    "\u0120Tome": 46403,
    "\u0120ashore": 45817,
    "\u0120worm": 23849,
    "end": 437,
    "\u0120comforting": 34228,
    "ridge": 12818,
    "\u0120repet": 46152,
    "1993": 24465,
    "\u0120concentrating": 37367,
    "\u0120patience": 16336,
    "\u0120stewards": 38030,
    "\u0120Vatican": 19057,
    "\u0120Random": 14534,
    "\u0120catalog": 18388,
    "vP": 47322,
    "\u0120dys": 13147,
    "\u0120harmed": 28517,
    "\u0120smooth": 7209,
    "\u0120357": 45210,
    "\u0120hath": 22027,
    "\u0120rud": 28906,
    "\u0120heterosexual": 24026,
    "initialized": 17532,
    "concert": 48415,
    "itarian": 8353,
    "ocusing": 45743,
    "\u0120Spo": 49331,
    "\u0120directly": 3264,
    "mph": 23335,
    "\u0120oppos": 38642,
    "\u0120Christian": 4302,
    "ournament": 5138,
    "\u0120relocated": 34233,
    "\u0120Powder": 33688,
    "\u0120ARTICLE": 48301,
    "\u0120CFR": 38233,
    "\u0120Download": 10472,
    "Ta": 38586,
    "\u0120Definitely": 33562,
    "\u0120TT": 26653,
    "\u0120black": 2042,
    "\u0120cool": 3608,
    "cel": 5276,
    "\u0120ns": 36545,
    "\u0120tree": 5509,
    "\u0120piping": 48426,
    "imura": 43817,
    "\u0120queen": 16599,
    "\u0120splitting": 26021,
    "\u0120intoxication": 44624,
    "\u0120Cuban": 18147,
    "Il": 33666,
    "iger": 8254,
    "\u0120uranium": 22010,
    "phony": 23021,
    "\u0120step": 2239,
    "\u0120Shakespeare": 22197,
    "c": 66,
    "\u0120Vide": 42551,
    "\u0120pretext": 35097,
    "verting": 48820,
    "\u0120twent": 21849,
    "\u0120Horde": 31838,
    "Memory": 30871,
    "Tim": 14967,
    "\u0120DOM": 24121,
    "\u0120moderately": 32611,
    "employ": 7033,
    "882": 42980,
    "\u0120Gi": 8118,
    "among": 35131,
    "353": 33319,
    "\u0120smugglers": 42876,
    "\u0120Aut": 5231,
    "\u0120wrapped": 12908,
    "\u0120Prince": 9005,
    "izza": 9990,
    "675": 42444,
    "\u0120Sachs": 25158,
    "614": 46841,
    "\u0120morale": 29651,
    "\u0120Char": 3178,
    "at": 265,
    "Around": 24472,
    "\u0120believe": 1975,
    "\u0120fidelity": 37744,
    "\u0120advantages": 13391,
    "\u0120primary": 4165,
    "\u0120Dracula": 41142,
    "pheus": 46421,
    "\u0120platform": 3859,
    "\u0120\u00ef\u00bf\u00bd": 20543,
    "\u0120homicides": 33025,
    "atti": 34891,
    "\u0120diamond": 15291,
    "porter": 26634,
    "main": 12417,
    "\u0120juicy": 35075,
    "galitarian": 39907,
    "\u0120Ker": 17337,
    "imon": 20473,
    "ARA": 24401,
    "Initialized": 28500,
    "enting": 36589,
    "ampton": 23427,
    "\u0120ml": 25962,
    "Miller": 33253,
    "\u0120life": 1204,
    "\u0120Archive": 20816,
    "\u0120rescue": 9992,
    "wrapper": 48553,
    "din": 25194,
    "\u0120207": 27791,
    "\u0120Scythe": 45227,
    "\u0120Joan": 26640,
    "\u0120NOR": 25273,
    "\u0120Paddock": 49762,
    "TH": 4221,
    "mental": 37098,
    "\u0120nails": 23361,
    "\u0120Mock": 44123,
    "ays": 592,
    "ulation": 1741,
    "\u0120Comb": 14336,
    "\u0120Mous": 42436,
    "Lisa": 44203,
    "\u0120Vessel": 44734,
    "\u0120individual": 1981,
    "\u0120shar": 13986,
    "jen": 48796,
    "oshenko": 43934,
    "\u0120Alic": 34745,
    "\u0120pundits": 30855,
    "\u0120Corporation": 10501,
    "\u0120piled": 33654,
    "\u0120menstru": 27789,
    "\u0120188": 27778,
    "wb": 39346,
    "lifting": 30510,
    "capital": 27544,
    "ensing": 26426,
    "\u0120sensible": 20586,
    "metal": 28469,
    "Bitcoin": 22614,
    "\u0120glac": 25169,
    "\u0120scientists": 5519,
    "\u0120impacts": 12751,
    "laws": 29317,
    "\u0120Discuss": 36691,
    "\u0120dads": 47713,
    "\u0120demanding": 11334,
    "\u0120Improved": 24125,
    "dirty": 49075,
    "\u0120Angela": 17799,
    "\u0120grazing": 40470,
    "\u0120Eva": 32355,
    "\u0120targ": 2103,
    "reek": 10316,
    "\u0120veh": 2844,
    "\u0120escorted": 30037,
    "\u0120Benn": 14025,
    "\u0120cele": 3879,
    "\u0120Mike": 4995,
    "\u0120Computing": 38589,
    "\u0120snipp": 26911,
    "\u0120declare": 13627,
    "conserv": 38925,
    "\u0120salmon": 24535,
    "762": 48194,
    "itch": 2007,
    "\u0120FP": 31459,
    "\u0120lie": 6486,
    "ining": 3191,
    "\u0120uniformly": 42096,
    "\u0120exploded": 18750,
    "\u0120QC": 36070,
    "cham": 49869,
    "ENCY": 45155,
    "\u0120melan": 34963,
    "\u0120undet": 40615,
    "\u0120decode": 36899,
    "ifferent": 17125,
    "\u0120manner": 5642,
    "thought": 28895,
    "***": 8162,
    "\u0120PhD": 16394,
    "walk": 11152,
    "\u0120Vader": 27403,
    "ould": 426,
    "\u0120flank": 30172,
    "\u0120escape": 6654,
    "\u0120given": 1813,
    "\u0120semi": 10663,
    "))": 4008,
    "\u00e3\u0124\u012e": 39258,
    "\u0120Mickey": 27232,
    "\u0120EVEN": 45886,
    "\u0120opioids": 39032,
    "\u0120\u00e2\u0122\u0130": 24398,
    "ange": 858,
    "\u0120Ragnar": 32797,
    "},{\"": 8762,
    "\u0120guardian": 21688,
    "idae": 31718,
    "\u0120Cyrus": 34305,
    "\u0120mentally": 14946,
    "\u0120concerning": 9305,
    "36": 2623,
    "Move": 21774,
    "diff": 26069,
    "isdom": 9350,
    "\u0120grading": 43165,
    "\u0120physics": 11887,
    ">>\\": 34516,
    "\u0120compatible": 11670,
    "\u00e3\u0123\u013b": 33623,
    "\u0120sever": 1750,
    "avan": 12421,
    "\u0120hoping": 7725,
    "\u0120Barkley": 45408,
    "\u0120confirms": 19623,
    "---------------": 24305,
    "\u0120amplification": 50250,
    "\u0120regulars": 48128,
    "\u0120agreed": 4987,
    "weekly": 45291,
    "ysc": 28349,
    "Big": 12804,
    "\u0120intestine": 45426,
    "\u0120bishop": 24233,
    "\u0120Witches": 44910,
    "\u0120collapsing": 30792,
    "\u0120Tyler": 14886,
    "\u0120hearings": 18921,
    "\u0120Alicia": 39607,
    "agne": 21080,
    "\u0120string": 4731,
    "\u00cf\u0122": 46582,
    "\u0120Rw": 31641,
    "\u0120maintaining": 10941,
    "\u0120Ont": 9463,
    "\u0120drama": 10512,
    "\u0120intim": 10683,
    "\u0120opposed": 6886,
    "\u0120insider": 25851,
    "\u0120bloody": 15222,
    "\u0120raids": 20371,
    "personal": 22682,
    "\u0120orally": 47311,
    "ater": 729,
    "\u0120study": 2050,
    "\u0120VIDEO": 35507,
    "\u0120timeline": 15264,
    "\u0120Ambro": 43233,
    "xe": 27705,
    "\u0120Guard": 4932,
    "\u0120suitable": 11080,
    "\u0120unbearable": 45253,
    "\u0120unusually": 23708,
    "\u0120\u00c2\u00ae": 38852,
    "\u00e8\u00bf": 32573,
    "\u0120mixes": 33237,
    "fixes": 42624,
    "\u0120winter": 7374,
    "YY": 26314,
    "\u0120Ug": 24384,
    "itated": 13939,
    "dash": 42460,
    "\u0120excise": 47547,
    "\u0120nesting": 46282,
    "\u0120Rath": 26494,
    "\u0120Mesa": 26670,
    "device": 25202,
    "\u0120Ajax": 46362,
    "abeth": 9407,
    "Gall": 37122,
    "\u0120pupp": 13595,
    "Motor": 34919,
    "&": 5,
    "ction": 596,
    "\u0120Opportunity": 32675,
    "\u0120Err": 41512,
    "\u0120Specifications": 46271,
    "\u0120probes": 33124,
    "\u0120Leilan": 50216,
    "578": 38907,
    "electric": 31067,
    "Deal": 45776,
    "\u0120Pom": 25505,
    "\u0120sports": 5701,
    "acked": 6021,
    "veh": 33892,
    "1969": 38391,
    "\u0120Madd": 21457,
    "throw": 16939,
    "\u0120Generation": 16588,
    "evaluate": 49786,
    "\u0120themed": 31892,
    "\u0120writes": 6797,
    "\u00e7\u012d": 45379,
    "\u0120whites": 13216,
    "inatory": 23132,
    "\u0120Fiorina": 49028,
    "18": 1507,
    "\u0120meager": 49853,
    "operated": 42767,
    "\u0120brick": 17214,
    "Home": 16060,
    "\u0120vaccination": 22827,
    "\u0120solitude": 49917,
    "Terry": 50241,
    "\u0120scripture": 36739,
    "\u0120GL": 10188,
    "\u0120\u00e8\u00a3\u0131\u00e8": 34504,
    "apeshifter": 29554,
    "romeda": 32291,
    "\u0120Guinness": 41559,
    "help": 16794,
    "\u0120valve": 22580,
    "\u0120owned": 6898,
    "\u0120Cow": 10417,
    "\u0120386": 48340,
    "\u0120Bert": 22108,
    "\u0120paws": 49193,
    "\u0120assemblies": 37398,
    "\u0120Hungry": 42939,
    "----": 650,
    "oki": 18228,
    "\u0120telescopes": 42067,
    "\u0120pet": 4273,
    "\u0120always": 1464,
    "\u0120interrupt": 11313,
    "\u0120sadd": 17766,
    "\u0120Friedman": 25865,
    "\u0120dependencies": 20086,
    "\u0120Sid": 15686,
    "possibly": 39363,
    "ori": 10145,
    "uine": 8327,
    "\u0120surrounds": 36550,
    "\u0120blister": 40770,
    "@": 31,
    "\u0120famously": 20524,
    "\u0120circ": 2498,
    "rompt": 45700,
    "\u0120Xin": 25426,
    "\u0120microwave": 27000,
    "agic": 9083,
    "\u0120activated": 13906,
    "\u0120Saudis": 33358,
    "\u0120Disneyland": 36312,
    "Better": 28971,
    "ilan": 38239,
    "\u0120ard": 33848,
    "\u01201957": 25177,
    "\u0120fem": 2796,
    "\u0120119": 15136,
    "\u0120Liberties": 34226,
    "\u0120Og": 25686,
    "\u0120Luk": 28102,
    "\u0120overpowered": 49313,
    "\u0120overboard": 49265,
    "\u0120measurements": 13871,
    "\u0120''": 10148,
    "\u0120card": 2657,
    "guard": 14864,
    "\u0120removal": 9934,
    "\u0120reductions": 20691,
    "\u0120inspections": 30287,
    "\u0120approximation": 40874,
    "\u0120outcomes": 10906,
    "\u0120guides": 17555,
    "\u0120Latino": 20496,
    "icked": 9484,
    "\u0120Scor": 36191,
    "\u0120disenfranch": 41307,
    "\u0120228": 29041,
    "rote": 2519,
    "ged": 2004,
    "\u0120WM": 30376,
    "simple": 36439,
    "\u0120perjury": 47816,
    "\u0120Porsche": 28367,
    "\u00ab": 104,
    "\u0120grains": 21824,
    "\u01202005": 5075,
    "\u0120graduation": 21571,
    "resa": 14625,
    "pri": 3448,
    "\u0120extravagant": 45997,
    "Hz": 7399,
    "\u0120authored": 33941,
    "ement": 972,
    "front": 8534,
    "\u0120appropriated": 32316,
    "\u0120Post": 2947,
    "WF": 48397,
    "\u0120indifference": 34324,
    "\u0120error": 4049,
    "\u0120Kejriwal": 42792,
    "Artist": 43020,
    "\u0120hierarch": 28398,
    "\u0120font": 10369,
    "iably": 18745,
    "\u0120freshman": 18621,
    "\u0120borders": 11637,
    "\u0120Tiff": 35775,
    "\u0120accepting": 12598,
    "\u0120excav": 22659,
    "ipolar": 49133,
    "\u0120sandwich": 20433,
    "\u0120indict": 16056,
    "\u0120aliases": 47217,
    "\u0120monitors": 19374,
    "\u0120Syl": 49481,
    "\u0120Saskatchewan": 31346,
    "\u0120Investigations": 38111,
    "\u0120Hus": 13895,
    "\u0120API": 7824,
    "\u0120enterprises": 23941,
    "\u0120Hull": 28238,
    "Jet": 42273,
    "\u0120become": 1716,
    "\u0120Acting": 37539,
    "worker": 28816,
    "\u0120surrender": 16908,
    "\u0120motivation": 14052,
    "\u0120RAID": 37450,
    "\u0120Vine": 28879,
    "CIA": 49732,
    "loo": 29680,
    "\u0120savior": 47921,
    "\u0120Sil": 4243,
    "\u0120Kathryn": 48674,
    "\u0120waist": 16139,
    "\u0120dermat": 40363,
    "\u0120hurricanes": 40370,
    "\u0120novels": 16122,
    "\u0120storms": 20228,
    "archive": 17474,
    "\u0120vortex": 42726,
    "\u0120163": 26826,
    "Ser": 7089,
    "Bomb": 48478,
    "\u0120borrowed": 22546,
    "\u00ef\u00bf\u00bd\u00ef\u00bf\u00bd\u00ef\u00bf\u00bd": 48585,
    "rem": 2787,
    "\u00d7\u0133": 49603,
    "isin": 45763,
    "\u0120Diary": 35911,
    "Hist": 13749,
    "ruciating": 48404,
    "houses": 20089,
    "\u0120Spell": 11988,
    "\"[": 17912,
    "nd": 358,
    "\u0120Panthers": 17782,
    "\u0120Ariel": 33364,
    "\u0120pedals": 42563,
    "Msg": 50108,
    "Correction": 43267,
    "\u0120Nissan": 28190,
    "\u0120Shop": 13705,
    "roud": 5493,
    "rss": 42216,
    "\u0120chilling": 28010,
    "\u0120AZ": 26253,
    "\u0120reserves": 14072,
    "\u0120Shark": 28616,
    "\u0120Medals": 42171,
    "YD": 35755,
    "created": 25598,
    "\u0120editing": 12857,
    "hement": 35347,
    "\u0120Nexus": 16756,
    "\u0120Lansing": 49860,
    "wr": 18351,
    "food": 19425,
    "isk": 1984,
    "\u00e5\u00ba": 41753,
    "\u0120Zy": 40905,
    "\u0120travels": 17781,
    "gmail": 14816,
    "\u0120mom": 1995,
    "board": 3526,
    "mob": 39949,
    "Jon": 18219,
    "\u0120Th": 536,
    "odied": 32255,
    "\u0120enters": 14170,
    "\u0120Beck": 11739,
    "\u0120accomplished": 13013,
    "stic": 11268,
    "\u0120bet": 731,
    "\u0120opacity": 45912,
    "\u0120allocated": 19171,
    "\u0120orbital": 32362,
    "\u0120remed": 20100,
    "istical": 19929,
    ">.": 28401,
    "\u0120except": 2845,
    "\u0120Jun": 7653,
    "\u0120UFO": 19728,
    "\u0120showers": 32290,
    "etic": 5139,
    "751": 48365,
    "\u00ab\u013a": 45865,
    "\u0124\u0130": 43518,
    "\u0120polyg": 25052,
    "\u0120et": 2123,
    "\u0120insurance": 5096,
    "offs": 8210,
    "iae": 33100,
    "\u0120acquaintances": 45317,
    "\u0120Canter": 38183,
    "\u0120Mobility": 34505,
    "Albert": 42590,
    "\u0120giant": 6175,
    "\u0120graphics": 9382,
    "\u0120Flore": 23347,
    "\u0120excuses": 25893,
    "\u0120Unified": 42225,
    "\u0120decline": 7794,
    "\u0120Quite": 29051,
    "\u0120firefighters": 22611,
    "\u0120reminiscent": 24960,
    "\u0120scoring": 9689,
    "\u0120langu": 2786,
    "\u0120Favorite": 33992,
    "\u0120lamented": 40176,
    "\u0120spelling": 24993,
    "\u0120Draco": 31181,
    "uture": 1832,
    "\u0120passage": 10066,
    "\u0120murdering": 33217,
    "\u0120flung": 45111,
    "\u0120insin": 43553,
    "\u0120public": 1171,
    "62": 5237,
    "1981": 35411,
    "Help": 22087,
    "\u0120Brenda": 49495,
    "serial": 46911,
    "\u0120errors": 8563,
    "\u0120sag": 45229,
    "urther": 1914,
    "\u0120convinc": 15609,
    "\u0120tissues": 21379,
    "\u00c3\u0142": 24247,
    "GP": 16960,
    "\u0120Identified": 24517,
    "ociation": 41003,
    "\u0120younger": 7099,
    "\u0120studying": 11065,
    "\u0120Gener": 2980,
    "\u0120displ": 7845,
    "urry": 16682,
    "\u0120Yep": 40810,
    "\u0120objects": 5563,
    "\u0120pounds": 8059,
    "\u0120trolls": 24727,
    "\u0120Trad": 8397,
    "\u0120NON": 44521,
    "\u0120465": 49669,
    "\u0120separatist": 40680,
    "empty": 28920,
    "\u00e2\u0122\u00a6.": 11580,
    "\u0120paving": 47711,
    "sand": 38142,
    "iens": 10465,
    "\u0120copied": 18984,
    "trl": 14859,
    "wal": 16783,
    "\u0120Tus": 46233,
    "\u0120materially": 38858,
    "colour": 49903,
    "\u0120Mariners": 35109,
    "High": 11922,
    "\u0120wrestler": 34845,
    "\u0120distinctive": 18778,
    "\u0120nationality": 29835,
    "\u0120Netanyahu": 17104,
    "\u0120embodiments": 32403,
    "split": 35312,
    "race": 16740,
    "regulation": 27727,
    "\u0120ratio": 8064,
    "\u0120grappling": 36762,
    "\u0120Repe": 30558,
    "\u0120inhab": 11381,
    "\u0120inhibition": 30725,
    "PROV": 41283,
    "enta": 29188,
    "\u0120LD": 27178,
    "\u0120globalization": 39155,
    "\u0120whispers": 37806,
    "each": 27379,
    "\u0120Ele": 15987,
    "\u0120diapers": 45162,
    "\u0120eSports": 32717,
    "umbai": 21645,
    "oubted": 15973,
    "asp": 5126,
    "aru": 11493,
    "\u0120incoming": 15619,
    "\u0120ambient": 25237,
    "\u0120gran": 19468,
    "\u0120Exodus": 38557,
    "ealing": 26919,
    "\u0120weighing": 21990,
    "\u0120domin": 7462,
    "\u0120Hot": 6964,
    "utsu": 36567,
    "\u0120comics": 12770,
    "dark": 21953,
    "\u0120custod": 33702,
    "ORN": 30649,
    "Che": 7376,
    "\u0120PDT": 28288,
    "\u0120Cay": 28335,
    "\u0120Voting": 30061,
    "\u0120Wolverine": 34307,
    "\u0120Profit": 42886,
    "\u0120json": 33918,
    "\u0120conservation": 14903,
    "\u0120Gig": 19525,
    "\u0120Pulse": 25062,
    "\u0120scaled": 27464,
    "\u0120farming": 16035,
    "\u0120litres": 49622,
    "\u0120signifies": 43854,
    "\u0120scriptures": 39782,
    "\u0120Morsi": 41842,
    "111": 16243,
    "\u0120Petroleum": 39970,
    "\u0120Extreme": 18111,
    "\u0120Enix": 41361,
    "\u0120Spanish": 7897,
    "ribe": 4892,
    "\u0120skipping": 31017,
    "\u0120finan": 17240,
    "\u0120reliably": 26995,
    "ying": 1112,
    "\u0120\u00e2\u0138": 11019,
    "withstanding": 20701,
    "compan": 34390,
    "\u0120retrieving": 50122,
    "\u0120FANT": 29250,
    "\u0120Insp": 25300,
    "astics": 24232,
    "\u0120myself": 3589,
    "\u0120gall": 7976,
    "\u0120equival": 6854,
    "\u0120quotation": 35777,
    "anoia": 30661,
    "\u0120Penguin": 34424,
    "puting": 48074,
    "ourage": 32885,
    "\u0120Mr": 1770,
    "\u0120Wel": 22268,
    "\u0120assert": 6818,
    "\u0120adjustments": 16895,
    "\u0120Wem": 45300,
    "\u0120antidepressants": 41587,
    "\u0120Merc": 12185,
    "aneously": 27683,
    "dn": 32656,
    "\u0120Thrust": 49794,
    "\u0120soaking": 41714,
    "\u0120motions": 25530,
    "ugu": 45284,
    "\u0120charity": 11016,
    "Considering": 40475,
    "\u0120Qt": 33734,
    "accept": 13635,
    "\u0120paternal": 38082,
    "\u0120uphe": 40097,
    "\u0120Prayer": 33189,
    "\u0120documents": 4963,
    "\u0120vit": 9090,
    "\u0120assertions": 29965,
    "\u0120Types": 24897,
    "bone": 15992,
    "\u0120algebra": 37139,
    "\u0120Learning": 18252,
    "\u0120violate": 16967,
    "\u0120gum": 27142,
    "\u0120Liber": 5261,
    "lf": 1652,
    "encies": 3976,
    "\u0120UM": 44352,
    "\u0120rubbing": 27714,
    "\u0120There": 1318,
    "\u0120prevents": 15174,
    "\u0120qualitative": 40693,
    "\u0120unnoticed": 33755,
    "\u0120Frieza": 48080,
    "Lyn": 37207,
    "\u0120drunken": 26680,
    "\u0120drained": 29738,
    "\u0120Ced": 25789,
    "\u0120Resurrection": 30688,
    "\u0120Guns": 20423,
    "gif": 27908,
    "\u0120CS": 9429,
    "\u0120stagnation": 45834,
    "\u0120gazing": 50234,
    "rified": 41301,
    "\u0120Alph": 39805,
    "PF": 42668,
    "\u0120reckoning": 49654,
    "\u0120Assassins": 48975,
    "\u0120Jeremiah": 40192,
    "\u0120supermarkets": 40875,
    "\u0120barren": 39497,
    "enge": 3540,
    "\u0120craving": 34357,
    "\u0120conversions": 32626,
    "\u0120132": 21761,
    "\u0120Mb": 40001,
    "\u0120ejac": 39426,
    "ITCH": 31949,
    "\u0120Rational": 46863,
    "\u0120378": 45473,
    "\u0120settled": 10282,
    "\u0120Fou": 34296,
    "\u0120Construction": 20395,
    "det": 15255,
    "\u0120IO": 24418,
    "658": 38431,
    "\u0120exch": 9933,
    "\u0120grit": 34954,
    "\u0120healer": 44325,
    "\u0120Economics": 18963,
    "\u0120sphere": 16558,
    "\u0120convoy": 32860,
    "\u00f0\u013f": 47728,
    "\u0120Form": 5178,
    "Bytes": 45992,
    "\u0120sergeant": 33861,
    "\u0120Ideal": 41765,
    "\u0120Jur": 23383,
    "Grant": 45431,
    "\u0120claw": 26573,
    "\u0120Relic": 43437,
    "\u0120subversive": 49685,
    "1967": 42830,
    "\u0120Kristen": 44467,
    "\u0120proliferation": 25068,
    "\u0120Cheng": 27692,
    "\u0120scenic": 43251,
    "\u0120220": 15629,
    "psych": 23947,
    "arette": 14758,
    "agnetic": 25145,
    "\u0120Bin": 20828,
    "\u0120horn": 12718,
    "\u0120needles": 25209,
    "Low": 20535,
    "\u0120Socialism": 40407,
    "\u0120CN": 31171,
    "\u0120Telegraph": 21821,
    "\u0120December": 3426,
    "\u0120crane": 41175,
    "\u0120venue": 14359,
    "\u0120unreal": 22865,
    "\u0120Kw": 31767,
    "\u0120slumped": 48560,
    "ommod": 8641,
    "\u0120authorised": 39019,
    "\u0120unsuspecting": 41975,
    "Meta": 48526,
    "\u0120sty": 8944,
    "\u0120Shoals": 40510,
    "182": 24294,
    "\u0120Param": 25139,
    "\u0120Nursing": 46278,
    "::::": 24022,
    "\u0120Wow": 24755,
    "olid": 10180,
    "Ord": 35422,
    "\u0120bundled": 34358,
    "\u0120dile": 22825,
    "\u0120Transaction": 45389,
    "\u0120dumps": 45514,
    "\u0120overs": 10753,
    "\u0107": 195,
    "\u0120seemed": 3947,
    "\u0120Antarctic": 33149,
    "\u0120contracting": 29148,
    "\u0120overhaul": 18708,
    "utive": 8827,
    "\u0120kickoff": 40532,
    "uns": 13271,
    "\u0120audible": 35282,
    "\u0120weapon": 4282,
    "\u0120salty": 36021,
    "\u0120clinics": 21434,
    "\u0120moaning": 47644,
    "\u0120Corinthians": 39546,
    "anything": 49459,
    "\u0120merchandise": 20813,
    "\u00e9\u00be": 11737,
    "\u0120unforgettable": 45504,
    "\u0120Slaughter": 41148,
    "\u0120emotions": 10825,
    "\u0120Fourth": 15692,
    "week": 10464,
    "\u0120AP": 3486,
    "\u0120Schne": 23343,
    "\u0120specialization": 43135,
    "\u0120Compared": 27492,
    "\u00e2\u0128": 29705,
    "\u0120loan": 8063,
    "\u0120Guantanamo": 34378,
    "\u0120pie": 2508,
    "\u0120immature": 40620,
    "\u0120Fighter": 15411,
    "\u0120Vel": 17378,
    "\u0120von": 18042,
    "echo": 30328,
    "auto": 23736,
    "idents": 3231,
    "\u0120Charlie": 11526,
    "\u0120bends": 44370,
    "ryce": 28169,
    "orically": 26847,
    "\u0120bulbs": 34122,
    "Oct": 12349,
    "\u0120Cove": 39534,
    "ument": 1713,
    "\u0120snipers": 50238,
    "\u0120hep": 47585,
    "\u0120arm": 3211,
    "\u0120sprang": 43908,
    "\u0120Therefore": 8447,
    "429": 11785,
    "\u0120LAST": 41894,
    "\u0120timestamp": 41033,
    "\u0120analyst": 12499,
    "\u0120NSW": 23438,
    "\u0120PowerShell": 33870,
    "\u0120seen": 1775,
    "\u0120discs": 31014,
    "\u0120sustain": 8080,
    "\u0120Sovereign": 44964,
    "\u0120profitability": 37129,
    "\u0120involvement": 9750,
    "\u0120Beat": 12568,
    "\u0120THAT": 14603,
    "igr": 3692,
    "\u0120subur": 13150,
    "\u0120Dying": 41011,
    "owner": 18403,
    "\u0120nature": 3450,
    "\u0120Yanuk": 37068,
    "ilipp": 8908,
    "357": 27277,
    "\u0120\u00eb": 31619,
    "\u0120nonsensical": 49569,
    "\u0120Binding": 38904,
    "\u0120Patreon": 29859,
    "\u0120businessmen": 34643,
    "where": 3003,
    "\u0120Martian": 32508,
    "\u0120footballer": 44185,
    "exe": 13499,
    "\u0120constitu": 12631,
    "\u0120Activ": 13144,
    "\u0120drains": 44368,
    "\u0120Location": 13397,
    "\u0120bookmark": 44007,
    "\u0120informant": 35710,
    "\u0120murder": 5123,
    "\u0120Valkyrie": 23620,
    "\u0120Shutterstock": 37356,
    "WARN": 37771,
    "\u0120comes": 2058,
    "\u0120Riv": 34686,
    "\u0120Belfast": 29713,
    "\u0120referen": 16041,
    "\u0120bisexual": 24249,
    "llah": 22734,
    "\u0120unison": 49418,
    "\u0120Sullivan": 18501,
    "\u0120networking": 19140,
    "\u0120Larry": 13633,
    "inion": 23971,
    "\u0120jab": 33896,
    "\u0120Recomm": 19237,
    "\u0120Cellular": 50072,
    "forest": 29623,
    "\u0120NEO": 44106,
    "\u0120feral": 43057,
    "\u0120sexual": 3206,
    "\u0120offensively": 41774,
    "\u0120Rossi": 40696,
    "909": 44675,
    "\u0120kale": 43497,
    "birth": 24280,
    "\u0120Paste": 23517,
    "\u0120TheNitrome": 42089,
    "\u0120dreams": 10625,
    "\u0120controlling": 12755,
    "IQ": 33866,
    "\u0120Thirty": 29948,
    "\u0120divisive": 29656,
    "\u0120leftover": 39191,
    "iru": 35406,
    "lords": 19673,
    "\u0120Giul": 35267,
    "\u0120Operations": 16205,
    "balls": 21591,
    "\u0120blaze": 31259,
    "restricted": 49343,
    "\u0120Blumenthal": 44888,
    "\u0120heroin": 16914,
    "Tex": 17005,
    "bet": 11181,
    "\u0120Able": 45349,
    "\u0120mim": 17007,
    "oxy": 23536,
    "atibility": 25901,
    "\u0120\u00f0\u0141\u013a": 30325,
    "\u0120champ": 24092,
    "\u0120inaccur": 47283,
    "\u0120Cock": 23769,
    "\u0120smartphone": 11745,
    "Skin": 42455,
    "\u0120Nicolas": 29737,
    "Password": 35215,
    "Beck": 43454,
    "\u0120Defendant": 43402,
    "ordable": 16819,
    "eor": 13492,
    "\u0120vomit": 44542,
    "o\u00c4\u0141an": 48030,
    "\u0120basil": 37792,
    "\u0120large": 1588,
    "\u0120An": 1052,
    "Arg": 28100,
    "involved": 44697,
    "\u0120sustainability": 26809,
    "\u0120seats": 8632,
    "iste": 40833,
    "\u0120joined": 5399,
    "Yet": 11486,
    "\u0120guarantee": 9149,
    "about": 10755,
    "ructose": 32275,
    "uran": 42211,
    "\u0120Nec": 19652,
    "bugs": 32965,
    "erate": 21620,
    "angular": 21413,
    "mouth": 14775,
    "\u0120));": 29226,
    "\u0120transgress": 44780,
    "EF": 25425,
    "\u0120reacting": 33413,
    "Fax": 46512,
    "uria": 34484,
    "\u0120journal": 3989,
    "cle": 2375,
    "gery": 7076,
    "\u0120ankles": 42415,
    "ivals": 10336,
    "\u01202019": 13130,
    "\u0120Ph": 1380,
    "\u0120PAL": 40795,
    "\u0120Reached": 13618,
    "\u0120gun": 2485,
    "Icon": 19578,
    "\u0120among": 1871,
    "\u0120smashed": 23354,
    "\u0120asserted": 21635,
    "\u0120manufactures": 46306,
    "ets": 1039,
    "\u0120Place": 8474,
    "\u0120laboratories": 35650,
    "\u0120Bel": 3944,
    "oidal": 47502,
    "thus": 26239,
    "idation": 24765,
    "\u00f7": 179,
    "\u0120weak": 4939,
    "\u0120showed": 3751,
    "because": 13893,
    "\u0120ingred": 7677,
    "\u0120ubiqu": 23861,
    "\u0120shine": 18340,
    "GRE": 28934,
    "\u0120stalled": 29759,
    "\u0120Yen": 47028,
    "\u0120specifics": 23514,
    "\u0120gem": 16840,
    "\u0120cher": 21382,
    "\u0120norms": 19444,
    "\u0120ruthless": 29541,
    "arded": 10676,
    "\u0120leak": 13044,
    "\u0120din": 16278,
    "\u0120Atlantis": 34779,
    "IZ": 14887,
    "\u0120Stockholm": 29679,
    "\u0120altogether": 13318,
    "\u0120standout": 35482,
    "(){": 39893,
    "\u0120km": 10571,
    "\u0120FedEx": 45212,
    "\u0120Perspect": 29845,
    "powder": 45855,
    "\u0120neglig": 16776,
    "\u0120volunte": 7105,
    "\u0120underrated": 42308,
    "Platform": 37148,
    "\u0120pouch": 36594,
    "agement": 5082,
    "\u0120bourbon": 41855,
    "IBLE": 34563,
    "\u0120taps": 34531,
    "etc": 14784,
    "IDER": 41237,
    "\u0120conducting": 14523,
    "\u0120sinking": 27141,
    "\u0120transfers": 16395,
    "oriented": 17107,
    "ramids": 43591,
    "\u0120engagements": 40588,
    "ITT": 22470,
    "\u0120groin": 42247,
    "\u0120Initi": 16204,
    "Coming": 30804,
    "\u0120subjects": 7481,
    "\u0120Worker": 35412,
    "\u0120Westminster": 20353,
    "Series": 27996,
    "\u0120canned": 32530,
    "\u0120methodological": 47935,
    "\u0120rectangular": 36954,
    "\u0120billing": 26297,
    "\u0120Reb": 15652,
    "\u0120tot": 2006,
    "\u0120Tide": 31105,
    "har": 9869,
    "\u0120satellites": 20372,
    "\u0120encro": 45121,
    "\u0120Fal": 9596,
    "!": 0,
    "\u0120Monthly": 27573,
    "bf": 19881,
    "killer": 32156,
    "\u0120lawsuit": 8087,
    "\u0120symp": 10558,
    "\u0120continuity": 24216,
    "\u0120Chak": 46620,
    "\u0120unsupported": 24222,
    "\u0120Almost": 16699,
    "GB": 4579,
    "AP": 2969,
    "\u0120Perth": 29913,
    "gg": 1130,
    "\u0120cont": 542,
    "\u00c3\u00afve": 38776,
    "\u0120councillors": 43321,
    "nces": 3179,
    "\u0120barric": 31853,
    "\u0120enthusiast": 33471,
    "\u0120Jaw": 40863,
    "\u0120beginner": 31516,
    "\u0120und": 3318,
    "\u0120Saf": 6895,
    "\u0120Tripoli": 47318,
    "\u0120symbolic": 18975,
    "\u0120cout": 42304,
    "Lic": 26656,
    "\u0120driven": 7986,
    "\u0120repeated": 5100,
    "++;": 47253,
    "ihadi": 42449,
    "\u0120Chess": 25774,
    "Texas": 21607,
    "herence": 23545,
    "++++++++++++++++": 44627,
    "armac": 32813,
    "oh": 1219,
    "melon": 45690,
    "\u0120W": 370,
    "rients": 18491,
    "\u0120creed": 43514,
    "fight": 15481,
    "\u0120buoy": 36675,
    "hips": 5748,
    "\u0120Prelude": 46897,
    "rupal": 34585,
    "\u0120entropy": 40709,
    "\u0120stepped": 10764,
    "\u0120causes": 5640,
    "\u0120Aden": 48500,
    "beard": 39433,
    "\u0120Election": 14219,
    "\u0120loaded": 9639,
    "\u0120standardized": 25713,
    "heat": 25080,
    "\u0120surv": 3343,
    "\u0120screen": 3159,
    "\u0120pard": 41746,
    "Tue": 41392,
    "conference": 41124,
    "\u0120terror": 3246,
    "\u0120}": 1782,
    "Prosecut": 34301,
    "ocre": 27945,
    "Leon": 36185,
    "\u0120356": 44552,
    "\u0120without": 1231,
    "\u0120dissatisfaction": 41393,
    "\u0120Dude": 40628,
    "\u0120Rodney": 34895,
    "ASE": 11159,
    "\u0120Image": 7412,
    "\u0120hiding": 11816,
    "\u0120sidelines": 29394,
    "\u0120hall": 6899,
    "icated": 3474,
    "\u0120Zap": 36079,
    "\u0120Properties": 24946,
    "\u0120365": 21268,
    "136": 20809,
    "\u0120finals": 18576,
    "versible": 37393,
    "itant": 23737,
    "uel": 2731,
    "\u0120Kent": 8758,
    "\u0120Democr": 2459,
    "\u0120semen": 34972,
    "\u0120neon": 25988,
    "243": 26660,
    "March": 16192,
    "\u0120instructor": 21187,
    "\u0120numbers": 3146,
    "\u0120pm": 9114,
    "Kyle": 42516,
    "\u0120Ti": 16953,
    "\u0120Gardner": 27911,
    "\u0120disco": 4655,
    "Winner": 48056,
    "aptic": 32963,
    "uctor": 33029,
    "termin": 23705,
    "\u0120risking": 37234,
    "license": 43085,
    "debug": 24442,
    "wide": 4421,
    "\u0120hoops": 46730,
    "\u0120Pap": 14185,
    "\u0120Kerry": 15981,
    "aredevil": 38281,
    "\u0120Scandinavian": 42238,
    "bow": 8176,
    "illi": 50173,
    "LESS": 48481,
    "\u0120Seym": 42543,
    "falls": 23348,
    "\u0120Surely": 28417,
    "SK": 18831,
    "single": 29762,
    "\u0120TOUR": 49698,
    "historic": 31304,
    "\u0120MISS": 49684,
    "ORED": 32023,
    "brand": 17938,
    "\u0120Except": 18181,
    "\u0120VG": 34627,
    "\u0120Gujar": 28600,
    "\u0120Cairo": 23732,
    "Rs": 31273,
    "ways": 1322,
    "\u0120Rem": 3982,
    "\u0120Affairs": 10665,
    "\u0120comma": 39650,
    "\u0120Brooke": 46459,
    "\u0120fact": 1109,
    "\u0120Lakers": 19616,
    "\u0120coer": 31255,
    "\u0120ineligible": 39538,
    "92": 5892,
    "\u0120ng": 23370,
    "\u0120goods": 7017,
    "\u0120yesterday": 7415,
    "nah": 40909,
    "\u0120Citation": 42317,
    "agonal": 27923,
    "\u0120Zan": 47022,
    "\u0120comprehension": 35915,
    "Oh": 5812,
    "\u0120caught": 4978,
    "\u0120charisma": 45581,
    "\u0120IPCC": 35814,
    "\u0120\u00e2\u0136\u013e": 33468,
    "Jewish": 28240,
    "\u0120Cassidy": 41373,
    "\u0120ign": 3627,
    "\u0120shalt": 36258,
    "\u0120Rhythm": 45757,
    "\u0120Leigh": 37907,
    "\u0120thing": 1517,
    "\u0120Food": 7318,
    "heddar": 44937,
    "\u0120Parenthood": 18461,
    "\u0120indec": 29077,
    "oad": 1170,
    "\u0120interception": 28759,
    "Premium": 36787,
    "\u0120shells": 19679,
    "\u0120restores": 45815,
    "\u0120Hello": 18435,
    "riers": 8910,
    "\u0120conspiring": 50186,
    "ihil": 20898,
    "\u0120LC": 22228,
    "\u0120pump": 8901,
    "\u0120lol": 19462,
    "advertising": 34442,
    "\u0120Poker": 36157,
    "ado": 4533,
    "waukee": 15428,
    "\u00e3\u0124\u00ab": 21763,
    "ident": 738,
    "518": 44085,
    "\u0120roar": 34532,
    "\u0120Revised": 31492,
    "ighthouse": 32303,
    "\u0120nerd": 34712,
    "\u0120HTML": 11532,
    "erial": 48499,
    "RS": 6998,
    "elt": 2120,
    "Officers": 34059,
    "\u0120PTS": 20907,
    "aneers": 33547,
    "\u0120knowledgeable": 29549,
    "\u0120engulf": 30443,
    "ACA": 26576,
    "\u0120unusual": 8468,
    "Aaron": 34451,
    "instein": 11962,
    "raction": 7861,
    "\u0120compensation": 9836,
    "\u0120appointing": 47680,
    "\u0120AMD": 10324,
    "\u0120Band": 10243,
    "\u0120trucks": 13960,
    "mu": 30300,
    "\u0120Paran": 42561,
    "\u0120horrend": 39910,
    "\u0120spokes": 4212,
    "Secret": 23725,
    "\u0120IBM": 19764,
    "\u0120Fnatic": 44704,
    "\u0120tel": 13632,
    "395": 31010,
    "\u0120jackets": 35129,
    "wage": 21482,
    "\u0120gallons": 23239,
    "\u0120officially": 8720,
    "hers": 7084,
    "wcsstore": 12781,
    "\u0120sized": 19943,
    "\u0120GD": 27044,
    "\u0120Prices": 29431,
    "ikhail": 39065,
    "\u0120Ranked": 41844,
    "\u0120Settlement": 45404,
    "\u0120Wikileaks": 35828,
    "\u0120marvel": 22672,
    "\u0120widget": 26295,
    "\u0120highest": 4511,
    "\u0120NATO": 11332,
    "\u0120bis": 47457,
    "\u0120enemies": 5775,
    "\u0120Cond": 9724,
    "Shell": 23248,
    "Method": 17410,
    "oward": 46138,
    "77": 3324,
    "rate": 4873,
    "protection": 42846,
    "\u0120migrate": 32492,
    "Le": 3123,
    "\u0120scouting": 27088,
    "\u0120Asia": 7229,
    "\u0120Friedrich": 46099,
    "\u0120wild": 4295,
    "\u0120Sunni": 18592,
    "\u0120Roku": 46194,
    "hurst": 33500,
    "\u0120volume": 6115,
    "\u0120Jesuit": 50190,
    "WIN": 37620,
    "\u0120corrosion": 41677,
    "ALT": 31429,
    "\u0120Photographer": 43809,
    "ustration": 44027,
    "\u0120Pro": 1041,
    "hop": 8548,
    "\u0120sunk": 24790,
    "\u0120analogue": 45304,
    "\u0120Raz": 38058,
    "\u0120Pin": 13727,
    "practice": 39541,
    "Everything": 19693,
    "\u0120RL": 45715,
    "\u0120pain": 2356,
    "amples": 12629,
    "\u0120hemorrh": 42203,
    "\u0120gripped": 42046,
    "VO": 29516,
    "\u0120competitiveness": 36812,
    "\u0120lives": 3160,
    "ason": 888,
    "\u0120very": 845,
    "\u0120alarms": 36302,
    "flags": 33152,
    "\u0120rover": 35761,
    "\u0120JUSTICE": 49687,
    "hh": 12337,
    "\u0120drill": 16007,
    "\u0120NEXT": 39726,
    "braska": 17088,
    "\u0120nose": 9686,
    "ening": 3101,
    "\u0120spends": 16887,
    "icates": 16856,
    "pared": 29190,
    "auer": 16261,
    "\u0120parties": 4671,
    "\u0120vines": 44439,
    "\u0120Help": 10478,
    "wayne": 43932,
    "Fort": 21926,
    "\u0120distinct": 7310,
    "ully": 2132,
    "ze": 2736,
    "Recomm": 24898,
    "\u0120Osw": 30317,
    "witch": 42248,
    "cluded": 10341,
    "\u0120District": 5665,
    "uts": 5500,
    "Hyd": 40436,
    "oda": 11329,
    "ided": 1384,
    "\u0120Flesh": 38998,
    "\u0120Stranger": 29683,
    "\u0120Challenge": 13879,
    "\u0120shoe": 17292,
    "\u0120reperc": 32846,
    "\u0120Molly": 30236,
    "\u0120bitcoin": 8550,
    "\u0120devised": 28964,
    "\u0120gritty": 39679,
    "\u0120Conscious": 45595,
    "\u0120Leone": 30399,
    "\u0120asthma": 28438,
    "\u0120distinctly": 30911,
    "\u0120coffers": 47295,
    "ass": 562,
    "\u0120indul": 19441,
    "gregation": 17097,
    "olt": 5978,
    "\u0120billboard": 41448,
    "\u0120Argument": 45751,
    "\u0120reg": 842,
    "\u0120Range": 13667,
    "\u0120commemor": 28723,
    "higher": 46503,
    "\u0120folds": 38744,
    "\u0120Baird": 48503,
    "\u0120Lorenzo": 41721,
    "iation": 3920,
    "\u0120Endurance": 43290,
    "cedes": 19285,
    "\u0120silenced": 38086,
    "\u0120operating": 5361,
    "\u0120harmonic": 49239,
    "\u0120unveiled": 18475,
    "IDs": 47954,
    "\u0120Japanese": 4960,
    "uly": 2062,
    "\u0120subscribers": 18327,
    "\u0120locate": 17276,
    "\u0120inflic": 30333,
    "ifle": 8316,
    "VM": 15996,
    "\u00e0\u00a8": 19469,
    "ifiers": 13350,
    "mong": 31059,
    "\u0120quarantine": 48827,
    "\u0120membranes": 43447,
    "KE": 7336,
    "\u0120Armageddon": 49034,
    "\u0120Intro": 37219,
    "fty": 19628,
    "\u0120Flex": 26719,
    "hyp": 36362,
    "\u0120commentators": 25699,
    "sight": 18627,
    "\u0120Gerrard": 49314,
    "\u0120Nazi": 12267,
    "\u0120lament": 23146,
    "\u0120Mothers": 49673,
    "\u0120vulgar": 31016,
    "\u0120obser": 7961,
    "880": 41655,
    "\u0120Contact": 14039,
    "\u0120Hornets": 38602,
    "\u00ee": 170,
    "\u0120fraud": 7394,
    "eson": 42038,
    "\u01201943": 21577,
    "\u0120giveaways": 50020,
    "\u00c0": 124,
    "\u0120Marsh": 9786,
    "Book": 10482,
    "alker": 20949,
    "\u0120HDR": 33675,
    "\u0120Database": 24047,
    "\u0120founded": 9393,
    "\u0120palette": 27043,
    "\u0120Known": 29454,
    "\u0120precedent": 19719,
    "\u0120backstage": 43090,
    "\u0120masterpiece": 30669,
    "\u0120crabs": 49172,
    "\u0120doubling": 26862,
    "boxes": 29305,
    "\u0120careg": 32386,
    "Phot": 27248,
    "\u0120foresee": 25511,
    "\u0120expectancy": 29098,
    "lu": 2290,
    "\u0120bicy": 12561,
    "\u0120salesman": 42414,
    "\u0120raged": 49000,
    "774": 47582,
    "\u0120ammunition": 14271,
    "ival": 2473,
    "\u0120Tacoma": 45132,
    "DIR": 34720,
    "Simon": 35475,
    "\u0120neur": 11943,
    "Tips": 43368,
    "\u0120Kard": 37875,
    "060": 41322,
    "\u0120param": 5772,
    "\u0120Operating": 24850,
    "pg": 6024,
    "\u0120biochemical": 47685,
    "\u0120cute": 13779,
    "\u00a5\u0140": 13945,
    "\u0120Chong": 46892,
    "Quotes": 23138,
    "selves": 2020,
    "forming": 15464,
    "\u0120LEVEL": 49277,
    "\u0120Jagu": 21117,
    "\u0120subsection": 8371,
    "enburg": 37036,
    "KEY": 20373,
    "\u0120cautioned": 34105,
    "DERR": 49643,
    "\u0120Soci": 31339,
    "\u0120Midlands": 47989,
    "\u0120nephew": 26301,
    "\u0120Club": 6289,
    "god": 25344,
    "packs": 32377,
    "613": 47512,
    "II": 3978,
    "))))": 35514,
    "\u0120Dress": 33611,
    "\u0120blacklist": 38810,
    "\u0120campaigning": 22264,
    "\u0120shun": 32814,
    "\u0120Tou": 23359,
    "rovers": 31257,
    "\u0120TE": 13368,
    "\u0120tcp": 48265,
    "\u0120fares": 33164,
    "\u0120hips": 21497,
    "\u0120spots": 10222,
    "ynchronous": 31301,
    "\u0120protest": 5402,
    "Missing": 43730,
    "\u0120widest": 46232,
    "\u0120Matter": 16900,
    "\u0120camp": 1413,
    "\u0120posting": 10754,
    "\u0120fee": 6838,
    "\u0120Norn": 34121,
    "\u0120/*": 11900,
    "\u0120Clancy": 46255,
    "\u0120dispro": 15493,
    "\u0120ESPN": 10409,
    "\\\",": 34607,
    "bee": 20963,
    "ugi": 45659,
    "\u0120delightful": 32327,
    "\u0120Al": 978,
    "leading": 12294,
    "\u0120Miscellaneous": 46253,
    "\u0120stress": 5503,
    "\u0120Clock": 21328,
    "au": 559,
    "\u0120insights": 17218,
    "ottenham": 21889,
    "\u0120login": 17594,
    "\u0120Shir": 21972,
    "\u0120Apart": 22596,
    "\u0120willing": 4684,
    "sche": 15952,
    "\u0120sur": 969,
    "\u0120signalling": 45829,
    "\u0120fmt": 46996,
    "\u0120investigating": 10240,
    "\u0120democratically": 48517,
    "ethe": 10567,
    "\u0120Somers": 39879,
    "\u0120breathing": 12704,
    "\u0120crisis": 4902,
    "\u0120still": 991,
    "opl": 20106,
    "\u0120refused": 6520,
    "\u0120joining": 9679,
    "\u0120validation": 21201,
    "\u0120deft": 46208,
    "\u0120hij": 16836,
    "\u0120Gamble": 49318,
    "cool": 24494,
    "\u0120vets": 45024,
    "\u0120human": 1692,
    "\u0120Favor": 38196,
    "\u0120proceed": 5120,
    "\u0120Laurie": 40811,
    "\u00ef\u00b8": 35266,
    "\u0120dick": 19317,
    "bay": 24406,
    "ultimate": 44818,
    "\u0120lesbian": 17834,
    "\u0120Calling": 32677,
    "\u0120Requ": 9394,
    "\u0120anywhere": 6609,
    "\u0120Pressure": 30980,
    "\u0120rituals": 25797,
    "\u0120intraven": 45840,
    "reck": 11402,
    "rypted": 15109,
    "\u0120Laksh": 47382,
    "frequency": 35324,
    "\u0120rgb": 46140,
    "otic": 6210,
    "If": 1532,
    "\u0120Amph": 40185,
    "\u0120static": 9037,
    "\u01202015": 1853,
    "\u0120corps": 16812,
    "\u0120drawback": 43585,
    "\u0120Fancy": 49848,
    "\u0120Jersey": 8221,
    "\u0120monitored": 20738,
    "kas": 42749,
    "\u0120accidental": 23221,
    "ravel": 25843,
    "\u0120inflated": 32387,
    "\u0120||": 8614,
    "\u0120lied": 19837,
    "\u0120York": 1971,
    "\u0120Barrett": 26971,
    "\u0120Materials": 24310,
    "\u0120212": 23679,
    "\u0120hardship": 30699,
    "vana": 33175,
    "ellation": 28828,
    "\u0120redistributed": 38913,
    "\u0120criminal": 4301,
    "ceed": 2707,
    "\u0120stra": 3534,
    "\u0120Then": 3244,
    "Against": 39276,
    "\u0120Pepe": 49761,
    "Dou": 40287,
    "411": 42224,
    "\u0120gul": 47161,
    "iza": 23638,
    "\u0120importance": 6817,
    "\u0120win": 1592,
    "\u0120adversaries": 35177,
    "211": 21895,
    "\u0120governmental": 21850,
    "Weather": 41865,
    "ruit": 4872,
    "\u0120Proposition": 44056,
    "\u0120militias": 28195,
    "umi": 12994,
    "expr": 31937,
    "\u0120razor": 26811,
    "\u0120cocoa": 35845,
    "\u0120Donation": 41654,
    "\u0120blu": 48208,
    "\u0120Blues": 15261,
    "eared": 3380,
    "214": 22291,
    "\u0120overturn": 17586,
    "apeake": 49528,
    "\u0120prey": 15974,
    "\u0120fandom": 35387,
    "Element": 20180,
    "\u0120Vlad": 13080,
    "\u0120waivers": 35633,
    "\u0120lymph": 28837,
    "WASHINGTON": 21793,
    "\u0120moved": 3888,
    "\u0120plane": 6614,
    "good": 11274,
    "ITED": 22061,
    "\u0120evaluation": 12660,
    "\u0120Muhammad": 15870,
    "\u0120disinfect": 48511,
    "\u0120adulthood": 28003,
    "\u0120COP": 27975,
    "\u0120publisher": 9991,
    "\u0120418": 45959,
    "\u0120Maiden": 30591,
    "\u012034": 4974,
    "\u0120cap": 1451,
    "tle": 7100,
    "\u0120Tanner": 43544,
    "\u0120lil": 42280,
    "\u0120Critics": 33385,
    "uned": 40881,
    "\u0120summoning": 40292,
    "agged": 14655,
    "\u00e3\u0125\u00bc\u00e3\u0125\u00ab": 43353,
    "\u0120critical": 4688,
    "polit": 34470,
    "enthal": 34728,
    "vu": 40939,
    "\u0120doub": 3385,
    "\u0120antennas": 43813,
    "\u0120feathers": 27400,
    "\u0120orc": 26393,
    "\u0120Gould": 39292,
    "trump": 40954,
    "\u0120Sok": 37641,
    "\u0120Jays": 23288,
    "Australian": 38036,
    "features": 40890,
    "opted": 45256,
    "\u0120iterations": 34820,
    "\u0120CBO": 38260,
    "\u0120Studio": 11733,
    "utterstock": 28819,
    "\u0120journeys": 35724,
    "Three": 12510,
    "\u0120broadcasters": 38716,
    "\u0120convergence": 40826,
    "\u0120Lak": 30392,
    "ridor": 44425,
    "\u0120Zika": 30861,
    "\u0120celebrate": 10648,
    "\u0120loses": 14754,
    "\u0120tweaks": 26957,
    "45": 2231,
    "upp": 7211,
    "\u0120runoff": 37536,
    "\u0120Triangle": 33233,
    "\u0120Blvd": 29402,
    "\u0120Lore": 15639,
    "\u0120relevance": 23082,
    "\u0120gn": 19967,
    "\u0115": 209,
    "\u0120Homeless": 47706,
    "\u0120Subaru": 30471,
    "\u0120existing": 4683,
    "\u0120Forum": 14867,
    "\u0120eloqu": 32973,
    "\u0120Soda": 43006,
    "\u0120shenan": 48416,
    "\u0120strutConnector": 50009,
    "\u0120exacerbated": 38337,
    "\u0120rookie": 12302,
    "ariat": 21621,
    "bees": 41712,
    "})": 30072,
    "\u0120WHEN": 42099,
    "\u0120continents": 33431,
    "\u0120gren": 17236,
    "ANN": 22846,
    "\u0120sniff": 26300,
    "\u0120dreadful": 35483,
    "\u0120Startup": 40472,
    "phase": 40715,
    "\u0120Bungie": 47593,
    "\u0120prosecute": 26057,
    "\u0120Found": 4062,
    "\u0120convey": 13878,
    "ader": 5067,
    "\u0120EC": 13182,
    "lection": 1564,
    "\u0120charitable": 21803,
    "\u0120Painter": 49102,
    "yah": 46848,
    "\u00e3\u0124\u0135": 22174,
    "weed": 39054,
    "agger": 7928,
    "Terror": 40194,
    "\u0120UCLA": 21750,
    "\u0120Research": 4992,
    "Equ": 23588,
    "Float": 43879,
    "\u0120Burg": 21435,
    "\u0120commentator": 28823,
    "\u0120IOC": 48245,
    "ickey": 40389,
    "\u0120bounty": 24180,
    "yg": 35641,
    "uked": 48809,
    "\u0120Malaysian": 30031,
    "\u0120Pharmaceutical": 37175,
    "]'": 49946,
    "\u00e7\u00ab": 44165,
    "\u0120landmark": 20533,
    "strate": 23104,
    "\u0120propell": 46059,
    "Adult": 42995,
    "\u0120htt": 1841,
    "\u0120standards": 5423,
    "\u0120charities": 23980,
    "\u0120vm": 45887,
    "\u0120paramedics": 42896,
    "\u0120confessed": 25623,
    "\u0120Rut": 21214,
    "\u0120cholesterol": 18759,
    "\u0120Scientology": 24990,
    "\u0120drilling": 19747,
    "tern": 759,
    "\u00e3\u0125\u00bc\u00e3\u0125": 12045,
    "\u0120disabilities": 19358,
    "xiety": 35753,
    "\u0120Kol": 25910,
    "\u0120frameworks": 29251,
    "\u0120pens": 29707,
    "\u0120pudding": 44670,
    "116": 18298,
    "assment": 45312,
    "chell": 12398,
    "\u0120intertwined": 45905,
    "\u0120moral": 6573,
    "\u0120bookstore": 44346,
    "ent": 298,
    "\u0120wireless": 12521,
    "\u0120shr": 10157,
    "\u0120narratives": 26274,
    "\u0120atroc": 22809,
    "\u01201995": 8735,
    "\u0120Challenges": 44495,
    "\u0120proceeding": 18788,
    "\u0120Josh": 8518,
    "Best": 13014,
    "\u0120unmanned": 35272,
    "\u0120motives": 21508,
    "igo": 14031,
    "\u0120anarchist": 26177,
    "\u0120sharper": 41415,
    "centered": 38050,
    "\u0120Chin": 22604,
    "\u0120lords": 33200,
    "\u0120torment": 33378,
    "\u0120Dominic": 36401,
    "\u0120drilled": 34936,
    "IRE": 41736,
    "\u0120Update": 10133,
    "\u0120steer": 27401,
    "eez": 33105,
    "flying": 45928,
    "\u0120Introduced": 16745,
    "\u0120WARNING": 39410,
    "oto": 2069,
    "\u0120branching": 49526,
    "\u0120Opportun": 24922,
    "\u0120listings": 26890,
    "\u0120their": 511,
    "Ros": 35740,
    "\u0120Notwithstanding": 43970,
    "\u0120({": 37913,
    "\u0120fifth": 8150,
    "\u0120SH": 6006,
    "lect": 801,
    "\u0120psychologically": 39705,
    "\u0120Ign": 16583,
    "\u0120Sik": 32615,
    "\u0120straw": 14787,
    "athan": 6696,
    "\u0120Shock": 22763,
    "\u0120Fresh": 20138,
    "qqa": 28794,
    "\u0120chrome": 32030,
    "\u0120ions": 39270,
    "\u0120Detroit": 8488,
    "\u0120structural": 13204,
    "mop": 35244,
    "\u0120robotic": 25810,
    "pper": 2848,
    "\u0120soul": 5848,
    "imeo": 47776,
    "\u0120Nass": 38742,
    "\u0120Static": 36125,
    "24": 1731,
    "\u0120North": 2258,
    "\u0120shutdown": 18325,
    "ocrates": 34095,
    "\u0120unbeaten": 48798,
    "\u0120ample": 23933,
    "\u0120fatalities": 30091,
    "\u00e6\u0138": 23877,
    "erning": 8917,
    "\u0120patronage": 49753,
    "\u0120winds": 13520,
    "ucker": 12603,
    ".</": 25970,
    "\u0120poorly": 13455,
    "\u0120handc": 25188,
    "\u0120available": 1695,
    "\u0120adapters": 46363,
    "\u0120mir": 5720,
    "lishes": 19724,
    "Required": 37374,
    "\u0120govern": 1089,
    "floor": 28300,
    "\u0120freight": 30724,
    "erve": 3760,
    "\u0120corros": 30329,
    "(\"": 7203,
    "\u0120Andromeda": 34542,
    "\u0120theor": 18765,
    "errors": 48277,
    "\u0120Ocean": 10692,
    "\u0120AAA": 25734,
    "\u0120bush": 24484,
    "\u0120statutes": 24895,
    "asus": 40895,
    "jong": 32428,
    "\u0120Imran": 39998,
    "\u0120sight": 6504,
    "\u0120Valid": 48951,
    "\u0120ethos": 39676,
    "\u0120est": 1556,
    "usion": 4241,
    "\u0120import": 1330,
    "\u0120DNS": 18538,
    "\u0120Xeon": 45266,
    "\u0120additive": 38298,
    "\u0120WH": 7655,
    "\u0120distress": 17087,
    "riger": 18096,
    "\u0120NAT": 10149,
    "\u0120inning": 21648,
    "tti": 35671,
    "\u0120Sterling": 23647,
    "\u0120developments": 13312,
    "ingers": 40923,
    "Brexit": 40730,
    "\u0120countless": 12925,
    "\u0120patched": 39378,
    "\u0120Juven": 48113,
    "\u01201070": 49616,
    "\u0120circulation": 19133,
    "\u0120partners": 4887,
    "Philadelphia": 42349,
    "\u0120BO": 16494,
    "\u0120Liberation": 29235,
    "\u0120Holland": 16070,
    "\u0120closest": 11706,
    "\u0120slaves": 13384,
    "\u0120Magicka": 44546,
    "\u0120sear": 9622,
    "mid": 13602,
    "?:": 27514,
    "\u0120hotter": 37546,
    "igham": 34000,
    "uncle": 29942,
    "amd": 28745,
    "\u0120ZIP": 42977,
    "\u0120alarming": 24128,
    "\u0120Rolls": 40074,
    "\u0120Gamergate": 37337,
    "840": 40675,
    "\u0120warm": 5814,
    "\u0120Curry": 20920,
    "\u0120dred": 47478,
    "\u0120268": 36678,
    "kiss": 41304,
    "\u0120produced": 4635,
    "\u0120graphs": 28770,
    "\u0120fight": 1907,
    "edu": 15532,
    "\u0120elevator": 20932,
    "\u0120passes": 8318,
    "\u0120Anglic": 42844,
    "\u0120glasses": 15232,
    "\u0120continu": 11143,
    "\u0120pathogens": 38366,
    "\u0120River": 5866,
    "\u0120Margaret": 19579,
    "\u0120redevelop": 33036,
    "\u0120defiance": 35287,
    "\u0120CLE": 30301,
    "\u0120Town": 8329,
    "few": 32146,
    "\u0120Hopkins": 21183,
    "\u0120Lat": 5476,
    "\u0120knives": 23110,
    "\u0120lam": 30592,
    "\u0120intric": 22588,
    "moderate": 47189,
    "\u0120Anders": 25519,
    "\u0120slips": 33841,
    "\u0120meddling": 33545,
    "\u0120placeholder": 46076,
    "\u0120earns": 29339,
    "\u0120calling": 4585,
    "Rank": 27520,
    "\u0120Min": 1855,
    "ivities": 28720,
    "\u0120uninstall": 43194,
    "::": 3712,
    "\u0120Meaning": 30563,
    "orest": 26522,
    "BBC": 33833,
    "\u0120comp": 552,
    "Winter": 35376,
    "\u0120workers": 3259,
    "Doug": 42297,
    "\u0120Million": 23425,
    "\u0120Pack": 6400,
    "\u0120abstract": 12531,
    "\u0120prompting": 21550,
    "\u0120bragging": 43018,
    "\u0120traces": 20675,
    "\u0120empower": 17549,
    "\u0120brawl": 42599,
    "\u0120Repair": 28912,
    "cs": 6359,
    "able": 540,
    "Offline": 28657,
    "ents": 658,
    "\u0120enchant": 23260,
    "\u0120communal": 26757,
    "\u0120Quantum": 29082,
    "ulators": 24325,
    "\u0120tentative": 38358,
    "\u0120Rings": 26028,
    "\u0120tempo": 28691,
    "\u0120Jump": 15903,
    "\u0120pits": 29699,
    "\u0120takeoff": 45306,
    "\u0120splash": 22870,
    "\u0120forgiven": 32350,
    "\u0120coax": 37700,
    "\u0120campaigner": 47219,
    "\u0120Save": 12793,
    "Michigan": 40610,
    "_(": 41052,
    "\u0120Num": 31835,
    "\u0120gram": 14599,
    "imilation": 42963,
    "\u0120viewers": 10209,
    "oney": 1419,
    "\u0120servic": 37756,
    "\u0120UNESCO": 49372,
    "\u00e3": 159,
    "\u0120HM": 25904,
    "\u0120governs": 47049,
    "{\"": 4895,
    "arios": 13010,
    "\u0120filing": 12180,
    "\u0120ordinarily": 43605,
    "\u0120Ne": 3169,
    "\u0120amaz": 40642,
    "\u0120Samoa": 43663,
    "747": 48882,
    "imei": 45519,
    "\u0120length": 4129,
    "\u0120Kirby": 23965,
    "\u0120Theatre": 15752,
    "\u0120cocaine": 15144,
    "\u0120intrigue": 38520,
    "\u0120Instit": 37931,
    "\u0120chim": 18205,
    "ape": 1758,
    "fights": 50121,
    "\u0120slamming": 39603,
    "\u0120neighbor": 4780,
    "aped": 5813,
    "\u0120Past": 11303,
    "\u00fc": 184,
    "ism": 1042,
    "ugs": 10339,
    "\u0120Caesar": 24088,
    "\u0120GSL": 46326,
    "\u0120Xperia": 41710,
    "\u0120Change": 9794,
    "\u0120interpreted": 16173,
    "\u0120char": 1149,
    "\u0120blank": 9178,
    "mallow": 42725,
    "\u0120warp": 25825,
    "ptions": 8544,
    "Sync": 28985,
    "Strange": 38114,
    "\u0120Response": 18261,
    "\u0120Unic": 21237,
    "ROM": 33676,
    "\u0120fur": 9230,
    "\u0120monstrous": 29100,
    "Dat": 27354,
    "\u0120biomark": 49951,
    "\u0120Ensure": 48987,
    "\u0120searches": 15455,
    "\u0120trap": 12840,
    "Hen": 26055,
    "\u0120Jav": 49247,
    "\u0120Card": 5172,
    "\u0120Swed": 7289,
    "\u0120kinds": 6982,
    "\u0120rendition": 40570,
    "irteen": 22530,
    "ocamp": 26047,
    "\u0120herself": 5223,
    "\u0120souven": 45043,
    "\u0120teleport": 32713,
    "\u0120affirmative": 27990,
    "\u0120tweaked": 38304,
    "\u0120ascended": 44440,
    "\u0120eruption": 36176,
    "glas": 14391,
    "ocrin": 39913,
    "perture": 27286,
    "78": 3695,
    "\u0120consideration": 9110,
    "\u0120instead": 2427,
    "\u0120inequality": 12791,
    "\u0120swirling": 40431,
    "cott": 14612,
    "\u0120abandoning": 31309,
    "person": 6259,
    "\u0120refers": 10229,
    "\u0120PCIe": 41825,
    "\u0120sophisticated": 13767,
    "\u0120pound": 14896,
    "eter": 2357,
    "itivity": 11365,
    ".\",": 33283,
    "\u0120Alley": 40960,
    "token": 30001,
    "\u0120OS": 7294,
    "\u0120factions": 18783,
    "angling": 27499,
    "\u0120CNN": 8100,
    "\u0120mean": 1612,
    "\u00e2\u0138\u0122": 44033,
    "dale": 14597,
    "\u0120Jimmy": 12963,
    "\u01201954": 24718,
    "\u0120sustained": 12605,
    "\u0120Sant": 10844,
    "\u0120Cosmetic": 46161,
    "\u0120Kron": 44732,
    "\u0120Seventh": 31848,
    "DD": 16458,
    "Drive": 24825,
    "\u0120Mel": 5616,
    "\u0120instrument": 8875,
    "\u0120Mining": 29269,
    "\u0120merc": 11991,
    "\u0120Strike": 12282,
    "\u0120hairs": 32908,
    "290": 24369,
    "Digital": 27640,
    "\u0120decree": 25931,
    "forced": 12072,
    "\u0120experien": 3410,
    "\u0120overseen": 43097,
    "\u0120archaeologists": 38967,
    "\u0120WhatsApp": 37666,
    "\u0120expr": 44052,
    "\u0120premium": 8683,
    "\u00e2\u0138\u0135": 38626,
    "\u0120hide": 7808,
    "duty": 26278,
    "\u0120Edinburgh": 23475,
    "\u0120Ar": 943,
    "omsky": 37093,
    "\u0120Feng": 18164,
    "istics": 3969,
    "\u0120seasonal": 21819,
    "Nick": 23609,
    "\u0120Southern": 8050,
    "\u0120alas": 47156,
    "\u0120Vi": 16049,
    "\u0120Clay": 15551,
    "assion": 11857,
    "rad": 6335,
    "\u0120mit": 10255,
    "185": 21652,
    "\u0120Topics": 34440,
    "\u0120achieves": 41885,
    "\u0120Trib": 10841,
    "quit": 47391,
    "izzy": 40593,
    "\u0120integral": 19287,
    "03": 3070,
    "\u0120advancing": 19988,
    "Prin": 47231,
    "642": 41290,
    "po": 7501,
    "\u0120interpreter": 28846,
    "\u0120daytime": 32899,
    "\u0120SEO": 30850,
    "employment": 28812,
    "take": 20657,
    "lus": 41790,
    "\u0120Additional": 15891,
    "conservancy": 41215,
    "not": 1662,
    "\u0120fans": 3296,
    "\u0120submarines": 34031,
    "\u0120Bethlehem": 46930,
    "water": 7050,
    "\u0120recent": 2274,
    "\u0120ec": 9940,
    "\u0120remarked": 24998,
    "oter": 19543,
    "\u0120around": 1088,
    "\u0120tank": 6873,
    "mes": 6880,
    "\u0120brav": 49025,
    "\u0120planners": 33596,
    "=\"/": 35922,
    "\u0120Tiffany": 40928,
    "Little": 22253,
    "ijing": 11030,
    "\u0120Mid": 7215,
    "\u0120Looks": 29403,
    "defined": 23211,
    "aphael": 34889,
    "\u0120gamble": 32385,
    "\u0120Akira": 46910,
    "oan": 24611,
    "\u0120raises": 12073,
    "\u0120bakery": 38164,
    "\u0120Cor": 2744,
    "\u0120Fab": 14236,
    "stown": 27928,
    "Although": 7003,
    "\u0120Idol": 34392,
    "\u0120Chevy": 40688,
    "\u013b": 247,
    "naires": 43317,
    "Parameters": 48944,
    "\u0120organs": 16613,
    "\u0120getting": 1972,
    "\u0120lash": 46967,
    "\u0120Lun": 19948,
    "\u0120civilized": 34169,
    "\u0120Areas": 38662,
    "\u0120motorists": 32688,
    "\u0120morphology": 46320,
    "\u0120patriarch": 28915,
    "\u0120dependent": 10795,
    "de": 2934,
    "\u0120publicly": 7271,
    "etts": 9357,
    "\u0120antenna": 20509,
    "\u0120pages": 5468,
    "lease": 1274,
    "\u0120squat": 22713,
    "\u0120casually": 27793,
    "\u0120640": 33759,
    "\u0120Wish": 23447,
    "\u0120connectors": 34472,
    "\u0120455": 46839,
    "\u0120da": 12379,
    "363": 35447,
    "\u0120rapist": 38007,
    "Lib": 25835,
    "\u0120fence": 13990,
    "\u0120formulation": 31760,
    "ual": 723,
    "\u0120temperature": 5951,
    "well": 4053,
    "\u0120Bakr": 47121,
    "\u0120racially": 28824,
    "\u0120negotiators": 45373,
    "itability": 34147,
    "\u0120linked": 6692,
    "urations": 20074,
    "\u0120thinly": 44722,
    "\u0120broadband": 18729,
    "\u0120bip": 14141,
    "rary": 11619,
    "\u0120fourth": 5544,
    "\u0120Julian": 18322,
    "was": 9776,
    "CH": 3398,
    "\u0120insistence": 30696,
    "\u0120Voyager": 34124,
    "Methods": 46202,
    "aff": 2001,
    "altern": 33645,
    "\u0120hazardous": 26082,
    "\u0120AAP": 31518,
    "measures": 47336,
    "\u0120Okinawa": 47221,
    "ographical": 17046,
    "\u0120Oss": 45397,
    "Mel": 21102,
    "hyd": 15511,
    "\u0120stunt": 25756,
    "iating": 26336,
    "\u0120worn": 12666,
    "\u0120vanquished": 49171,
    "OME": 13649,
    "\u0120irreversible": 43635,
    "imize": 48439,
    "AU": 26830,
    "\u0120Pan": 5961,
    "\u0120colle": 6367,
    "\u0120M\u00c3\u00bc": 40790,
    "\u0120incidental": 40521,
    "\u0120PIN": 34279,
    "\u0120unlaw": 16148,
    "una": 9613,
    "\u0120concerts": 28565,
    "\u0120requiring": 10616,
    "\u0120provisions": 8617,
    "\u0120NASA": 8884,
    "\u0120Input": 23412,
    "igible": 26032,
    "Open": 11505,
    "sers": 17720,
    "\u0120Somehow": 36651,
    "\u0120mayors": 44660,
    "\u0120Vo": 20687,
    "bum": 4435,
    "ramer": 29172,
    "\u0120Pikachu": 38755,
    "!\"": 2474,
    "marg": 30887,
    "\u0120Arri": 27350,
    "\u0120whispering": 48508,
    "hide": 24717,
    "bat": 8664,
    "Style": 21466,
    "enary": 21629,
    "\u0120cursing": 49766,
    "mins": 42951,
    "weapons": 33999,
    "Effective": 44831,
    "Tenn": 43139,
    "\u0120Pegasus": 48188,
    "\u0120sensitivity": 14233,
    "\u0120flo": 5530,
    "\u0120uncanny": 45244,
    "\u0120planes": 13016,
    "\u0120Scotch": 46755,
    "Urban": 46667,
    "\u0120Delivery": 28682,
    "\u0120Bath": 24967,
    "chall": 36747,
    "\u0120stew": 20798,
    "\u0120agreeable": 49534,
    "\u0120458": 50154,
    "\u0120Picard": 36614,
    "acio": 48711,
    "\u0120Lord": 4453,
    "ts": 912,
    "\u0120gambling": 19029,
    "\u0120hitting": 9008,
    "\u0120circumference": 38447,
    "\u0120testimonies": 49904,
    "\u0120artificial": 11666,
    "\u0120Guardian": 8283,
    "\u0120affection": 17696,
    "\u0120Costume": 40051,
    "urion": 40956,
    "ritten": 9108,
    "\u0120inco": 44237,
    "o": 78,
    "07": 2998,
    "sth": 48476,
    "\u0120residues": 47185,
    "duc": 6077,
    "\u0120wounds": 14129,
    "\u0120romantic": 14348,
    "\u0120grabbing": 23256,
    "\u0120Shap": 29198,
    "\u0120Out": 3806,
    "\u0120Battalion": 29887,
    "\u0120Straight": 27680,
    "\u0120biggest": 4094,
    "\u0120Poke": 41163,
    "\u0120helpful": 7613,
    "\u0120litter": 25359,
    "\u0120Robb": 31384,
    "\u0120Plato": 32976,
    "\u0120WS": 25290,
    "arte": 32074,
    "icient": 11373,
    "iner": 7274,
    "FL": 3697,
    "rocal": 43270,
    "7": 22,
    "\u0120oz": 15649,
    "business": 22680,
    "Mor": 20044,
    "INESS": 44180,
    "hesis": 8497,
    "930": 45418,
    "\u0120enlight": 19128,
    "\u0120spar": 37331,
    "\u0120reim": 21123,
    "wp": 24142,
    "\u0120faulty": 30954,
    "\u0120oust": 50151,
    "\u0120Mut": 13859,
    "\u0120morphed": 49976,
    "fter": 637,
    "ilian": 35824,
    "\u0120Ram": 7431,
    "\u0120unp": 8593,
    "ogenic": 15147,
    "\u0120Monteneg": 50008,
    "Normally": 43625,
    "\u0120licensee": 35796,
    "\u0120Ty": 7039,
    "\u0120detailed": 6496,
    "ours": 4662,
    "ree": 631,
    "usp": 17723,
    "\u0120Frag": 24229,
    "\u0120falling": 7463,
    "\u0120Cruiser": 49719,
    "\u0120Tables": 33220,
    "\u00e6\u0142": 43718,
    "\u0120Hal": 11023,
    "\u0120unparalleled": 39235,
    "lance": 23215,
    "\u0120seating": 24800,
    "established": 27718,
    "\u0120Swe": 19372,
    "\u0120garbage": 15413,
    "Term": 40596,
    "\u0120unequivocally": 47001,
    "Wallet": 47152,
    "ONG": 18494,
    "\u0120Rober": 4109,
    "aeus": 46052,
    "\u0120transpl": 37100,
    "\u0120AE": 25603,
    "LD": 11163,
    "\u0120Cinnamon": 48932,
    "386": 21734,
    "DEV": 39345,
    "\u0120deceit": 37268,
    "\u0120predictably": 45741,
    "\u0120primates": 41316,
    "\u0120McH": 49634,
    "\u0120PvP": 25576,
    "\u0120arranging": 41878,
    "depth": 18053,
    "\u0120Clubs": 48901,
    "Clark": 43250,
    "rodu": 2076,
    "\u0120filings": 28058,
    "criminal": 45955,
    "patient": 26029,
    "mpeg": 43913,
    "\u0120Hear": 26319,
    "\u0120Weir": 46669,
    "iah": 9520,
    "irms": 8789,
    "\u0120stamina": 32312,
    "\u0120worsening": 42373,
    "\u0120elephant": 20950,
    "\u0120presc": 10859,
    "omb": 2381,
    "\u0120chants": 40727,
    "\u0120SERVICE": 47453,
    "\u0120rac": 3444,
    "ued": 1739,
    "\u0120restroom": 40018,
    "\u0120embarrass": 9614,
    "wt": 46569,
    "\u0120Bethesda": 33537,
    "onday": 3204,
    "\u0120slight": 3731,
    "\u0120foul": 15626,
    "odic": 29512,
    "\u0120Capt": 6790,
    "ixir": 32345,
    "\u0120Alban": 27001,
    "Council": 40940,
    "Recommend": 41248,
    "\u0120vitro": 30590,
    "\u0120Andersen": 42356,
    "\u0120pit": 6028,
    "\u0120torch": 28034,
    "\u0120victory": 5373,
    "\u0120shift": 6482,
    "\u0120depri": 15659,
    "\u0120identification": 11795,
    "\u0120Cornel": 48214,
    "\u0120viewer": 19091,
    "\u0120Invention": 49110,
    "\u0120form": 1296,
    "stuff": 41094,
    "\u0120multip": 18540,
    "\u0120Prometheus": 42696,
    "dis": 6381,
    "\u0120Guer": 30059,
    "\u0120tang": 13875,
    "\u0120Parad": 14853,
    "\u0120misconceptions": 45679,
    "sun": 19155,
    "\u0120intermedi": 30127,
    "web": 12384,
    "Wo": 49450,
    "sample": 39873,
    "\u0120laughs": 22051,
    "\u0120Bolshevik": 48789,
    "Protect": 41426,
    "\u0120existed": 11196,
    "\u0120combinations": 17790,
    "\u0120wrest": 10419,
    "\u0120fist": 18606,
    "sports": 32945,
    "soc": 35634,
    "Connector": 34525,
    "\u0120zones": 14123,
    "black": 13424,
    "\u0120purity": 25590,
    "ruce": 26524,
    "earances": 35630,
    "\u0120nineteenth": 29666,
    "orter": 4337,
    "Democrats": 29969,
    "HR": 17184,
    "\u0120Copenhagen": 31104,
    "\u0120awful": 12659,
    "\u0120fax": 35168,
    "Unique": 40257,
    "\u0120lower": 2793,
    "\u0120family": 1641,
    "\u0120trend": 5182,
    "\u0120undes": 27858,
    "\u0120milit": 2036,
    "\u0120things": 1243,
    "\u0120Treaty": 21345,
    "\u0120Fargo": 28125,
    "\u0120artists": 7912,
    "\u0120Animation": 23535,
    "\u0120organize": 16481,
    "\u0120cursed": 25155,
    "\u0120datasets": 40522,
    "\u0120Feinstein": 34861,
    "\u0120Quadro": 48447,
    "\u0120Cavs": 38943,
    "\u0120Yellow": 12550,
    "Democratic": 33939,
    "atana": 43777,
    "billion": 24540,
    "\u0120Cthulhu": 39316,
    "\u0120Soviet": 7570,
    "\u0120Folk": 36111,
    "absolutely": 42994,
    "\u0120Faculty": 35262,
    "\u0120Goat": 40423,
    "l\u00c3\u00a9": 45031,
    "\u0120implants": 35223,
    "\u0120fullback": 49570,
    "\u0120Malays": 12230,
    "\u0120confiscated": 34012,
    "029": 48891,
    "oS": 34049,
    "\u0120Beans": 49740,
    "\u0120plantation": 43206,
    "AUT": 39371,
    "\u0120underest": 20164,
    "\u0120mega": 23465,
    "\u0120Billy": 15890,
    "\u0120compliance": 11846,
    "\u0120rapid": 5801,
    "Earth": 22840,
    "\u0120disrespect": 23797,
    "\u0120forcefully": 35701,
    "\u0120axe": 23272,
    "\u01201977": 15589,
    "\u0120Montgomery": 21532,
    "ourge": 14501,
    "\u0120unprepared": 45102,
    "\u0120Currently": 16888,
    "\u0120decriminal": 38126,
    "\u0120Teams": 24690,
    "arming": 18052,
    "740": 45598,
    "irements": 18883,
    "\u0120applauded": 38911,
    "Ell": 30639,
    "\u0120Cran": 32919,
    "exempt": 42679,
    "\u0120pays": 13831,
    "\u0120Gran": 17113,
    "neum": 25668,
    "\u0120Aer": 15781,
    "526": 48531,
    "\u0120Sample": 27565,
    "\u0120batters": 42442,
    "698": 39357,
    "Wi": 31294,
    "\u0120Loaded": 42485,
    "\u0120wells": 22571,
    "\u0120Wilson": 8127,
    "\u00e5\u00b7": 32432,
    "\u0120Ms": 6997,
    "\u0120reminis": 21484,
    "\u0120ousted": 37822,
    "\u0120denotes": 43397,
    "\u0120Raven": 12552,
    "\u0120occupancy": 42498,
    "\u0120invite": 14037,
    "\u0120corpses": 26750,
    "undo": 41204,
    "\u01201906": 40538,
    "\u0120Indiana": 10278,
    "\u0120powerhouse": 34886,
    "Speed": 22785,
    "\u0120Bec": 15780,
    "\u0120categories": 9376,
    "\u0120jumps": 18045,
    "\u0120stealth": 19159,
    "\u0120denounce": 38639,
    "\u0120devastating": 14101,
    "\u0120triangle": 22950,
    "\u0120factory": 8860,
    "artney": 41709,
    "\u00eb\u012d": 46695,
    "times": 22355,
    "\u0120join": 4654,
    "Names": 36690,
    "FC": 4851,
    "aum": 26043,
    "\u0120fac": 1777,
    "\u0120scholarship": 18652,
    "\u0120Jenny": 28437,
    "Fix": 22743,
    "\u0120Kod": 32701,
    "\u0120Look": 6803,
    "\u0120communicates": 48556,
    "\u0120slashed": 34930,
    "onga": 44294,
    "\u0120choosing": 11236,
    "\u0120Business": 7320,
    "\u0120painted": 13055,
    "ht": 4352,
    "\u0120bur": 4356,
    "\u0120179": 27228,
    "\u0120570": 44626,
    "\u0120emptied": 46705,
    "\u0120covers": 8698,
    "Anna": 31160,
    "\u0120Brid": 28320,
    "nels": 19423,
    "obbies": 41372,
    "\u0120collections": 17268,
    "\u0120grasping": 44787,
    "\u0120dict": 8633,
    "\u0120Toys": 35397,
    "\u0120Bolivia": 38496,
    "\u0120great": 1049,
    "\u0120legislative": 10828,
    "\u0120fuzzy": 34669,
    "\u0120hel": 932,
    "girlfriend": 45189,
    "\u0120Survive": 41814,
    "\u0120Bastard": 47209,
    "\u0120sustaining": 37791,
    "\u0120jerk": 29757,
    "\u0120Focus": 17061,
    "\u0120Typh": 27282,
    "runner": 16737,
    "\u0120exce": 43748,
    "andi": 26800,
    "\u0120cru": 4630,
    "\u0120\u00e2\u0122": 564,
    "\u0120disadvant": 14560,
    "\u0120Lara": 29849,
    "\u0120pts": 43344,
    "\u00e3\u0125\u012c": 26229,
    "\u0120site": 2524,
    "\u0120entrepreneurs": 17038,
    "\u0120Mood": 25723,
    "\u0120Struggle": 49460,
    "LV": 30976,
    "\u0120cause": 2728,
    "\u0120Spotlight": 49014,
    "\u0120artifacts": 20316,
    "Supplement": 42615,
    "\u0120Stores": 41835,
    "\u0120Kul": 50024,
    "rather": 34330,
    "\u0120bluntly": 44514,
    "\u0120Rough": 29949,
    "interesting": 47914,
    "\u0120Roz": 41334,
    "\u0120mess": 2085,
    "\u0120Samurai": 23882,
    "\u0120dances": 38207,
    "\u0120weekend": 5041,
    "jri": 38790,
    "ings": 654,
    "\u0120natural": 3288,
    "Written": 25354,
    "\u0120hotel": 7541,
    "\u0120UR": 37902,
    "Reason": 45008,
    "\u0120contestants": 37851,
    "Men": 10418,
    "ews": 15515,
    "unci": 49652,
    "\u0120])": 33761,
    "White": 12256,
    "\u0120Sphere": 31798,
    "\u0120BAL": 48091,
    "\u0120conception": 19759,
    "intention": 40867,
    "gotten": 21646,
    "\u0120\u00e2\u0128\u0134": 15168,
    "\u0120Druid": 32685,
    "bur": 6236,
    "\u0120Serial": 23283,
    "\u00e6\u0138\u00b9": 43095,
    "\u0120senators": 15469,
    "\u0120Sexual": 19536,
    "\u0120Angry": 31900,
    "zip": 13344,
    "\u0120Quran": 30018,
    "591": 48952,
    "\u0120biomass": 42584,
    "Director": 28702,
    "\u0120spent": 3377,
    "\u0120analytic": 49166,
    "\u0120compulsion": 48672,
    "\u0120arter": 30675,
    "\u0120forum": 10041,
    "rolling": 18886,
    "\u0120suburb": 23200,
    "per": 525,
    "\u0120Sed": 22710,
    "\u0120mileage": 33935,
    "hash": 17831,
    "onel": 26261,
    "\u0120Robertson": 23590,
    "\u0120Galileo": 45860,
    "itures": 20686,
    "415": 35038,
    "itution": 2738,
    "ugen": 42740,
    "\u0120hallway": 23959,
    "\u0120op": 1034,
    "\u0120recommendations": 10763,
    "\u0120Evans": 13922,
    "\u0120utilization": 32121,
    "\u0120connectivity": 19843,
    "\u0120earnest": 23176,
    "NES": 37379,
    "\u0120upscale": 44918,
    "\u0120Utilities": 41086,
    "aries": 3166,
    "\u0120err": 11454,
    "wyn": 27612,
    "\u0120stellar": 25041,
    "OG": 7730,
    "\u0120Dino": 39430,
    "\u0120KY": 33668,
    "\u0120illumination": 40951,
    "Delivery": 33129,
    "itute": 3678,
    "\u0120];": 28013,
    "\u0120migration": 13472,
    "\u0120heats": 37876,
    "\u0120THEN": 42243,
    "\u0120reson": 14309,
    "Located": 43525,
    "\u0120alternatives": 14693,
    "Rules": 37766,
    "poses": 4832,
    "Whe": 10842,
    "\u0120footh": 36522,
    "\u0120avoidance": 29184,
    "\u0120benefit": 4414,
    "\u0120resume": 15294,
    "\u0120listing": 13487,
    "\u0120periodic": 27458,
    "\u0120jumper": 31118,
    "\u0120Invasion": 25484,
    "\u0120flurry": 36418,
    "pn": 21999,
    "\u0120Newspaper": 49598,
    "chan": 3147,
    "annis": 45017,
    "\u0120provoking": 45625,
    "\u0120compuls": 27954,
    "INTON": 46812,
    "\u0120therm": 21969,
    "\u0120consisted": 19954,
    "\u0120Mediterranean": 19517,
    "flight": 22560,
    "\u0120expansions": 36383,
    "\u0120losses": 9089,
    "\u0120acknowledge": 12127,
    "\u0120frame": 5739,
    "\u0120322": 38831,
    "\u0120polit": 1408,
    "\u0120Shining": 23136,
    "\u0120Finished": 42931,
    "\u0120shaving": 38013,
    "\u0120verb": 15942,
    "\u0120Ridge": 20614,
    "whelming": 36433,
    "existence": 41084,
    "In": 818,
    "\u0120surely": 10403,
    "\u0120Pictures": 20051,
    "\u0120Invalid": 17665,
    "\u0120Stephanie": 26085,
    "apsed": 28361,
    "plain": 25638,
    "\u0120territ": 5771,
    "\u0120backbone": 32774,
    "\u0120simply": 2391,
    "\u0120Calls": 27592,
    "adish": 48563,
    "\u0120myth": 7918,
    "inguishable": 41726,
    "\u0120Grand": 5675,
    "\u0120appropriately": 20431,
    "\u0120amend": 13582,
    "kens": 14972,
    "\u0120Stre": 9737,
    "Drug": 37943,
    "ribed": 8725,
    "\u0120claws": 28421,
    "ically": 1146,
    "\u0120having": 1719,
    "burgh": 9228,
    "\u0120business": 1597,
    "xc": 25306,
    "\u0120rooft": 27291,
    "35": 2327,
    "\u0120horizontally": 36774,
    "ATIVE": 37045,
    "\u0120Tournament": 9595,
    "\u0120psychosis": 37926,
    "\u0120Oil": 11474,
    "\u0120mell": 33748,
    "\u0120forced": 4137,
    "\u0120cured": 30703,
    "parser": 48610,
    "\u0120aug": 16339,
    "\u0120Engineer": 23164,
    "ses": 8448,
    "\u0120Anonymous": 19200,
    "752": 43665,
    "\u0120formulated": 34391,
    "utions": 3508,
    "icket": 9715,
    "\u0120aster": 18503,
    "\u0120Ribbon": 44664,
    "\u0120Guess": 37571,
    "\u00a7": 100,
    "ilated": 40080,
    "\u0120pissed": 28674,
    "\u0120maritime": 30017,
    "\u00e3\u0123\u0128": 29557,
    "part": 3911,
    "\u0120blogger": 23530,
    "\u0120Color": 5315,
    "\u0120Fitzpatrick": 44271,
    "\u0120advise": 18595,
    "ab": 397,
    "\u0120T": 309,
    "\u0120Resource": 20857,
    "\u0120swing": 9628,
    "ESSION": 47621,
    "\u0120cigarette": 17779,
    "\u0120hots": 33915,
    "\u0120Seoul": 22372,
    "skinned": 41412,
    "\u0120doubt": 4719,
    "\u0120Doyle": 31233,
    "\u0120Master": 5599,
    "Sense": 41166,
    "\u0120embrace": 12553,
    "\u0120Cologne": 34923,
    "dk": 34388,
    "\u0120swirl": 42835,
    "guns": 44265,
    "\u0120temperatures": 10101,
    "\u0120gl": 1278,
    "!'": 13679,
    "\u0120counters": 21154,
    "\u0120OPEN": 38303,
    "enc": 12685,
    "untu": 11157,
    "DM": 23127,
    "roy": 3287,
    "\u0120caves": 30923,
    "\u0120mesh": 19609,
    "\u0120SATA": 35070,
    "\u0120Olsen": 39148,
    "country": 19315,
    "\u0120hurting": 21530,
    "st": 301,
    "\u0120nurses": 20669,
    "\u0120Fol": 30938,
    "\u0120Many": 4650,
    "olit": 6212,
    "fp": 46428,
    "\u0120graft": 38455,
    "Bell": 36488,
    "\u0120concepts": 10838,
    "\u0120incest": 35961,
    "ulent": 15288,
    "\u0120Etsy": 38909,
    "\u0120either": 2035,
    "\u0120Norris": 33444,
    "\u0120usage": 8748,
    "\u0120PEOPLE": 36388,
    "\u0120Loch": 45264,
    "\u0120Belgian": 21402,
    "\u0120filter": 8106,
    "\u0120ravaged": 47877,
    "\u0120unleashed": 28136,
    "\u0120Falcons": 21026,
    "\u0120scripted": 37341,
    "\u0120sympt": 6585,
    "\u0120pictures": 5986,
    "etsk": 29515,
    "i": 72,
    "\u0120alienated": 41258,
    "\u0120runes": 32326,
    "ocard": 44412,
    "Grade": 42233,
    "\u012035": 3439,
    "\u0120rewarding": 23404,
    "\u0120famed": 28331,
    "\u0120FB": 13186,
    "\u0120Islanders": 32868,
    "haired": 29972,
    "\u0120once": 1752,
    "????": 9805,
    "\u0120gamer": 26713,
    "\u0120Moment": 29278,
    "\u0120sweat": 15488,
    "\u0120Berkshire": 49927,
    "\u0120Beng": 14964,
    "\u0120Starg": 44393,
    "gold": 24267,
    "mo": 5908,
    "\u0120necessarily": 6646,
    "\u0120Mens": 43103,
    "\u0120lush": 37408,
    "ee": 1453,
    "tech": 13670,
    "Muslims": 36452,
    "\u0120DARK": 46455,
    "\u0120crowned": 37492,
    "andom": 3749,
    "\u0120Reborn": 37612,
    "\u0120Undead": 31326,
    "\u0120dinosaurs": 27199,
    "\u0120puzzling": 42695,
    "iness": 1272,
    "endum": 43755,
    "\u0120Moody": 32136,
    "\u0120sovereign": 18901,
    "\u0120Paraly": 47552,
    "\u0120native": 6868,
    "ination": 1883,
    "bach": 19496,
    "\u0120Spl": 13341,
    "\u0120strategist": 25651,
    "PAR": 27082,
    "\u0120259": 37831,
    "\u0120Vita": 24113,
    "\u0120relief": 8259,
    "\u0120enz": 26365,
    "\u0120transmitting": 39573,
    "Ring": 39687,
    "\u0120immigration": 6272,
    "\u0120368": 43019,
    "crete": 38669,
    "\u0120thoughtful": 22677,
    "\u0120probable": 17939,
    "\u0120wage": 7699,
    "\u0120club": 3430,
    "\u0120slider": 28982,
    "\u0120AAC": 47943,
    "\u0120pian": 43923,
    "Ti": 40533,
    "eways": 43613,
    "\u0120frig": 36780,
    "police": 38191,
    "\u0120lectures": 25917,
    "\u0120Naked": 41619,
    "\u0120aircraft": 6215,
    "ream": 1476,
    "\u012014": 1478,
    "\u0120gunned": 49474,
    "\u0120excuse": 12226,
    "nyder": 21053,
    "Ball": 23410,
    "Peace": 43445,
    "\u0120Orange": 11942,
    "\u00e3\u0122\u012f": 13700,
    "\u0120comfortably": 24341,
    "\u0120Lindsay": 33127,
    "orus": 15125,
    "\u0120perenn": 34893,
    "\u0120Catalonia": 33859,
    "\u0120cleaned": 20750,
    "match": 15699,
    "\u0120\u00f0\u0141\u013b\u0124": 32485,
    "\u0120prosecuted": 23086,
    "\u0120overt": 9929,
    "\u0120an": 281,
    "\u0120AC": 7125,
    "\u0120absor": 8256,
    "\u0120Dai": 39604,
    "claw": 43143,
    "Recently": 24661,
    "\u0120NF": 41288,
    "\u0120FACE": 46587,
    "\u0120424": 48252,
    "\u0120Rip": 29496,
    "Fortunately": 31276,
    "\u00e5\u0143\u0132": 36310,
    "ift": 2135,
    "\u0120As": 1081,
    "vironment": 2468,
    "linux": 23289,
    "\u0120teaser": 38388,
    "328": 34256,
    "Bas": 15522,
    "educ": 18123,
    "2004": 15724,
    "\u0120Frie": 45890,
    "which": 4758,
    "\u0120ak": 47594,
    "\u0120awfully": 45421,
    "\u0120supremacy": 25888,
    "raviolet": 44223,
    "\u0120Sven": 44611,
    "\u0120carb": 13265,
    "Court": 36699,
    "querque": 36119,
    "\u0120ordained": 36777,
    "\u0120stock": 4283,
    "\u0120Bub": 19645,
    "\u0120Target": 12744,
    "\u0120Lizard": 42452,
    "\u0120palm": 18057,
    "\u0120railway": 20515,
    "\u0120Kaw": 23043,
    "\u0120Dynasty": 30908,
    "\u0120Hep": 32308,
    "\u0120Scher": 47956,
    "\u0120Ramos": 36692,
    "ander": 4066,
    "\u0120gauge": 18266,
    "\u0120descendants": 25321,
    "\u0120crowds": 15779,
    "\u0120worry": 5490,
    "\u0120aff": 1527,
    "display": 13812,
    "touch": 29332,
    "\u00ef\u00bf\u00bd\u00ef\u00bf\u00bd\u00ef\u00bf\u00bd\u00ef\u00bf\u00bd": 12100,
    "\u0120cooks": 38383,
    "Att": 8086,
    "ATURE": 40086,
    "\u0120ISIS": 7768,
    "olutions": 14191,
    "analysis": 20930,
    "Tube": 6876,
    "\u0120Jer": 4230,
    "\u0120echoed": 22211,
    "\u0120wrinkles": 49391,
    "\u0120therapeutic": 21546,
    "egal": 39839,
    "imus": 20704,
    "'';": 44648,
    "\u0120ads": 9011,
    "\u0120Barton": 32342,
    "\u0120Ethan": 28926,
    "Br": 9414,
    "\u0120Lieutenant": 21586,
    "keeper": 13884,
    "\u0120pastoral": 45950,
    "\u0120Cancel": 27910,
    "Harry": 18308,
    "aldo": 41476,
    "ophile": 37161,
    "Lady": 38887,
    "idan": 27610,
    "\u0120farmer": 18739,
    "suggest": 47811,
    "atlantic": 43342,
    "plugin": 33803,
    "john": 30686,
    "Got": 30074,
    "\u0120Meow": 42114,
    "trigger": 46284,
    "\u0120plun": 19324,
    "\u0120estimating": 39539,
    "IFIED": 28343,
    "\u0120Lev": 16042,
    "\u0120terrorist": 7417,
    "681": 48564,
    "\u0120tighten": 31833,
    "\u0120prevalence": 16815,
    "\u0120apparently": 5729,
    "\u0120Incre": 10791,
    "\u0120388": 43550,
    "LP": 19930,
    "\u0120mal": 6428,
    "Tan": 45557,
    "tank": 28451,
    "\u0120oppose": 12856,
    "\u0120collaboration": 12438,
    "igator": 23823,
    "phalt": 41942,
    "\u0120procedural": 27931,
    "US": 2937,
    "oli": 11106,
    "\u0120Peg": 31084,
    "\u0120Held": 44584,
    "\u0120lipstick": 41429,
    "\u0120dose": 10742,
    "052": 37841,
    "\u0120communicating": 22889,
    "14": 1415,
    "way": 1014,
    "mult": 16680,
    "endars": 44942,
    "\u0120Phillies": 36552,
    "\u0120anth": 26794,
    "uten": 7809,
    "ixty": 19404,
    "geoning": 31614,
    "\u0120Destroyer": 30414,
    "\u0120clouds": 15114,
    "manager": 37153,
    "\u0120Mild": 29087,
    "\u0120hell": 5968,
    "\u0120Crist": 24568,
    "\u0120endorse": 11438,
    "((": 19510,
    "\u0120clauses": 31485,
    "\u0120Horses": 49122,
    "\u0120directives": 34819,
    "ente": 21872,
    "\u0120Tamil": 32519,
    "\u0120dare": 16498,
    "\u0120steroid": 40762,
    "\u0120Vs": 31280,
    "height": 17015,
    "\u0120ster": 12504,
    "aye": 48822,
    "ura": 5330,
    "\u0120transporter": 48490,
    "\u0120td": 41560,
    "\u0120Wagner": 26451,
    "\u0120beg": 4123,
    "\u0120ka": 38387,
    "\u0120Northeast": 26315,
    "\u0120Improve": 20580,
    "Els": 45507,
    "\u0120butterflies": 44571,
    "\u0120keynote": 37332,
    "\u0120biology": 17219,
    "hops": 21936,
    "\u0120XCOM": 49358,
    "payment": 37301,
    "\u0120bog": 22922,
    "anga": 16484,
    "Graph": 37065,
    "ences": 3007,
    "Live": 18947,
    "\u0120overweight": 22652,
    ".,": 1539,
    "\u0120governments": 6905,
    "\u0120additions": 19885,
    "rans": 26084,
    "\u0120unexplained": 43286,
    "\u0120Champion": 15869,
    "Andy": 35314,
    "immer": 10957,
    "\u0120backend": 30203,
    "\u0120apologize": 16521,
    "\u0120*)": 31936,
    "\u0120Autob": 41735,
    "\u0120Realm": 23651,
    "\u0120allergy": 36197,
    "Chicken": 45565,
    "\u0120ignorance": 17010,
    "\u0120pumpkin": 30089,
    "\u0120Owner": 23853,
    "\u0120Cham": 37790,
    "\u0120Whitman": 47958,
    "rated": 4111,
    "\u0120minced": 48427,
    "\u0120Von": 26985,
    "\u0120rename": 36265,
    "\u0120Hogwarts": 30922,
    "otional": 25453,
    "killing": 43764,
    "\u0120piracy": 30955,
    "\u00e3\u0124\u00a8": 23544,
    "\u0120pokemon": 43962,
    "java": 12355,
    "\u0120collision": 17661,
    "\u0120Hou": 33790,
    "ophobic": 23468,
    "\u0120Heads": 34838,
    "/": 14,
    "atell": 7528,
    "VERTIS": 18000,
    "\u0120declares": 24183,
    "ennis": 10679,
    "THING": 39356,
    "kok": 32004,
    "planes": 22587,
    "\u0120<=": 19841,
    "\u0120Brand": 13512,
    "\u0120rate": 2494,
    "________________": 4841,
    "\u0120ceramic": 37973,
    "jpg": 9479,
    "away": 8272,
    "\u0120dystopian": 49483,
    "Eat": 47659,
    "latest": 42861,
    "\u0120taxed": 31075,
    "Pos": 21604,
    "\u0120Notes": 11822,
    "\u0120Eisen": 22633,
    "\u0120strat": 25369,
    "\u00be": 122,
    "\u0120duty": 7077,
    "\u0120passionate": 15347,
    "\u0120Chosen": 39884,
    "bush": 50231,
    "\u0120increment": 18703,
    "bare": 49382,
    "he": 258,
    "\u0120diminished": 23476,
    "\u0120Theo": 43999,
    "\u0120defenseman": 32246,
    "\u0120attm": 36926,
    "riber": 24735,
    "\u0120436": 50038,
    "\u0120Mutual": 48807,
    "Playing": 36530,
    "++++": 14030,
    "fb": 21855,
    "\u0120House": 2097,
    "\u0120Cardinals": 18071,
    "\u0120untrue": 35212,
    "ierra": 16367,
    "lier": 2505,
    "\u0120Ideas": 35365,
    "\u0120issues": 2428,
    "\u0120Athens": 21891,
    "\u0120scandals": 28449,
    "\u0120Ryzen": 45042,
    "prep": 46012,
    "\u0120Details": 14890,
    "\u0120soaked": 33657,
    "\u0120Retro": 29884,
    "\u0120wielding": 33949,
    "\u0120provincial": 15818,
    "Ang": 13450,
    "\u0120IMAGES": 45325,
    "ittered": 36613,
    "\u0120Orc": 19083,
    "Children": 26829,
    "\u0120Indy": 26023,
    "\u0120portions": 16690,
    "\u0120scrib": 44661,
    "\u0120nurt": 23868,
    "\u0120beach": 10481,
    "now": 2197,
    "Champ": 48507,
    "Film": 39750,
    "\u012065": 6135,
    "Article": 14906,
    "\u0120978": 41417,
    "\u0120PL": 9297,
    "\u0120adren": 26999,
    "ira": 8704,
    "inflamm": 29639,
    "\u0120Gamma": 43595,
    "Nit": 33772,
    "TN": 46559,
    "\u0120ph": 872,
    "\u01201907": 41435,
    "\u00e0\u00a9": 43297,
    "Sand": 18471,
    "\u0120storyline": 22992,
    "\u0120Destiny": 17886,
    "blow": 48619,
    "\u0120Blog": 14001,
    "\u0120trove": 42377,
    "\u0120Definition": 30396,
    "\u0120Wen": 31164,
    "\u0120sens": 3054,
    "\u0120ozone": 37170,
    "outh": 1536,
    "\u0120demolished": 33359,
    "\u0120mend": 47618,
    "nai": 38600,
    "Lv": 29507,
    "uzz": 4715,
    "\u0120bronze": 22101,
    "\u0120doors": 8215,
    "ioch": 41097,
    "\u0120liabilities": 25333,
    "\u0120violently": 25856,
    "\u0120HUD": 30219,
    "\u0120somehow": 7599,
    "\u0120CLIENT": 45148,
    "Documents": 38354,
    "\u0120percent": 1411,
    "\u0120Calcul": 27131,
    "itzerland": 13947,
    "idine": 39422,
    "\u0120NES": 31925,
    "Except": 30313,
    "Jud": 26141,
    "\u0120Super": 3115,
    "unts": 34115,
    "\u0120produce": 4439,
    "\u0120transf": 13501,
    "vable": 23765,
    "\u0120loyalty": 15843,
    "uj": 23577,
    "Streamer": 28696,
    "\u0120click": 3904,
    "\u0120Zeit": 47447,
    "tha": 12898,
    "ingu": 6680,
    "\u0120pedest": 14238,
    "\u0120combustion": 33607,
    "stroke": 30757,
    "\u0120mutual": 13584,
    "\u0120survived": 11803,
    "\u01201921": 35369,
    "\u0120ingredient": 18734,
    "\u0120KS": 34172,
    "\u0120dots": 22969,
    "\u0120grip": 11762,
    "Nich": 46489,
    "Graphics": 18172,
    "\u0120views": 5009,
    "andon": 5063,
    "\u0120Song": 10940,
    "\u0120sealed": 15283,
    "\u0120fre": 2030,
    "\u0120Unle": 36471,
    "\u0120substitution": 32097,
    "\u0120rents": 28393,
    "\u0120pros": 10360,
    "\u0120oily": 44560,
    "781": 49703,
    "\u00d1\u012e": 45367,
    "\u0120suprem": 14889,
    "\u0120insightful": 41696,
    "Up": 4933,
    "\u0120blueprint": 30881,
    "thread": 16663,
    "\u0120Stories": 18152,
    "\u0120barrels": 17907,
    "206": 22136,
    "\u0120Tags": 44789,
    "1800": 39188,
    "WE": 8845,
    "\u0120SP": 6226,
    "\u0120Mell": 32993,
    "\u0120Behavioral": 38483,
    "046": 45438,
    "INC": 30158,
    "\u0120Hotel": 12696,
    "lated": 17249,
    "\u0120pack": 2353,
    "\u0120subsid": 7905,
    "\u0120Dixon": 31178,
    "\u0120PubMed": 32131,
    "ouri": 10300,
    "audi": 31330,
    "Training": 44357,
    "escription": 7260,
    "Target": 21745,
    "\u0120contention": 22627,
    "590": 36993,
    "514": 47396,
    "\u0120Laun": 19826,
    "alk": 971,
    "\u0120useless": 13894,
    "\u0120Named": 34441,
    "\u0120huge": 3236,
    "\u01208000": 38055,
    "\u0120Sheldon": 34536,
    "\u0120parish": 28830,
    "\u0120propose": 18077,
    "\u0120\u00d8": 17550,
    "\u0120sar": 29008,
    "inqu": 18934,
    "\u0120Philippines": 13316,
    "\u0120portals": 42604,
    "ieri": 29864,
    "\u0120Session": 23575,
    "\u0120contributions": 9284,
    "Motion": 45740,
    "\u0120freshwater": 40941,
    "\u0120mud": 17492,
    "UI": 10080,
    "\u0120had": 550,
    "uttered": 46322,
    "\u0120Lith": 19730,
    "isi": 23267,
    "Ruby": 32101,
    "\u0120Quick": 12029,
    "resent": 2028,
    "\u0120manage": 6687,
    "bs": 1443,
    "\u0120Dynamo": 41542,
    "\u0120Harris": 10026,
    "blue": 17585,
    "\u0120filtered": 29083,
    "beta": 31361,
    "252": 22800,
    "\u0120recipes": 14296,
    "\u0120chained": 40682,
    "ombs": 33273,
    "\u00d7": 147,
    "Eastern": 46109,
    "\u0120Sop": 35643,
    "\u0120Loop": 26304,
    "\u0120striving": 34260,
    "\u0120Blizz": 46100,
    "\u0120aligned": 19874,
    "Medic": 39112,
    "worthy": 18275,
    "\u0120Field": 7663,
    "\u0120cyl": 17327,
    "\u0120politics": 4819,
    "\u0120MEN": 41597,
    "\u0120garner": 34679,
    "\u0120failed": 4054,
    "\u0120Celestial": 37231,
    "\u0120Dem": 1897,
    "\u0120representative": 8852,
    "\u0120Gaming": 14426,
    "Photo": 6191,
    "\u0120Reynolds": 21995,
    "\u0120leaks": 17316,
    "Gaming": 45509,
    "\u0120Piano": 46605,
    "\u0120Ukrainian": 13053,
    "\u0120Atomic": 28976,
    "\u0120Every": 3887,
    "\u0120GPIO": 50143,
    "\u0120Ministers": 36647,
    "\u0120fert": 11093,
    "fare": 9496,
    "\u0120herbs": 25411,
    "conn": 37043,
    "\u0120Lag": 21003,
    "ispers": 27148,
    "\u0120Sec": 1882,
    "ately": 1286,
    "\u0120Tradable": 11974,
    "accompan": 41974,
    "\u0120Samsung": 10397,
    "\u0120proper": 1774,
    "awar": 48841,
    "\u0120Climate": 13963,
    "\u0120negligence": 28612,
    "Percent": 31905,
    "\u0120animate": 43828,
    "gest": 3495,
    "pered": 13653,
    "\u0120Wait": 16314,
    "433": 42117,
    "\u0120Continue": 10054,
    "\u0120fluoride": 40311,
    "\u0120tampering": 42471,
    "\u0120Sha": 19413,
    "joice": 41026,
    "\u0120HOW": 29630,
    "\u0120Farms": 39045,
    "\u0120partName": 37842,
    "\u0120})": 32092,
    "\u0120Transgender": 44002,
    "ms": 907,
    "\u0120157": 23313,
    "\u0120Renew": 29479,
    "\u0120hospital": 4436,
    "\u0120mailed": 37789,
    "\u0120sacred": 13626,
    "\u0120fake": 8390,
    "CHAT": 31542,
    "\u0120toggle": 19846,
    "\u0120Cann": 12283,
    "\u0120seamlessly": 33681,
    "\u0120render": 8543,
    "Iss": 27738,
    "South": 14942,
    "\u0120procurement": 31156,
    "uggish": 36295,
    "oreal": 39396,
    "\u0120ONE": 16329,
    "\u0120communicate": 10996,
    "\u0120toys": 14958,
    "\u0120stimulates": 49881,
    "sp": 2777,
    "\u0120directive": 22644,
    "\u0120fluent": 43472,
    "\u0120tert": 48358,
    ".'": 2637,
    "\u0120veins": 32375,
    "\u0120deficiency": 23580,
    "\u0120sudden": 4802,
    "ersive": 24469,
    "NEWS": 49597,
    "259": 25191,
    "730": 43916,
    "\u0120measuring": 15964,
    "-,": 20995,
    "\u0120flesh": 11222,
    "\u0120Director": 5890,
    "\u0120volcan": 17516,
    "\u0120parentheses": 46672,
    "ul": 377,
    "\u0120debilitating": 41378,
    "\u0120psychiatric": 19906,
    "\u0120wording": 26814,
    "\u0120Beaver": 42746,
    "\u0120Turtles": 44356,
    "\u0120Accuracy": 33222,
    "Night": 24732,
    "\u0120overw": 6993,
    "\u0120Thompson": 11654,
    "\u0120Reload": 37653,
    "WS": 19416,
    "APS": 44580,
    "rotein": 35574,
    "106": 15801,
    "\u0120Estimates": 47052,
    "\u0120bay": 15489,
    "\u0120membrane": 25019,
    "\u0120cherry": 23612,
    "\u0120Data": 6060,
    "\u0120Nichols": 38403,
    "\u0120Suddenly": 24975,
    "ftime": 31387,
    "\u0120April": 3035,
    "\u0120ski": 19984,
    "\u0120Manuel": 25995,
    "\u0120Wireless": 24365,
    "hyde": 39175,
    "\u0120NA": 11746,
    "\u0120Thousands": 30405,
    "Eh": 43894,
    "\u0120aroused": 38832,
    "\u0120Chaser": 39275,
    "\u0120plan": 1410,
    "\u0120gunshots": 46828,
    "API": 17614,
    "\u0120Dodgers": 23576,
    "rict": 2012,
    "With": 3152,
    "NULL": 33991,
    "\u0120editor": 5464,
    "\u0120presenting": 17728,
    "\u0120effective": 4050,
    "\u0120spread": 4104,
    "PRO": 31190,
    "suit": 6063,
    "\u0120Mostly": 33495,
    "rity": 10138,
    "\u0120Touch": 15957,
    "rils": 41408,
    "reens": 5681,
    "\u0120clothing": 9528,
    "\u0120youth": 6205,
    "\u0120sacrificing": 32698,
    "\u0120Cognitive": 38655,
    "\u0120116": 18693,
    "\u0120Large": 13601,
    "\u0120wary": 23300,
    "\u0120Heller": 41252,
    "\u0120SPI": 49091,
    "doi": 34023,
    "\u0120camoufl": 31962,
    "Ga": 35389,
    "\u0120Alexis": 31078,
    "\u0120gau": 14885,
    "shaped": 16760,
    "(-": 32590,
    "\u0120deserts": 45288,
    "\u0120doorway": 32439,
    "\u0120Gupta": 42095,
    "\u0120creek": 39459,
    "\u0120elapsed": 42118,
    "\u0120Ruk": 49037,
    "ython": 7535,
    "atures": 6691,
    "\u0120coarse": 36076,
    "\u0120enlarged": 37287,
    "\u0120counterfeit": 36497,
    "Jar": 47511,
    "\u0120boarding": 25523,
    "\u0120:)": 14373,
    "\u00bb": 119,
    "hene": 29473,
    "olved": 5634,
    "\u0120mund": 27943,
    "\u0120Taxes": 42260,
    "\u0120Muslims": 7045,
    "\u0120halt": 17369,
    "\u0120Conv": 34872,
    "aques": 46806,
    "\u0120169": 27191,
    "roller": 10646,
    "Ra": 21762,
    "\u0120Children": 8990,
    "\u0120unfortunate": 14855,
    "\u0120chimpanzees": 47724,
    "\u00e3\u0125\u0122": 27852,
    "\u0120considerably": 15394,
    "\u0120touch": 3638,
    "\u0120highlighting": 21292,
    "inness": 32990,
    "\u0120tit": 5259,
    "isu": 46313,
    "\u0120immediately": 3393,
    "\u0120ESC": 40251,
    "di": 10989,
    "inosaur": 21317,
    "\u0120Derek": 20893,
    "\u0120budding": 44194,
    "\u0120exhausted": 19064,
    "\u0120additives": 48348,
    "\u0120Nanto": 47614,
    "rett": 11489,
    "\u0120regulator": 24161,
    "\u0120leptin": 49337,
    "vo": 13038,
    "\u0120Online": 7467,
    "illian": 37896,
    "\u0120Result": 25414,
    "\u0120McGee": 45476,
    "\u0120Terror": 14915,
    "\u0120complications": 19481,
    "artist": 49016,
    "\u0120depot": 43369,
    "\u0120accommodating": 49389,
    "\u0120Dinosaur": 47808,
    "\u00e7\u013d": 33566,
    "\u0120programmes": 23698,
    "\u0120Bere": 37951,
    "owell": 32829,
    "\u0120le": 443,
    "\u0120Romans": 22482,
    "informed": 35698,
    "440": 25644,
    "\u0120irrational": 25086,
    "\u0120lux": 10632,
    "\u0120Stamford": 47604,
    "ceans": 19961,
    "emis": 30561,
    "\u0120Habit": 41950,
    "L": 43,
    "\u0120fortress": 28757,
    "\u0120Actress": 47144,
    "\u0120KH": 40249,
    "vertis": 3346,
    "render": 13287,
    "\u0120deleting": 34817,
    "\u0120Gabe": 45513,
    "\u0120callback": 23838,
    "\u0120Lady": 11182,
    "\u0120pledged": 16387,
    "Aug": 12512,
    "bp": 46583,
    "\u0120mold": 15936,
    "ANG": 15567,
    "\u0120peac": 41961,
    "95": 3865,
    "\u0120Katherine": 32719,
    "\u0120Anger": 46061,
    "\u0120brim": 49943,
    "much": 29482,
    "\u0120mentions": 15802,
    "\u0120Leaf": 14697,
    "OUS": 20958,
    "struction": 15019,
    "\u0120Little": 7703,
    "\u0120from": 422,
    "\u0120stri": 2338,
    "\u0120measure": 3953,
    "\u0120chronic": 10726,
    "\u0120regulations": 6647,
    "Israeli": 29818,
    "\u0120anyone": 2687,
    "\u0120Stard": 40042,
    "\u0120modeled": 29563,
    "\u0120downstairs": 34624,
    "\u0120auditor": 30625,
    "\u0120ven": 8710,
    "\u0120Crimea": 21590,
    "\u0120vacancies": 48639,
    "\u0120soluble": 49467,
    "\u0120Ars": 24230,
    "536": 44468,
    "ivia": 20817,
    "ese": 2771,
    "\u0120Lar": 25577,
    "\u012056": 7265,
    "Pg": 31743,
    "\u0120hospitalized": 31736,
    "endo": 31110,
    "\u0120dive": 15647,
    "Jack": 14295,
    "\u0120cance": 10450,
    "\u0120estates": 42252,
    "\u0120shampoo": 47259,
    "Sam": 16305,
    "\u0120portraits": 31725,
    "Closure": 45398,
    "\u0120Doing": 25327,
    "\u0120ver": 3326,
    "\u0120noteworthy": 30902,
    "\u0120Fleming": 42439,
    "\u0120Merry": 39001,
    "Franc": 42885,
    "\u0120disorder": 8967,
    "\u00e5\u00a3": 18004,
    "agus": 31111,
    "\u0120Lyon": 35193,
    "astical": 32044,
    "\u0120Split": 27758,
    "\u0120Letter": 18121,
    "aj": 1228,
    "\u0120or": 393,
    "\u0120refriger": 19866,
    "\u0120accompany": 13873,
    "\u0120accounted": 17830,
    "\u0120134": 22352,
    "\u0120Earthqu": 33842,
    "\u0120Desk": 39246,
    "99": 2079,
    "\u0120Foot": 7870,
    "\u0120Predator": 38871,
    "\u0120instinctively": 43045,
    "\u0120ransom": 26424,
    "\u0120circum": 4456,
    "developed": 33082,
    "bo": 2127,
    "\u0120neocons": 43530,
    "\u0120Suff": 24974,
    "\u0120confirmation": 12641,
    "\u0120Punch": 24265,
    "\u0120Ah": 7900,
    "\u0120Legendary": 22067,
    "\u0120mixer": 33938,
    "\u0120born": 4642,
    "\u0120What": 1867,
    "\u0120Shots": 42162,
    "\u0120adapter": 21302,
    "\u0120Blast": 20641,
    "\u0120endlessly": 33903,
    "\u0120destroyer": 41056,
    "ackers": 28874,
    "\u0120.": 764,
    "\u0120regimen": 37086,
    "166": 23055,
    "iko": 12125,
    "Wing": 35612,
    "ouple": 43846,
    "\u0120DES": 22196,
    "\u0120Payton": 49338,
    "\u0120fulfilled": 23085,
    "\u0120robotics": 36359,
    "HOW": 37181,
    "\u0120firsthand": 37318,
    "\u0120Lonely": 46501,
    "\u0120Stack": 23881,
    "\u0120pub": 2240,
    "\u0120Suppose": 39200,
    "\u0120Lets": 38257,
    "\u0120Cycle": 26993,
    "\u0120Combat": 14487,
    "living": 19950,
    "\u0120unsolved": 48180,
    "\u0120Tooth": 46380,
    "\u0120Sv": 44343,
    "\u0120recl": 41893,
    "\u0120outfits": 27655,
    "ware": 1574,
    "\u0120chickens": 25972,
    "Author": 13838,
    "edient": 35279,
    "\u0120identical": 10411,
    "ech": 3055,
    "\u0120regimes": 25879,
    "\u0120termin": 5651,
    "ues": 947,
    "\u0120arbitrary": 14977,
    "\u0120calculate": 15284,
    "\u0120edited": 13012,
    "kes": 5209,
    "isting": 9665,
    "\u0120Asset": 31433,
    "\u0120Teg": 49895,
    "enson": 19069,
    "ah": 993,
    "\u0120toile": 13392,
    "\u0120bias": 10690,
    "izers": 11341,
    "\u0120knew": 2993,
    "chio": 40900,
    "\u0120Celtics": 24116,
    "\u0120stats": 9756,
    "opoly": 35894,
    "\u0120determines": 15947,
    "\u00c3\u0143s": 41200,
    "\u0120GT": 7963,
    "\u0120Barnett": 38174,
    "\u0120LIFE": 36821,
    "bos": 39565,
    "\u0120zeal": 27689,
    "\u0120wider": 10595,
    "\u0120slab": 38677,
    "\u0120Bach": 25332,
    "\u0120Push": 23691,
    "809": 34583,
    "\u0120pir": 12276,
    "\u0120Institution": 29426,
    "\u0120accuser": 43738,
    "\u0120Crimes": 32655,
    "\u0120resulted": 8724,
    "\u0120completely": 3190,
    "\u0120blocking": 12013,
    "He": 1544,
    "\u0120ENG": 36924,
    "1974": 40828,
    "\u0120ris": 6106,
    "displayText": 31536,
    "ces": 728,
    "rike": 8760,
    "\u0120hereby": 29376,
    "ublished": 33286,
    "\u0120gradient": 31312,
    "\u0120burns": 20246,
    "\u0120White": 2635,
    "\u0120screening": 14135,
    "song": 34050,
    "\u0120spur": 26724,
    "\u0120Roundup": 49310,
    "iances": 16097,
    "\u0120ethn": 33961,
    "\u0120underestimated": 36190,
    "\u0120poorer": 26647,
    "uddenly": 18865,
    "\u0120Article": 10172,
    "\u0120LB": 22199,
    "\u0120Aboriginal": 26432,
    "\u0120Bom": 20403,
    "\u0120sleeper": 46594,
    "\u0120annihil": 36572,
    "\u0120totalitarian": 34524,
    "\u0120Jan": 2365,
    "\u0120wealth": 5129,
    "\u0120samples": 8405,
    "foreseen": 44952,
    "FH": 44602,
    "\u0120independ": 3485,
    "\u0120evaluated": 16726,
    "\u0120Natalie": 35571,
    "\u0120VMware": 37754,
    "\u0120Suzuki": 35807,
    "\u0120brilliantly": 37928,
    "\u0120maternity": 38057,
    "\u0120enhancing": 27496,
    "\u0120boil": 20667,
    "\u0120expended": 37328,
    "1978": 37950,
    "\u0120Messenger": 24306,
    "icum": 39901,
    "Cost": 13729,
    "oen": 6571,
    "\u0120Mathemat": 30535,
    "atmeal": 45280,
    "153": 21395,
    "OL": 3535,
    "\u0120double": 4274,
    "\u0120lov": 42900,
    "Stack": 25896,
    "\u0120JD": 28591,
    "pieces": 34154,
    "\u0120NETWORK": 49791,
    "\u0120amygdala": 44562,
    "\u0120plotted": 37515,
    "\u0120Brave": 22813,
    "Hy": 21217,
    "shirts": 23231,
    "\u0120Support": 7929,
    "\u0120break": 2270,
    "\u0120accumulate": 29915,
    "ilver": 46978,
    "\u0120Charisma": 44859,
    "\u0120Vera": 44413,
    "\u0120Mario": 10682,
    "\u0120statist": 10118,
    "\u0120Revenge": 24366,
    "rang": 36985,
    "\u0120cran": 41286,
    "\u0120conglomer": 38092,
    "\u0120G\u00c3\u00b6": 50182,
    "\u0120Tact": 15324,
    "etr": 21879,
    "\u0120LEDs": 33697,
    "\u0120Bald": 17048,
    "youtube": 11604,
    "\u0120preaching": 32037,
    "\u0120Hegel": 38106,
    "\u0120Milwaukee": 16629,
    "\u0120Manz": 37734,
    "\u0120policymakers": 29484,
    "buquerque": 36461,
    "\u0120Aurora": 22218,
    "\u0120trails": 19196,
    "ener": 877,
    "\u0120three": 1115,
    "\u0120fallout": 27707,
    "Thu": 39902,
    "\u0120achievement": 13293,
    "\u0120shrimp": 30060,
    "\u0120scrimmage": 39325,
    "lections": 26448,
    "\u0120Zeus": 20620,
    "\u0120Phillip": 29470,
    "\u0120alarmed": 32064,
    "\u0120coaching": 13101,
    "Item": 7449,
    "\u0120enough": 1576,
    "Parameter": 36301,
    "\u01202025": 32190,
    "\u0120neighbouring": 29272,
    "\u0120Pine": 23076,
    "\u0120enrichment": 36513,
    "\u0120Erin": 28894,
    "Environment": 31441,
    "Clearly": 30638,
    "\u0120Simon": 11288,
    "agers": 10321,
    "ops": 2840,
    "\u0120\u00cf\u0126": 46651,
    "\u00e2\u0122\u00a6": 1399,
    "\u0120Ol": 6544,
    "Original": 20556,
    "\u0120Continuous": 45012,
    "\u0120clich\u00c3\u00a9": 43973,
    "\u0120Ventures": 41673,
    "\u0120harvest": 13222,
    "Average": 26287,
    "\u0120Dominion": 28098,
    "\u0120Lod": 45238,
    "\u0120BW": 37869,
    "Cr": 13916,
    "Hall": 34194,
    "\u0120Moroc": 23711,
    "\u0120consecut": 12358,
    "\u0120Tiny": 20443,
    "express": 42712,
    "\u0120profound": 11982,
    "\u0120DN": 45080,
    "\u0120timed": 28805,
    "\u0120disorders": 11916,
    "\u0120val": 1188,
    "\u0120Crunch": 38531,
    "innon": 45067,
    "\u0120frequency": 8373,
    "\u0120Qu\u00c3\u00a9": 46345,
    "\u0120eggs": 9653,
    "uffle": 18137,
    "\u0120speaker": 10834,
    "sort": 30619,
    "\u0120BTC": 14503,
    "\u0120loaf": 40134,
    "\u0120433": 47407,
    "\u0120jet": 12644,
    "\u0120liter": 4187,
    "\u0120harsh": 11859,
    "\u0120Persia": 46452,
    "Dialogue": 41099,
    "football": 15914,
    "\u0120Normandy": 43231,
    "\u0120obe": 45653,
    "\u0120Ivory": 37499,
    "Ale": 37474,
    "\u0120Tinder": 44043,
    "\u0120Hok": 26467,
    "330": 26073,
    "note": 11295,
    "\u0120Marc": 13067,
    "\u0120eventually": 4191,
    "\u0120Lumin": 43496,
    "\u0120\"\"\"": 37227,
    "\u0120lambda": 37456,
    "\u0120beds": 20237,
    "\u0120betrayed": 26281,
    "\u0120landfall": 43682,
    "\u0120Ash": 7844,
    "\u0120Above": 23302,
    "Crystal": 43752,
    "its": 896,
    "\u0120Harvest": 26149,
    "\u0120proc": 13834,
    "odder": 35346,
    "Isa": 39443,
    "LIN": 34509,
    "\u0120regard": 2754,
    "\u0120Oriental": 39713,
    "Online": 14439,
    "Sl": 11122,
    "\u0120whereby": 23482,
    "\u0120Emb": 13302,
    "Sche": 27054,
    "\u0120coli": 40395,
    "\u0120revenge": 15827,
    "Such": 16678,
    "UU": 30100,
    "iche": 14234,
    "uffer": 13712,
    "\u0120Jiang": 32294,
    "\u0120Ukrainians": 49114,
    "\u0120inept": 43891,
    "arij": 39010,
    "\u0120prohibits": 24059,
    "\u0120Implement": 48282,
    "\u0120refuse": 11148,
    "\u0120urgent": 18039,
    "\u00b5": 113,
    "len": 11925,
    "\u0120neglect": 17985,
    "\u0120Baghdad": 19761,
    "bage": 13866,
    "Je": 40932,
    "\u0120scaven": 35998,
    "\u0120Din": 23448,
    "\u0120doing": 1804,
    "emort": 24466,
    "\u0120fantastic": 9623,
    "\u0120maturity": 24841,
    "\u0120EW": 43255,
    "\u0120Rot": 18481,
    "\u0120Reuters": 8428,
    "\u0120BIG": 26746,
    "\u0120approves": 43770,
    "\u0120CBC": 20244,
    "uddin": 44008,
    "\u0120Surv": 10954,
    "\u0120jointly": 26913,
    "\u0120FAC": 44216,
    "\u0120pools": 20354,
    "\u0120casino": 21507,
    "\u0120prosec": 19306,
    "\u0120confess": 22127,
    "\u0120caricature": 47346,
    "\u0120featured": 8096,
    "\u0120Rye": 45014,
    "\u0120sd": 45647,
    "\u0120classic": 6833,
    "\u0120constructed": 12006,
    "\u0120discretion": 14130,
    "hov": 28026,
    "kay": 5568,
    "\u0120af": 6580,
    "fters": 47131,
    "\u0120shorts": 22078,
    "\u0120arsenal": 24375,
    "Ap": 25189,
    "\u0120trivia": 44782,
    "\u0120Boxing": 35921,
    "\u0120WiFi": 24904,
    "\u01202020": 12131,
    "\u0120BG": 34839,
    "discrimination": 42723,
    "\u0120occupation": 13755,
    "\u0120narration": 45127,
    "\u0120Birch": 47631,
    "Typically": 49321,
    "\u0120Thieves": 40392,
    "\u0120chemistry": 16585,
    "\u0120Cups": 41611,
    "\u0120initialization": 37588,
    "\u0120registering": 28336,
    "\u0120Penny": 25965,
    "ammad": 26035,
    "KK": 16601,
    "\u0120favourites": 39489,
    "\u0120Bra": 9718,
    "\u0120facebook": 23960,
    "\u0120clown": 25573,
    "\u0120verified": 19000,
    "\u0120Tes": 10696,
    "George": 20191,
    "coll": 26000,
    "\u0120Barker": 36933,
    "\u0120lands": 8604,
    "Cele": 42741,
    "\u0120Gallagher": 38580,
    "\u0120kitchens": 48184,
    "\u0120Sever": 26434,
    "\u0120Adams": 12620,
    "364": 26780,
    "\u0120bits": 10340,
    "\u0120sands": 30959,
    "Laun": 46182,
    "\u0120Gem": 15669,
    "\u0120initialize": 41216,
    "\u0120Celebration": 44911,
    "\u0120Vec": 38692,
    "\u0120Hutchinson": 43792,
    "anyon": 21330,
    "\u0120chassis": 24587,
    "\u0120hust": 33376,
    "\u0120increments": 41867,
    "\u0120singled": 31958,
    "\u0120orchestr": 28127,
    "\u0120digs": 46561,
    "bidden": 37978,
    "density": 43337,
    "Driver": 32103,
    "\u0120audio": 6597,
    "Legal": 38263,
    "\u0120Albert": 9966,
    "stasy": 31695,
    "\u0120Layer": 34398,
    "\u0120Pulitzer": 44127,
    "\u0120demonstrations": 18721,
    "ults": 8376,
    "Cent": 19085,
    "\u0120Initial": 20768,
    "\u0120feat": 2218,
    "\u0120fielded": 49407,
    "yellow": 36022,
    "\u0120logistical": 41088,
    "\u0120halluc": 23251,
    "\u0120smiles": 21845,
    "\u0120thor": 41899,
    "\u0120Sign": 5865,
    "\u0120hoax": 25943,
    "\u0120Probably": 18578,
    "\u0120radiator": 50036,
    "Dialog": 44204,
    "istence": 13274,
    "installed": 37050,
    "Jeremy": 35623,
    "\u0120producing": 9194,
    "Recipe": 37523,
    "\u0120vig": 10539,
    "aution": 32917,
    "\u0120afforded": 28109,
    "\u0120pulp": 38341,
    "fit": 11147,
    "\u0120elegance": 49198,
    "\u0120feature": 3895,
    "\u0120Victoria": 12313,
    "compliance": 47587,
    "\u0120illustrated": 18542,
    "465": 42018,
    "shape": 43358,
    "og": 519,
    "Failure": 50015,
    "\u0120Kaz": 16385,
    "\u0120Deposit": 44158,
    "icho": 38720,
    "itis": 11815,
    "itating": 21712,
    "\u0120950": 38384,
    "'ll": 1183,
    "\u0120Adobe": 21771,
    "iously": 6819,
    "\u0120already": 1541,
    "\u0120conspicuous": 39089,
    "\u0120praying": 26002,
    "\u0120Collect": 9745,
    "\u0120munitions": 39586,
    "\u0120presum": 9227,
    "149": 19442,
    "\u0120authorize": 29145,
    "\u0120trench": 35091,
    "\u0120Expedition": 38076,
    "\u0120Node": 19081,
    "\u0120restore": 11169,
    "\u0120Reading": 11725,
    "\u0120starch": 39515,
    "1027": 40403,
    "\u0120planet": 5440,
    "2005": 14315,
    "\u0120Wallet": 37249,
    "\u0120tavern": 42488,
    "illac": 40607,
    "\u0120bad": 2089,
    "\u0120comeback": 21933,
    "igor": 36274,
    "gpu": 46999,
    "\u0120civilians": 10380,
    "atsu": 19231,
    "\u0120Pizza": 20952,
    "wen": 21006,
    "\u012078": 8699,
    "\u0120Definitions": 45205,
    "\u0120grass": 8701,
    "role": 18090,
    "\u0120artific": 29829,
    "\u0120Drama": 30647,
    "awed": 36825,
    "tailed": 34966,
    "VEN": 28290,
    "\u0120Harrington": 48334,
    "\u0120CDC": 20434,
    "\u0120across": 1973,
    "\u0120odd": 5629,
    "\u0120boulder": 46483,
    "\u0120AFB": 43827,
    "gravity": 46453,
    "\u0120cigars": 33204,
    "\u0120favorable": 17070,
    "\u0120Agg": 19015,
    "Car": 9914,
    "\u0120bour": 38043,
    "oire": 32177,
    "\u0120fundraising": 18066,
    "\u0120underscore": 44810,
    "Words": 37117,
    "685": 35978,
    "\u0120defied": 47437,
    "\u0120sausage": 31889,
    "\u0120reflex": 24133,
    "\u0120238": 32544,
    "\u0120Brow": 19600,
    "\u0120Cutting": 40152,
    "\u0120Alfred": 22044,
    "\u0120behind": 2157,
    "iat": 5375,
    "\u0120emoji": 44805,
    "lishing": 20020,
    "\u0120McN": 22586,
    "\u0120sanctions": 9388,
    "bid": 14065,
    "\u00c3\u0125": 5746,
    "\u0120Sox": 17689,
    "\u0120MET": 31243,
    "uits": 15379,
    "Blog": 42383,
    "\u00d9\u0132": 44208,
    "described": 34869,
    "asel": 48038,
    "minist": 2201,
    "\u0120Robots": 39096,
    "\u0120Kas": 15035,
    "ORTS": 33002,
    "\u0120plank": 39599,
    "\u0120beginnings": 33875,
    "ider": 1304,
    "\u0120Skill": 16023,
    "\u0120hes": 10818,
    "\u0120satisfied": 11378,
    "\u0120293": 37224,
    "\u0120MAR": 18805,
    "vertisement": 4060,
    "AA": 3838,
    "\u0120workload": 26211,
    "staff": 28120,
    "\u0120fear": 3252,
    "\u0120repealing": 42753,
    "\u0120Sgt": 22925,
    "\u0120Roland": 29761,
    "fat": 17359,
    "\u0120Hug": 12905,
    "\u0120audit": 14984,
    "\u0120Keep": 9175,
    "\u0120=>": 5218,
    "\u0120Greatest": 33575,
    "\u0120prestigious": 23566,
    "kin": 5116,
    "study": 44517,
    "\u0120custom": 2183,
    "\u0120Surrey": 38805,
    "rew": 1809,
    "idespread": 9790,
    "\u0120Anth": 8451,
    "rehens": 7345,
    "MA": 5673,
    "\u0120disgruntled": 48967,
    "\u0120exiled": 38702,
    "ole": 2305,
    "\u0120culturally": 30573,
    "hedon": 46086,
    "\u0120php": 39347,
    ".\"[": 18161,
    "262": 29119,
    "\u0120God": 1793,
    "\u0120backing": 12285,
    "733": 49995,
    "Advanced": 28809,
    "\u0120Clim": 28573,
    "\u0120util": 7736,
    "lected": 12609,
    "\u0120Cit": 15792,
    "\u0120traverse": 38138,
    "agin": 23183,
    "\u0120interacting": 24986,
    "\u0120thread": 4704,
    "52": 4309,
    "\u0120unseen": 29587,
    "donald": 40915,
    "Turn": 17278,
    "\u0120BR": 11177,
    "\u0120nighttime": 45324,
    "\u0120deputy": 10636,
    "\u0120cream": 8566,
    "\u0120inspirational": 40840,
    "ilight": 15512,
    "\u0120wrote": 2630,
    "\u0120marketed": 29450,
    "\u0120embarked": 36385,
    "\u0120empowered": 29669,
    "\u0120migr": 15720,
    "537": 46096,
    "\u0120Brun": 15700,
    "field": 3245,
    "notation": 38983,
    "Tal": 31466,
    "\u0120Alpha": 12995,
    "\u0120Swift": 15608,
    "\u0120reportedly": 7478,
    "\u0120remove": 4781,
    "status": 13376,
    "romancer": 38211,
    "\u0120cent": 1247,
    "\u0120spam": 18084,
    "\u0120ear": 1027,
    "\u0120Typically": 27095,
    "oku": 11601,
    "\u0120coal": 5655,
    "216": 20666,
    "\u0120derailed": 48769,
    "\u0120alloy": 36186,
    "Dial": 24400,
    "acerb": 22428,
    "\u0120beginners": 31729,
    "\u0120asleep": 16039,
    "\u0120BIOS": 27553,
    "call": 13345,
    "Sure": 19457,
    "772": 43571,
    "\u0120eat": 4483,
    "ENCE": 18310,
    "\u0120Meng": 41272,
    "\u0120Parts": 22349,
    "WOOD": 49466,
    "\u0120Benson": 33940,
    "assemb": 34455,
    "nington": 48405,
    "\u0120Success": 16282,
    "\u0120His": 2399,
    "\u0120hunting": 10988,
    "pre": 3866,
    "\u0120prohibiting": 30363,
    "enment": 23242,
    "\u0120Wilhelm": 50031,
    "plates": 17041,
    "\u0120Ku": 12554,
    "\u0120spew": 38645,
    "pract": 29152,
    "}}}": 42535,
    "\u0120PCs": 21869,
    "\u0120harmless": 23585,
    "\u0120holds": 6622,
    "\u0120inspired": 7867,
    "\u00e2\u0126\u00a2:": 41333,
    "\u0120mafia": 44371,
    "\u0120vib": 16081,
    "\u0120Lump": 41499,
    "Here": 4342,
    "Search": 18243,
    "========": 2559,
    "\u0120Morrow": 34693,
    "\u0120exciting": 7895,
    "\u0120311": 35592,
    "raise": 40225,
    "INE": 8881,
    "\u0120capitals": 44590,
    "\u0120Aure": 43737,
    "\u0120Secure": 26707,
    "\u0120Gerald": 27027,
    "War": 13195,
    "\u0120Misty": 47330,
    "WT": 39386,
    "\u0120reaction": 6317,
    "also": 14508,
    "\u0120601": 49231,
    "ioxide": 16671,
    "Santa": 42694,
    "Ocean": 46607,
    "\u0120comparison": 7208,
    "\u0120spinal": 26234,
    "\u0120Vortex": 49790,
    "\u0120defamation": 36662,
    "\u0120platoon": 39368,
    "\u0120Eg": 36386,
    "\u0120imagine": 5967,
    "\u0120bas": 1615,
    "\u0120rental": 14447,
    "Mi": 41541,
    "\u0120Terminator": 41830,
    "\u0120Hirosh": 35763,
    "\u0120olive": 19450,
    "\u0120OUR": 30229,
    "Hom": 28718,
    "\u0120Defensive": 24784,
    "parts": 42632,
    "ravity": 16995,
    "\u0120VERS": 44156,
    "\u0120Om": 16543,
    "lvl": 47147,
    "JSON": 40386,
    "\u0120encount": 12943,
    "\u0120brightness": 22204,
    "\u0120gestures": 24621,
    "\u0120Association": 5396,
    "\u0120knights": 27536,
    "IT": 2043,
    "consumer": 49827,
    "End": 12915,
    "\u0120Rew": 16140,
    "art": 433,
    "\u0120strife": 39809,
    "ipt": 10257,
    "\u0120abroad": 10522,
    "\u0120Kamp": 45327,
    "\u0120denomin": 31457,
    "Canadian": 28203,
    "ideos": 4921,
    "Tes": 36504,
    "\u0120ll": 32660,
    "\u0120bolster": 26091,
    "dt": 28664,
    "n": 77,
    "\u0120297": 41103,
    "\u0120pitch": 7078,
    "roups": 14459,
    "\u0120ko": 41727,
    "\u0120referendum": 11467,
    "\u0120Steele": 28549,
    "\u0120Lyn": 10350,
    "\u0120downwards": 44890,
    "\u0120drove": 10357,
    "\u0120mill": 3939,
    "\u0120289": 38902,
    "\u0120jungle": 20712,
    "\u0120brushed": 31782,
    "quartered": 42508,
    "\u0120unlike": 5023,
    "\u0120lap": 14779,
    "\u0120ability": 2694,
    "\u0120freedoms": 23841,
    "\u0120Ang": 2895,
    "410": 33289,
    "\u00e3\u0122\u0133": 31817,
    "\u0120evolve": 18101,
    "isd": 9409,
    "acts": 8656,
    "\u0120Passion": 37580,
    "\u0120Adamant": 42565,
    "\u0120grav": 9067,
    "\u0120imbalance": 32556,
    "\u0120Development": 7712,
    "\u0120meth": 11248,
    "ally": 453,
    "\u0120ours": 16903,
    "relative": 43762,
    "\u0120yells": 42675,
    "\u0120glaring": 29097,
    "\u0120collabor": 6967,
    "\u0120Yu": 10605,
    "rendered": 26238,
    "\u0120BRA": 39947,
    "Heavy": 33210,
    "\u0120advertising": 8560,
    "\u0120headset": 23492,
    "orf": 24263,
    "\u0120month": 1227,
    "\u0120Votes": 39584,
    "\u0120timeframe": 41352,
    "\u0120facet": 39144,
    "eryl": 44886,
    "nance": 41601,
    "\u0120bounded": 49948,
    "tic": 13370,
    "\u0120retweet": 38814,
    "peer": 33350,
    "\u0120coffin": 30834,
    "protein": 48693,
    "\u0120Lerner": 49750,
    "\u0120BA": 23715,
    "\u0120headaches": 29432,
    "\u0120Wat": 12242,
    "\u0120optimum": 39475,
    "\u0120quiz": 38964,
    "\u0120pitted": 46852,
    "sic": 21383,
    "ustom": 1824,
    "Calif": 19619,
    "\u0120nerves": 25377,
    "wolves": 29664,
    "\u0120Tad": 50077,
    "ieves": 17974,
    "\u0120pilot": 8022,
    "\u0120item": 2378,
    "\u0120wolf": 17481,
    "\u0120song": 3496,
    "eu": 12496,
    "\u0120overload": 31754,
    "iries": 18561,
    "\u0120Bever": 22185,
    "\u0120Richmond": 16940,
    "acers": 49908,
    "\u0120psychiatrists": 49218,
    "\u0120Yar": 45184,
    "\u0120mildly": 33544,
    "Response": 31077,
    "Upgrade": 44948,
    "amental": 6860,
    "eem": 13761,
    "\u0120scept": 30186,
    "joy": 2633,
    "pload": 7304,
    "\u0120hatch": 25834,
    "\u0120blur": 23671,
    "204": 18638,
    "\u0120Comet": 36238,
    "\u0120Jes": 4804,
    "ERA": 46461,
    "\u0120Parliament": 8411,
    "\u0120Millennium": 26139,
    "\u0120Eng": 1985,
    "\u0120aesthetics": 35431,
    "\u0120RS": 19340,
    "REAM": 32235,
    "\u0120chooses": 19769,
    "\u0120comfortable": 6792,
    "\u0120Approximately": 40453,
    "\u0120Jedi": 16147,
    "\u0120group": 1448,
    "ulo": 43348,
    "\u0120borough": 33534,
    "cour": 43220,
    "\u0120Plaza": 23280,
    "ETF": 22274,
    "pen": 3617,
    "urer": 15051,
    "\u0120Aval": 23587,
    "Sad": 26699,
    "ju": 14396,
    "\u0120hostility": 23594,
    "\u0120casc": 49164,
    "\u0120inquire": 38212,
    "iani": 25111,
    "\u0120colorful": 20239,
    "\u0120acquies": 47752,
    "\u0120coward": 26769,
    "TA": 5603,
    "IRT": 48771,
    "\u0120owing": 27120,
    "uin": 48441,
    "\u0120Saddam": 24277,
    "\u0120Lia": 49520,
    "anu": 42357,
    "\u0120Soph": 20367,
    "\u0120Stri": 26137,
    "\u0120side": 1735,
    "\u0120chaired": 44170,
    "\u0120disband": 35758,
    "\u0120methodology": 20411,
    "124": 17464,
    "\u0120Shattered": 48330,
    "eline": 4470,
    "\u0120rocked": 36872,
    "\u0120Stur": 26783,
    "\u0120Career": 32619,
    "\u0120Alan": 12246,
    "Res": 4965,
    "\u0120degradation": 27486,
    "\u0120Jail": 25715,
    "\u0120reminding": 30047,
    "\u0120suspended": 9951,
    "undy": 45459,
    "reve": 36955,
    "\u0120(<": 38155,
    "\u0120cannibal": 39904,
    "\u0120315": 32647,
    "\u0120cached": 39986,
    "\u0120reef": 25088,
    "\u0120Yet": 6430,
    "\u0120chips": 12014,
    "\u0120developers": 6505,
    "ular": 934,
    "\u0120Gateway": 29916,
    "stab": 39029,
    "paces": 43076,
    "\u0120Illegal": 42272,
    "\u0120Diagn": 31549,
    "\u0120devast": 9884,
    "\u0120launches": 18617,
    "\u0120429": 42313,
    "pleasant": 21109,
    "\u0120negoti": 5578,
    "618": 47448,
    "chemy": 26599,
    "\u0120dynasty": 30968,
    "\u0120Madagascar": 46694,
    "\u0120Pay": 7119,
    "\u0120Shu": 32344,
    "bg": 35904,
    "\u0120existence": 6224,
    "Lu": 25596,
    "\u0120sandy": 44039,
    "\u0120corpor": 3990,
    "\u0120second": 1218,
    "\u0120Fault": 40050,
    "Ian": 37776,
    "\u0120renovations": 44481,
    "+)": 28988,
    "\u0120angled": 48719,
    "\u00d0\u00b4": 43666,
    "\u0120downloading": 22023,
    "\u0120microsc": 21145,
    "inces": 17386,
    "\u0120Jake": 14757,
    "Jonathan": 30365,
    "\u0120Daily": 6714,
    "\u0120Rh": 10323,
    "\u0120Should": 10358,
    "onica": 32752,
    "501": 33548,
    "\u0120inherently": 20108,
    "\u0120NPR": 17921,
    "\u0120favorite": 4004,
    "\u0120placing": 12560,
    "\u0120resisted": 26643,
    "Bro": 15783,
    "achel": 9636,
    "\u0120deed": 28637,
    "\u0120fascist": 28342,
    "654": 39111,
    "\u0129": 229,
    "\u0120prevailed": 34429,
    "\u0120\u00e2\u0139": 24966,
    "ipedia": 11151,
    "\u0120translucent": 45323,
    "Show": 15307,
    "\u0120lear": 22454,
    "\u0120javascript": 44575,
    "\u0120film": 2646,
    "abama": 8809,
    "Spec": 22882,
    "\u0120FREE": 17189,
    "\u0120Quincy": 46884,
    "\u0120Anniversary": 21967,
    "ty": 774,
    "\u0120jams": 44147,
    "\u0120thorn": 38999,
    "\u0120ramp": 10454,
    "\u0120managers": 11663,
    "\u0120hubs": 38459,
    "\u0120theoret": 12376,
    "\u0120Verd": 42270,
    "\u0120Kes": 40679,
    "\u0120ISPs": 28677,
    "\u0120summit": 14237,
    "\u0120Equ": 7889,
    "Value": 11395,
    "\u0120qualifications": 24751,
    "\u0120escapes": 32695,
    "Twenty": 34096,
    "\u0120ground": 2323,
    "Dave": 27984,
    "\u0120Ern": 22762,
    "\u0120Mao": 22828,
    "\u0120widgets": 40803,
    "\u0120Sparks": 48117,
    "\u0120supporting": 6493,
    "ags": 3775,
    "\u0120Buy": 11763,
    "\u0120Recently": 23413,
    "\u0120disrupted": 30067,
    "\u0120Stacy": 49523,
    "\u0120faint": 18107,
    "tra": 9535,
    "\u0120cinematic": 29932,
    "\u0120Michelle": 16738,
    "\u0120books": 3835,
    "Mark": 9704,
    "epad": 47852,
    "\u0120pointer": 17562,
    "Top": 9126,
    "ises": 2696,
    "\u0120retirement": 10737,
    "phys": 34411,
    "\u0120myst": 21619,
    "\u0120trainer": 21997,
    "\u0120graveyard": 27672,
    "\u0120theft": 12402,
    "\u0120hot": 3024,
    "ipe": 3757,
    "ourse": 9047,
    "\u0120pill": 9582,
    "\u0120signing": 8415,
    "yan": 4121,
    "irmed": 15491,
    "\u0120city": 1748,
    "\u0120PRESIDENT": 50153,
    "vin": 7114,
    "\u0120typing": 19720,
    "heimer": 16288,
    "\u0120contacting": 27390,
    "\u0120Hungarian": 27304,
    "aily": 3079,
    "REC": 38827,
    "\u0120following": 1708,
    "\u0120willpower": 50094,
    "ople": 643,
    "\u0120\u00c2\u0142": 5624,
    "\u0120Karma": 32648,
    "\u0120Hat": 10983,
    "\u0120aids": 31378,
    "\u0120Mathematics": 39448,
    "\u0120dex": 36017,
    "\u0120Cave": 18603,
    "\u0120perished": 43181,
    "\u0120academics": 22321,
    "\u0120Lawson": 35892,
    "\u0120Advisory": 23943,
    "Swe": 40783,
    "\u0120largely": 5688,
    "\u0120simmer": 32857,
    "\u0120horizontal": 16021,
    "\u0120inqu": 7949,
    "\u0120Ther": 12634,
    "').": 27691,
    "umers": 31260,
    "Frameworks": 42026,
    "\u0120gri": 11120,
    "\u0120strikers": 45892,
    "okia": 22903,
    "\u0120Facility": 29118,
    "co": 1073,
    "\u012020": 1160,
    "dev": 7959,
    "\u0120COUNTY": 41012,
    "\u0120Saul": 31603,
    "Meanwhile": 10294,
    "\u0120divide": 14083,
    "\u0120disciplined": 30654,
    "\u0120laun": 2698,
    "\u0120rever": 33033,
    "bel": 6667,
    "poral": 35738,
    "\u0120specimens": 27569,
    "Kevin": 23865,
    "\u0120Golf": 19709,
    "\u0120inherit": 16955,
    "\u0120ambig": 18203,
    "\u0120Be": 1355,
    "ynthesis": 44411,
    "263": 29558,
    "enture": 36697,
    "\u0120deepening": 46539,
    "\u0120wishing": 24433,
    "\u0120jeopardy": 38606,
    "\u0120allegiance": 25696,
    "Az": 26903,
    "\u0120increased": 3220,
    "\u0120\"{": 45144,
    "\u0120disse": 22806,
    "\u0120reconcile": 33570,
    "upon": 27287,
    "\u0120Deploy": 34706,
    "\u0120Broncos": 16582,
    "Wheel": 45307,
    "\u0120disputes": 18563,
    "Part": 7841,
    "\u0120Associates": 29306,
    "\u0120Phoenix": 9643,
    "'>": 44167,
    "\u0120Unless": 17486,
    "\u0120choice": 3572,
    "\u0120Joseph": 7212,
    "stem": 927,
    "\u0120extrem": 8963,
    "\u0120Prosper": 41342,
    "\u0120fielder": 49743,
    "\u0120Prohibition": 43091,
    "aning": 7574,
    "\u0120THEIR": 47278,
    "anned": 3577,
    "\u0120HPV": 32395,
    "\u0120perish": 42531,
    "chron": 11413,
    "\u0120niche": 21404,
    "\u0120renamed": 25121,
    "\u0120valley": 19272,
    "Scientists": 29193,
    "uku": 33263,
    "weet": 7277,
    "\u0120construct": 5678,
    "\u0120decomp": 38237,
    "Bernie": 33433,
    "\u0120\"...": 27896,
    "itative": 12464,
    "ISS": 16744,
    "Express": 38839,
    "PRE": 46437,
    "\u0120proxy": 15741,
    "ority": 29134,
    "uster": 5819,
    "\u0120Interface": 26491,
    "agles": 37803,
    "\u0120built": 3170,
    "107": 15982,
    "\u0120respecting": 30796,
    "\u0120mmol": 47340,
    "\u00c3\u00b3": 10205,
    "\u012071": 9166,
    "\u0120Cloak": 36558,
    "\u0120Volvo": 46950,
    "\u0120compact": 16001,
    "\u0120Pat": 3208,
    "Joshua": 47740,
    "\u0120deploying": 29682,
    "354": 32182,
    "\u0120att": 708,
    "\u0120suspend": 22004,
    "!,": 28265,
    "\u0120Puzzle": 23966,
    "67": 3134,
    "\u0120futuristic": 36701,
    "vs": 14259,
    "\u0120raspberry": 38973,
    "orc": 24449,
    "\u0120Miller": 7920,
    "President": 10364,
    "\u0120Mongol": 42188,
    "\u0120dismiss": 6735,
    "\u0120193": 29691,
    "\u0120onions": 24681,
    "ru": 622,
    "iov": 16664,
    "\u0120apps": 6725,
    "ia": 544,
    "\u0120cemetery": 27316,
    "\u0120uns": 5576,
    "\u0120medications": 17638,
    "\u0120deform": 47577,
    "\u0120interviewer": 39877,
    "Extra": 27726,
    "\u0120Daesh": 40935,
    "Relations": 47117,
    "ograph": 2384,
    "\u0120Empire": 8065,
    "\u0120sympath": 23860,
    "\u0120loser": 30256,
    "\u0120couch": 18507,
    "ignt": 16891,
    "1600": 36150,
    "\u0120Bened": 25660,
    "\u0120evict": 49397,
    "\u0120Dock": 36444,
    "\u0120trans": 1007,
    "\u0120lum": 46390,
    "\u0120smiling": 16755,
    "\u0120Tab": 16904,
    "\u0120friendships": 34596,
    "\u0120literary": 16716,
    "\u0120Sierra": 17559,
    "\u0120Vote": 19175,
    "avering": 42610,
    "\u0120valves": 41843,
    "gorithm": 42289,
    "\u0120[&": 49082,
    "\u0120Shiny": 39657,
    "agan": 7329,
    "\u0120loneliness": 37378,
    "ference": 4288,
    "\u0120foam": 19828,
    "\u0120culp": 21286,
    "CRIP": 36584,
    "\u0120meticulous": 47628,
    "\u0120evolution": 6954,
    "\u0120corrupted": 26940,
    "\u0120Sharks": 31547,
    "\u0120lent": 26269,
    "\u0120Augustus": 48339,
    "\u0120religion": 5737,
    "\u0120firearms": 12594,
    "\u0120diffuse": 42864,
    "ctr": 24087,
    "remove": 28956,
    "\u0120ramps": 42097,
    "\u0120Fey": 39775,
    "\u0120appraisal": 45436,
    "\u0120decide": 5409,
    "\u0120Manny": 44745,
    "sure": 19532,
    "\u0120JFK": 35216,
    "\u0120445": 48655,
    "\u0120Lauren": 25672,
    "\u0120chops": 44512,
    "\u00cf\u0126": 32830,
    "\u0120tags": 15940,
    "\u0120Warrior": 14019,
    "\u0120candidate": 4540,
    "ARC": 25793,
    "ups": 4739,
    "\u0120Gram": 20159,
    "\u0120Tourism": 42057,
    "\u0120phrase": 9546,
    "\u0120statistically": 19941,
    "\u0120Non": 8504,
    "\u0120HuffPost": 35130,
    "\u0120Sta": 44919,
    "\u0120precon": 49394,
    "\u0120destroying": 13897,
    "\u0120Mo": 4270,
    "ottesville": 23806,
    "\u0120HOME": 41779,
    "\u0120Saint": 9281,
    "\u0120LEGO": 29108,
    "\u0120outfit": 16313,
    "\u0120Galile": 32422,
    "gob": 44270,
    "\u0120Hacker": 34399,
    "\u0120covenant": 28173,
    "ove": 659,
    "\u0120cowboy": 42966,
    "LLOW": 44765,
    "telling": 18072,
    "\u0120Armor": 10313,
    "\u0120interact": 9427,
    "\u0120VO": 30578,
    "\u0120villain": 16687,
    "ulse": 9615,
    "oured": 8167,
    "\u0120REC": 19644,
    "\u0120%": 4064,
    "\u0120bapt": 20452,
    "\u0120sts": 39747,
    "ries": 1678,
    "\u0120Ed": 1717,
    "oland": 23573,
    "NOW": 45669,
    "\u0120weird": 7650,
    "51": 4349,
    "\u0120images": 4263,
    "\u0120handguns": 38060,
    "wan": 8149,
    "\u0120messing": 37241,
    "\u0120vetting": 39822,
    "\u0120foregoing": 41660,
    "\u0120Decl": 16691,
    "tube": 29302,
    "\u0120philosophical": 17580,
    "\u0120328": 39093,
    "\u0120Gym": 31187,
    "\u0120Zack": 30718,
    "\u0120Visa": 27645,
    "\u0120slender": 36808,
    "\u0120al": 435,
    "\u0120metabolism": 20211,
    "\u0120tires": 17920,
    "\u0120parallels": 30614,
    "looking": 11534,
    "\u0120lodge": 35362,
    "\u0120Coy": 26887,
    "\u0120MT": 19308,
    "crop": 31476,
    "cloud": 17721,
    "nex": 12413,
    "\u0120organised": 20325,
    "\u0120Limits": 44943,
    "\u0120diagnoses": 40567,
    "FUL": 46476,
    "Germany": 27079,
    "\u0120Cry": 8152,
    "ilee": 40626,
    "dead": 25124,
    "undreds": 20960,
    "Nor": 21991,
    "\u0120complexities": 42292,
    "\u0120balk": 48776,
    "\u0120Prix": 23832,
    "ouched": 30075,
    "\u0120tackling": 26348,
    "\u0120Qi": 21924,
    "\u012008": 8487,
    "\u0120Essence": 36152,
    "\u0120respects": 19410,
    "\u0120VS": 22269,
    "Lair": 40041,
    "cv": 33967,
    "\u0120unus": 7242,
    "azon": 5168,
    "\u0120bargaining": 23189,
    "\u0120Ichigo": 44547,
    "\u0132": 238,
    "\u0120behav": 2955,
    "\u0120shared": 4888,
    "\u0120stall": 22549,
    "\u0120numeric": 35575,
    "\u0120alle": 28654,
    "irled": 49376,
    "\u0120diced": 48898,
    "\u0120unconditional": 42423,
    "\u0120paperback": 46771,
    "\u01201895": 46425,
    "Long": 14617,
    "\u0120administrator": 18382,
    "jj": 41098,
    "\u0120cult": 2285,
    "\u0120Vintage": 34057,
    "\u0120appearance": 5585,
    "\u0120greatly": 9257,
    "\u0120votes": 5690,
    "\u0120Steph": 39644,
    "\u0120Bro": 2806,
    "\u0120cis": 33325,
    "amacare": 11724,
    "\u0120misfortune": 41600,
    "\u0120460": 34091,
    "\u0120eBay": 21698,
    "requisites": 34075,
    "ossible": 4733,
    "\u0120Administ": 6813,
    "Write": 16594,
    "redible": 26260,
    "\u0120Grind": 41379,
    "\u0120MLS": 13981,
    "\u01201989": 11104,
    "agascar": 44309,
    "\u0120moderation": 34401,
    "Goal": 49045,
    "\u0120memories": 9846,
    "\u0120Bucket": 48353,
    "\u00e3\u0125\u012b\u00e3\u0125\u00a9\u00e3\u0124\u00b4\u00e3\u0125\u00b3": 24731,
    "\u0120commissioned": 20462,
    "drug": 30349,
    "\u0120sacrific": 13751,
    "\u0120attRot": 35207,
    "Factor": 41384,
    "markets": 34162,
    "\u0120Failed": 22738,
    "\u0120Historically": 48153,
    "\u0120beer": 6099,
    "ick": 624,
    "\u0120established": 4920,
    "\u0120Cord": 21119,
    "utonium": 43078,
    "\u0120clans": 38501,
    "\u0120ss": 37786,
    "music": 28965,
    "\u0120aura": 22491,
    "ell": 695,
    "\u0120MIDI": 33439,
    "\u0120Deus": 37365,
    "\u0120vacation": 14600,
    "lah": 9271,
    "\u0120republic": 17146,
    "dain": 27162,
    "\u0120App": 2034,
    "\u0120Butcher": 39680,
    "\u0120comple": 1224,
    "\u0120vaccine": 12319,
    "\u0120neighbourhood": 19495,
    "iky": 47536,
    "\u0120Families": 25813,
    "\u0120Contest": 27297,
    "\u0120stun": 7991,
    "616": 44214,
    "availability": 47274,
    "\u0120genuinely": 17170,
    "TAIN": 30339,
    "ccess": 1591,
    "aus": 8717,
    "batch": 43501,
    "How": 2437,
    "\u0120humiliation": 32415,
    "\u0120Demonic": 44057,
    "\u0120(_": 44104,
    "\u0120suck": 10110,
    "\u0120discussed": 6693,
    "Polit": 39866,
    "\u0120329": 42141,
    "\u0120investing": 14771,
    "elect": 9509,
    "\u0120acquisitions": 33683,
    "\u0120Pixie": 46687,
    "STD": 32147,
    "Danny": 45478,
    "\u0120crumbling": 37550,
    "\u0120really": 1107,
    "\u0120assume": 7048,
    "\u0120quantitative": 26610,
    "\u0120regular": 3218,
    "\u0120Songs": 31772,
    "\u0120Barack": 8732,
    "form": 687,
    "swer": 17845,
    "\u00e9\u00a3": 45617,
    "\u0120got": 1392,
    "\u0120realism": 30787,
    "Anne": 43227,
    "Israel": 14040,
    "\u0120Raleigh": 34520,
    "\u0120Pas": 17454,
    "\u0120dolphins": 36798,
    "FI": 11674,
    "olithic": 30764,
    "\u0120thousands": 4138,
    "\u0120Titanium": 49635,
    "\u0120Recipe": 26694,
    "\u0120dd": 49427,
    "\u0120aloud": 32227,
    "\u0120Ven": 9932,
    "isSpecial": 39714,
    "\u0120identities": 18413,
    "yrim": 17302,
    "\u0120Architecture": 29778,
    "\u0120Eid": 31022,
    "\u0120239": 32817,
    "lesiastical": 46360,
    "\u0120charact": 1543,
    "\u0120paperwork": 23143,
    "\u0120hopped": 45230,
    "\u0120kg": 14211,
    "\u0120specification": 20855,
    "\u0120REUTERS": 15862,
    "\u0120smoothly": 21461,
    "\u0120etc": 3503,
    "\u0120Turkish": 9663,
    "\u0120capture": 8006,
    "\u0120acknow": 5571,
    "oka": 17411,
    "\u01201909": 41507,
    "rational": 20310,
    "\u0120----": 13498,
    "\u0120restaur": 5190,
    "\u0120led": 2957,
    "\u0120multit": 41785,
    "Moon": 31640,
    "edes": 37507,
    "\u0120explode": 22818,
    "\u0120labeling": 27393,
    "Sample": 36674,
    "\u0120Fern": 38982,
    "\u0120Sims": 25343,
    "\u0120Jesse": 18033,
    "\u0120portion": 6903,
    "\u00c8": 132,
    "\u0120Alger": 26832,
    "\u00e3\u0124\u0124": 43266,
    "\u0120Babel": 50175,
    "Zero": 28667,
    "\u0120altar": 18890,
    "\u0120Reilly": 47879,
    "\u0120lonely": 21757,
    "Imagine": 25153,
    "\u0120comet": 31733,
    "\u0120Hess": 46305,
    "bolt": 25593,
    "flash": 34167,
    "\u0120ends": 5645,
    "PE": 11401,
    "qv": 44179,
    "\u0120BE": 9348,
    "\u0120Dempsey": 41994,
    "\u0120demeanor": 40309,
    "\u0120DirectX": 37017,
    "Stew": 49328,
    "\u0120Earlier": 20635,
    "\u0120raven": 37735,
    "\u0120rests": 24013,
    "\u0120Sark": 36518,
    "estinal": 34284,
    "\u0120defeated": 9772,
    "\u0120minority": 9137,
    "\u0120Debor": 35913,
    "\u0120SI": 25861,
    "\u0120ALE": 32318,
    "\u0120colourful": 44799,
    "\u0120Restaur": 22463,
    "\u0120search": 2989,
    "\u0120replacements": 36205,
    "Wednesday": 27150,
    "rible": 5547,
    "acteria": 10634,
    "\u0120Pie": 21690,
    "\u0120Consortium": 42727,
    "\u0120Side": 12075,
    "\u0120swap": 16075,
    "Major": 24206,
    "\u0120<": 1279,
    "inational": 26201,
    "\u0120Albany": 29285,
    "\u0120timid": 44295,
    "\u0120Race": 12588,
    "\u0120fond": 16245,
    "\u0120told": 1297,
    "aucas": 25205,
    "\u0120boasts": 22103,
    "\u0120IC": 12460,
    ".;": 15089,
    "ped": 9124,
    "\u0120ambassador": 14791,
    "041": 50049,
    "\u0120Unlimited": 26774,
    "\u0120malaria": 33917,
    "188": 20356,
    "\u0120Brendan": 26134,
    "\u0120294": 41235,
    "Dick": 38743,
    "\u0120Diablo": 31452,
    "illa": 5049,
    "\u0120unravel": 30282,
    "\u0120Rag": 38000,
    "\u0120Franchise": 49924,
    "\u0120abbre": 28873,
    "iamond": 8446,
    "\u0120GREAT": 37853,
    "\u0120Beijing": 11618,
    "\u0120abuse": 5076,
    "\u0120slogans": 31139,
    "\u0120priceless": 49083,
    "\u0120pastors": 43978,
    "\u0120literacy": 31231,
    "\u0120gigg": 30442,
    "\u0120extremism": 25571,
    "\u0120Syd": 11415,
    "\u0120Conor": 41708,
    "\u0120Mew": 36010,
    "\u0120Streaming": 43124,
    "\u0120marquee": 50089,
    "\u0120consuming": 18587,
    "IAL": 12576,
    "HAM": 33363,
    "\u0120varying": 15874,
    "\u0120Cert": 14965,
    "\u0120Scout": 22529,
    "\u0120ASC": 25400,
    "ed": 276,
    "\u0120Arthur": 13514,
    "\u0120let": 1309,
    "\u0120TAMADRA": 41297,
    "\u0120criticized": 12318,
    "igne": 48946,
    "car": 7718,
    "\u0120stuffed": 22259,
    "\u0120Browns": 17671,
    "unit": 20850,
    "saving": 29336,
    "Male": 25486,
    "\u0120Liver": 45036,
    "\u0120Temporary": 46042,
    "\u0120Sheet": 21616,
    "\u0120hugs": 40657,
    "being": 11873,
    "\u0120gre": 10536,
    "\u0120Forsaken": 49116,
    "ORPG": 49665,
    "akable": 29033,
    "\u0120corporation": 12017,
    "\u0120fraught": 39730,
    "\u0120alleg": 2868,
    "\u0120traps": 20348,
    "\u0120147": 22909,
    "80": 1795,
    "letcher": 29257,
    "ITH": 10554,
    "utter": 10381,
    "\u0120git": 17606,
    "\u0120reconstruction": 25056,
    "resource": 31092,
    "Kind": 35854,
    "mor": 4491,
    "Rock": 19665,
    "oley": 48437,
    "\u0120str": 965,
    "sat": 49720,
    "\u0120plunder": 42996,
    "\u0120Relief": 30323,
    "\u0120deterrent": 34207,
    "\u0120INF": 45594,
    "ended": 1631,
    "\u0120endogenous": 47064,
    "\u0120Gang": 19228,
    "\u0120Bosh": 42776,
    "ocent": 29421,
    "Gov": 23774,
    "\u0120840": 48777,
    "\u0120Rollins": 47489,
    "white": 11186,
    "\u0120States": 1829,
    "root": 15763,
    "\u0120dB": 30221,
    "\u0120Fel": 13937,
    "\u0120have": 423,
    "continue": 43043,
    "\u0120fared": 43688,
    "\u0120Celt": 16333,
    "ancel": 21130,
    "\u0120postings": 44656,
    "\u0120701": 48173,
    "\u0120275": 25829,
    "\u0120Dys": 46876,
    "\u0120salary": 9588,
    "\u0120disembark": 46804,
    "\u0120gunfire": 29276,
    "\u0120remote": 6569,
    "Alt": 29161,
    "\u0120forthcoming": 21220,
    "abee": 32580,
    "\u0120Memory": 14059,
    "\u0120CONFIG": 25626,
    "NO": 15285,
    "\u0120selecting": 17246,
    "\u0120Effect": 7896,
    "isite": 16107,
    "\u0120subpoena": 33262,
    "wife": 22095,
    "\u0120J": 449,
    "\u0120cognitive": 10870,
    "usalem": 10555,
    "From": 4863,
    "stein": 5714,
    "\u0120etiquette": 49455,
    "Ptr": 46745,
    "\u0120extracted": 21242,
    "\u0120ribbon": 29092,
    "appro": 21064,
    "\u0120retract": 34449,
    "\u0120Prompt": 45965,
    "\u0120nut": 6701,
    "\u0120Abraham": 16660,
    "\u0120maze": 31237,
    "Breaking": 29449,
    "\u0120furiously": 44896,
    "\u0120Inspector": 24625,
    "icative": 43058,
    "\u0120Broad": 9765,
    "\u0120Kits": 40297,
    "hours": 24425,
    "\u0120AOL": 46101,
    "\u0120qu": 627,
    "\u0120boyfriend": 13850,
    "odox": 11430,
    "CAR": 20034,
    "\u0120maximize": 20487,
    "\u0120textbooks": 31814,
    "JECT": 23680,
    "lator": 41880,
    "\u0120poignant": 45516,
    "\u0120Six": 9699,
    "\u0120Generic": 42044,
    "\u0120vampires": 35299,
    "\u0120Alexandra": 44075,
    "\u00d9\u012c": 22654,
    "\u0120decre": 5255,
    "\u0120Reaper": 29245,
    "fre": 19503,
    "ocyte": 43320,
    "\u0120enclave": 49842,
    "\u0120turf": 29553,
    "\u0120unworthy": 49284,
    "\u0120Chambers": 30717,
    "\u0120Viking": 27921,
    "iscons": 8795,
    "\u0120bees": 17002,
    "Flo": 33574,
    "\u0120incompet": 22929,
    "\u0120Hans": 13071,
    "\u0120Thu": 26223,
    "\u0120BBQ": 32083,
    "\u0120Tutorial": 36361,
    "othes": 31690,
    "\u0120Pruitt": 39637,
    "oti": 5092,
    "athlon": 50236,
    "\u0120turns": 4962,
    "urrence": 33928,
    "NY": 12805,
    "\u0120fed": 11672,
    "\u0120defin": 2730,
    "\u0120Moves": 38213,
    "\u0120Gest": 44641,
    "Format": 26227,
    "\u0120kW": 50223,
    "\u0120sett": 2970,
    "DC": 9697,
    "\u00e2\u0122\u00a6\"": 9962,
    "\u0120shadows": 16187,
    "itals": 8321,
    "\u0120Chloe": 29476,
    "\u0120weeks": 2745,
    "\u0120Reason": 23219,
    "\u0120Drinking": 43963,
    "\u0120commissioners": 33020,
    "\u0120Rud": 17421,
    "\u0120Corpus": 44874,
    "OTT": 29089,
    "\u0120exempted": 48521,
    "\u0120develops": 21126,
    "\u0120bought": 5839,
    "\u0120spikes": 27198,
    "\u0120Zh": 10511,
    "ERAL": 27130,
    "\u01200": 657,
    "uta": 29822,
    "\u0120Romania": 23356,
    "\u0120lad": 9717,
    "\u0120corridor": 20749,
    "\u0120stream": 4269,
    "\u0120wielded": 42459,
    "\u0120challenger": 32127,
    "\u0120dump": 10285,
    "\u0120String": 10903,
    "377": 26514,
    "\u0120offshore": 18479,
    "\u0120Nova": 17711,
    "footed": 43127,
    "\u0120passively": 49947,
    "scope": 29982,
    "\u0120Automatic": 30199,
    "\u0120turtles": 36288,
    "\u0120conveyed": 33348,
    "\u0120Dri": 5809,
    "\u0120specimen": 31674,
    "\u0120gardens": 25476,
    "php": 10121,
    "770": 41820,
    "\u0120Jaime": 38028,
    "ternally": 30262,
    "\u0120unresolved": 43264,
    "\u0120radio": 5243,
    "\u0120Nope": 39544,
    "\u0120Global": 8060,
    "\u0120gate": 8946,
    "\u0120Wis": 24884,
    "\u0120stronger": 7387,
    "aun": 1942,
    "\u0120pushed": 7121,
    "achment": 15520,
    "\u0120Room": 10096,
    "\u0120Ank": 24792,
    "\u0120calorie": 28740,
    "URE": 11335,
    "emporary": 33080,
    "\u0120drinkers": 40527,
    "\u0120Server": 9652,
    "agically": 39066,
    "\u0120government": 1230,
    "\u0120quieter": 43880,
    "ocus": 10901,
    "\u0120detailing": 22976,
    "\u0120range": 2837,
    "110": 11442,
    "powers": 30132,
    "something": 18927,
    "\u0120Keeping": 33311,
    "\u0120dissolved": 26306,
    "\u0120customs": 17112,
    "\u0120innoc": 7909,
    "\u0120302": 32591,
    "awa": 6909,
    "\u0120Easter": 20111,
    "J": 41,
    "acia": 47431,
    "\u0120bee": 20697,
    "Again": 15316,
    "\u00c3\u00b4": 27083,
    "\u0120178": 27368,
    "%%": 16626,
    "\u00e3\u0125\u0133": 32546,
    "\u0120damaging": 14790,
    "Asked": 18932,
    "\u0120stuff": 3404,
    "Minnesota": 45670,
    "\u0120Harley": 27440,
    "\u0120example": 1672,
    "\u0120Season": 7369,
    "\u0120Graphics": 19840,
    "\u0120detainee": 49436,
    "\u00e8\u00bb": 43102,
    "acus": 48628,
    "\u0120interested": 4609,
    "sub": 7266,
    "\u0120theirs": 22021,
    "\u0120meme": 25336,
    "\u0120colour": 9568,
    "\u0120distract": 11786,
    "\u0120rigorous": 22888,
    "\u0120presence": 4931,
    "\u0120guiIcon": 30211,
    "\u0120Ukraine": 7049,
    "\u0120has": 468,
    "\u0120Raid": 12448,
    "\u0120sugars": 34476,
    "ulsion": 15204,
    "\u0120ch": 442,
    "ormonal": 33792,
    "\u0120Measure": 24291,
    "\u0120Express": 10604,
    "enfranch": 39827,
    "\u0120mistakenly": 33168,
    "given": 35569,
    "\u0120Securities": 22971,
    "\u0120departments": 13346,
    "\u0120\u00d0": 12466,
    "\u0120reserv": 5463,
    "\u0120swarm": 30077,
    "\u0120Beet": 39040,
    "pool": 7742,
    "\u0120abundance": 20038,
    "Psy": 25918,
    "ced": 771,
    "iii": 15479,
    "\u0120switching": 15430,
    "ented": 4714,
    "\u0120ell": 30004,
    "\u0120optimizing": 45780,
    "\u0120clerks": 44115,
    "\u0120200": 939,
    "\u0120Match": 13225,
    "\u0120Begins": 48139,
    "\u0120Sri": 20872,
    "\u0120delay": 5711,
    "\u0120flex": 7059,
    "iol": 1669,
    "\u0120baseman": 35348,
    "\u0120threatened": 8556,
    "\u0120orb": 15769,
    "cki": 49108,
    "\u0120standing": 5055,
    "tn": 34106,
    "steam": 21465,
    "\u0120Hogan": 25316,
    "\u0120tradem": 12677,
    "\u0120PayPal": 22525,
    "\u0120Haw": 6091,
    "\u0120Por": 20139,
    "\u0120RB": 17986,
    "\u0120Arpaio": 46861,
    "\u0120unaccompanied": 47146,
    "Act": 6398,
    "682": 43950,
    "\u0120Chelsea": 12147,
    "\u0120amplified": 37479,
    "\u0120veiled": 45694,
    "\u0120Keeper": 26335,
    "ausible": 17178,
    "\u0120scorer": 30664,
    "\u0120saved": 7448,
    "\u0120guidance": 11154,
    "beans": 44749,
    "\u0120disgust": 16234,
    "anticipated": 45178,
    "\u0120alarm": 10436,
    "\u0120whichever": 26204,
    "\u0120Bailey": 20330,
    "OUGH": 32632,
    "\u0120countryside": 25708,
    "yre": 35759,
    "\u0120grandma": 49890,
    "\u0120mathematician": 48251,
    "\u0120affordability": 38981,
    "uces": 26873,
    "\u0120Audit": 46450,
    "\u01202007": 4343,
    "\u0120therape": 20094,
    "uer": 15573,
    "outs": 5269,
    "\u0120executes": 42985,
    "\u0120Instructions": 27759,
    "\u0120Reply": 14883,
    "\u0120bringing": 6079,
    "\u0120revived": 28910,
    "\u0120->": 4613,
    "mist": 37980,
    "\u00e2\u0122\u00a2\u00e2\u0122\u00a2": 22838,
    "places": 23625,
    "occ": 13966,
    "785": 41172,
    "\u0120Bauer": 41971,
    "Tar": 47079,
    "ortal": 16906,
    "\u0120careers": 16179,
    "isks": 36730,
    "\u0120Hip": 29437,
    "\u0120Kaufman": 46991,
    "csv": 40664,
    "ursed": 17539,
    "\u0120happiest": 49414,
    "fa": 13331,
    "\u0120sins": 18377,
    "\u0120stolen": 9909,
    "\u0120submissions": 22129,
    "\u0120ANGEL": 44892,
    "htar": 38672,
    "\u0120Gaz": 21347,
    "lived": 24489,
    "\u0120Mull": 19574,
    "\u0120obsolete": 26533,
    "CLOSE": 32737,
    "\u0120sequest": 46314,
    "\u0120infer": 13249,
    "fram": 19298,
    "\u0120reliance": 24126,
    "ATING": 33881,
    "\u0120station": 4429,
    "roying": 38295,
    "\u0120spec": 1020,
    "\u0120souls": 15625,
    "\u0120proclaimed": 25546,
    "correct": 30283,
    "Tro": 44095,
    "Japan": 16504,
    "\u0120Kick": 10279,
    "\u0120scrutin": 30441,
    "Win": 16643,
    "Nazi": 31343,
    "\u0120grandparents": 28571,
    "\u0120contempt": 18035,
    "\u0120humans": 5384,
    "Bon": 20682,
    "communications": 20860,
    "\u0120Swiss": 14780,
    "inate": 4559,
    "\u0120position": 2292,
    "\u0120habit": 7947,
    "\u0120insulted": 40102,
    "\u0120Sere": 30175,
    "\u0120Pistol": 36414,
    "\u0120rink": 47925,
    "sal": 21680,
    "re": 260,
    "\u0120Fay": 35136,
    "DOC": 38715,
    "\u0120fuss": 34297,
    "\u0120sadly": 21098,
    "\u0120trips": 13229,
    "\u00e3\u0125\u012f": 44916,
    "\u0120sibling": 33423,
    "keleton": 38800,
    "\u0120infiltration": 45106,
    "llor": 14127,
    "\u0120Lexington": 39540,
    "cerpt": 17040,
    "\u0120goofy": 44089,
    "aterial": 2273,
    "\u0120SR": 16808,
    "Domain": 43961,
    "\u0120patriarchal": 42301,
    "\u0120acoustic": 26071,
    "\u0120encaps": 32652,
    "rack": 39638,
    "\u0120biscuits": 50128,
    "chlor": 36813,
    "\u0120unwilling": 19084,
    "arate": 30748,
    "\u0120psycho": 30731,
    "\u0120bold": 10758,
    "\u0120mindfulness": 35502,
    "\u00e3\u0123\u00a6": 28134,
    "\u0120organized": 8389,
    "\u0120ital": 46127,
    "\u0120knitting": 41577,
    "\u0120Lamp": 28607,
    "\u0120turnout": 21666,
    "\u0120Problem": 20647,
    "\u0120banned": 9301,
    "\u0120outlook": 19360,
    "ETHOD": 36252,
    "\u0120inspir": 32285,
    "\u0120foot": 2366,
    "\u0120skills": 4678,
    "\u0120Product": 8721,
    "\u0120landslide": 36348,
    "\u0120Publisher": 28045,
    "osuke": 45914,
    "\u0120Wond": 31960,
    "\u0120visualization": 32704,
    "\u0120squared": 44345,
    "222": 23148,
    "\u0120Introdu": 11036,
    "\u0120fundamental": 7531,
    "Happy": 25082,
    "\u0120Gu": 1962,
    "\u0120Rule": 14330,
    "\u0120ratification": 48815,
    "\u0120Trop": 25491,
    "ially": 1927,
    "\u0120grabs": 22378,
    "\u0120Ev": 4319,
    "\u0120Hearts": 20592,
    "\u0120cannabinoids": 46830,
    "\u0120Dunham": 44588,
    "\u0120UA": 46164,
    "\u0120Catholicism": 46802,
    "yz": 45579,
    "eria": 5142,
    "Christ": 10684,
    "\u0120msec": 43242,
    "\u0120Tart": 37109,
    "\u0120\u00c2\u00a3": 4248,
    "ewitness": 28588,
    "\u0120meltdown": 37824,
    "\u0120Showdown": 46645,
    "lude": 38792,
    "albeit": 45781,
    "\u0120cel": 18725,
    "ospace": 24912,
    "\u0120supplies": 9416,
    "\u0120headline": 16534,
    "\u0120roads": 9725,
    "\u0120Mack": 16640,
    "\u0120enrich": 22465,
    "\u0120Mods": 43099,
    "\u0120falsehood": 37110,
    "Senate": 32998,
    "\u0120object": 2134,
    "\u0120395": 42321,
    "iliation": 15547,
    "\u0120tens": 11192,
    "ten": 1452,
    "\u0120kilomet": 11866,
    "444": 30272,
    "\u0120simultaneously": 11640,
    "\u0120sorcerer": 47063,
    "ossus": 36533,
    "ACT": 10659,
    "\u0120Surviv": 19455,
    "\u0120protr": 39701,
    "chedel": 24015,
    "\u0120sod": 32581,
    "\u0120Correction": 35074,
    "\u0120Moj": 40120,
    "Safety": 45372,
    "\u0120predictive": 33344,
    "erker": 35779,
    "\u01201897": 49429,
    "ila": 10102,
    "phan": 19080,
    "itty": 9760,
    "\u0120Clintons": 30234,
    "\u0120wrist": 15980,
    "\u0120YOU": 7013,
    "\u0120consec": 42938,
    "crit": 22213,
    "\u0120Taste": 29633,
    "\u0120blaster": 48131,
    "\u0120Transfer": 20558,
    "uben": 44636,
    "Core": 14055,
    "\u0120await": 25507,
    "\u0120Nicholson": 40365,
    "\u0120relaxation": 34205,
    "\u0120embod": 13968,
    "chn": 1349,
    "\u0120Won": 23306,
    "zi": 17027,
    "\u0120Welsh": 22945,
    "\u0120dependence": 21403,
    "\u0120Lawrence": 13914,
    "\u0120Burlington": 37090,
    "head": 2256,
    "stall": 32989,
    "\u0120SAT": 29020,
    "540": 35005,
    "\u0120abused": 15519,
    "\u0120executions": 30632,
    "\u0120Cron": 31683,
    "iom": 29005,
    "\u0120mur": 4636,
    "\u0120grizz": 46307,
    "\u0120Edit": 5312,
    "\u0120Nightmares": 43477,
    "\u0120corners": 14371,
    "obe": 5910,
    "\u0120Canterbury": 43581,
    "\u0120volts": 46297,
    "norm": 27237,
    "\u0120redesigned": 36240,
    "\u0120Re": 797,
    "****************": 8412,
    "\u0120Analog": 50088,
    "\u0120Moines": 36576,
    "\u00e3\u0123\u00a7": 30640,
    "\u0120habitual": 46020,
    "ernel": 7948,
    "checks": 42116,
    "\u0120transitioning": 37005,
    "\u0120verse": 18527,
    "\u0120IST": 45790,
    "\u0120subscrib": 11452,
    "aturation": 36921,
    "ear": 451,
    "\u0120scissors": 41786,
    "beat": 12945,
    "\u0120457": 47996,
    "Afee": 44314,
    "\u0120Numbers": 27797,
    "\u0120hardcore": 22823,
    "\u0120263": 39135,
    "\u0120McDonnell": 39441,
    "fresh": 48797,
    "King": 15708,
    "\u0120transact": 48878,
    "\u0120carp": 39465,
    "Friend": 23331,
    "\u0120astronauts": 26835,
    "\u0120addressed": 9469,
    "\u0120Twelve": 30775,
    "Cole": 46509,
    "\u0120lick": 36728,
    "\u0120IMP": 30023,
    "\u0120beats": 17825,
    "\u00e3\u0125\u0142": 25795,
    "\u0120captured": 7907,
    "arie": 49173,
    "\u0120fiercely": 33285,
    "scar": 13034,
    "();": 9783,
    "\u0120Creature": 33248,
    "\u0120correlations": 35811,
    "\u0120Infrastructure": 33709,
    "\u0120mammalian": 46177,
    "\u0120Wonder": 12902,
    "\u0120horribly": 33437,
    "\u0120subt": 13284,
    "\u0120appointments": 23976,
    "anic": 26277,
    "\u0120insignificant": 32081,
    "\u0120NS": 10896,
    "lements": 3639,
    "farm": 43323,
    "izophren": 18337,
    "legraph": 16606,
    "Usage": 28350,
    "izen": 33977,
    "\u0120doctrine": 13115,
    "cert": 22583,
    "\u0120cafeteria": 43075,
    "\u0120Cooke": 46247,
    "\u0120Ballard": 45415,
    "\u0120erratic": 40583,
    "702": 36680,
    "\u0120yielding": 39127,
    "\u0120thankfully": 36308,
    "\u0120minute": 5664,
    "eless": 5321,
    "\u0120vers": 1646,
    "\u0120province": 8473,
    "\u0120Gods": 15391,
    "ussed": 29569,
    "\u0120smashing": 35233,
    "\u0120removed": 4615,
    "\u0120Chap": 15954,
    "nin": 35073,
    "led": 992,
    "Take": 12322,
    "\u0120replicated": 35108,
    "\u0120Stanton": 36442,
    "\u0120j": 474,
    "\u0120Niagara": 44340,
    "GoldMagikarp": 42202,
    "\u0120misuse": 29169,
    "\u0120LINE": 48920,
    "Application": 23416,
    "\u0120cock": 7540,
    "bernatorial": 43660,
    "eight": 26022,
    "\u0120Ratt": 50100,
    "irit": 3276,
    "-[": 49146,
    "\u0120toddlers": 50142,
    "kw": 46265,
    "\u0120ic": 14158,
    "heim": 9096,
    "\u0120cigarettes": 17626,
    "\u00e3\u0125\u00a1": 26998,
    "\u0120infinity": 37174,
    "\u0120punish": 6878,
    "\u0120inflammation": 20881,
    "bc": 15630,
    "\u0120manufact": 4011,
    "\u0120contrace": 17473,
    "orescence": 48699,
    "\u0120issuing": 19089,
    "PT": 11571,
    "\u0120delinqu": 32050,
    "kees": 16683,
    "\u0120#": 1303,
    "\u0120clicked": 28384,
    "\u0120Killing": 25536,
    "\u0120Tig": 14189,
    "Cand": 41572,
    "\u0120attest": 44477,
    "urers": 17496,
    "\u00e3\u0125\u00bc\u00e3\u0124\u00af": 42869,
    "\u0120grown": 7334,
    "\u0120tolerance": 15621,
    "eded": 15395,
    "alis": 27315,
    "\u0120Shak": 35274,
    "\u0120virtues": 27494,
    "\u0120boxed": 46069,
    "\u0120Lebanon": 16849,
    "cache": 23870,
    "Gh": 41126,
    "\u0120implication": 26863,
    "\u0120its": 663,
    "Bird": 42562,
    "\u0120Birthday": 33511,
    "isma": 38017,
    "\u0120submar": 18249,
    "\u0120chrom": 15358,
    "ettes": 23014,
    "\u0120Communist": 14884,
    "\u0120Clarence": 42602,
    "Among": 14311,
    "M": 44,
    "\u0120sectarian": 28005,
    "\u0120recreational": 18136,
    "\u0120Snake": 16705,
    "\u0120herb": 21047,
    "\u0120Bag": 20127,
    "\u0120hollow": 20596,
    "\u0120lookup": 35847,
    "\u0120parliament": 8540,
    "\u0120Rivers": 18280,
    "ologue": 39795,
    "\u0120401": 22219,
    "676": 42548,
    "\u0120tiny": 7009,
    "\u0120295": 34772,
    "\u0120Joshua": 20700,
    "560": 34135,
    "\u0120Display": 16531,
    "byte": 26327,
    "ament": 3263,
    "\u0120tumor": 22359,
    "\u0120choking": 39302,
    "\u0120reproductive": 18391,
    "\u0120guided": 17455,
    "sized": 13982,
    "\u0120posters": 19379,
    "\u0120Cook": 8261,
    "\u0120submarine": 24927,
    "\u0120misunderstand": 39653,
    "onent": 3471,
    "oded": 9043,
    "\u0120watchdog": 26856,
    "\u0120face": 1986,
    "ho": 8873,
    "\u0120Assad": 13032,
    "rocket": 30431,
    "own": 593,
    "Roger": 43719,
    "\u0120versatile": 21362,
    "\u0120vap": 38187,
    "\u0120podium": 27941,
    "\u0120accountability": 18241,
    "\u0120improvised": 36146,
    "\u0120story": 1621,
    "\u0120notebooks": 43935,
    "CHAR": 38019,
    "ario": 4982,
    "\u0120marginal": 14461,
    "Camera": 35632,
    "Listen": 23061,
    "worn": 34565,
    "\u00ef\u00bf\u00bd": 4210,
    "\u0120Pros": 27631,
    "\u0120inconsistency": 43831,
    "matic": 13849,
    "\u0120Pis": 42021,
    "\u0120Crow": 15502,
    "\u0120Spit": 48377,
    "\u0120pieces": 5207,
    "\u0120ultr": 23212,
    "\u0120drills": 26721,
    "\u0120wetlands": 49297,
    "156": 21599,
    "\u0120Govern": 3948,
    "\u0120Screw": 42147,
    "inho": 20327,
    "\u0120sensors": 15736,
    "\u0120agreement": 4381,
    "\u0120shel": 7497,
    "\u0120commander": 11561,
    "\u0120per": 583,
    "\u0120shatter": 45131,
    "EStream": 39906,
    "\u0120advised": 13030,
    "\u0120cares": 16609,
    "\u00e0\u00b9": 31479,
    "\u0120Polit": 7793,
    "\u00e7\u013c\u0126": 21410,
    "\u0120tri": 1333,
    "rain": 3201,
    "\u0120nin": 13462,
    "\u0120comic": 9048,
    "bra": 16057,
    "\u0120tuning": 24549,
    "Star": 8248,
    "ceivable": 48054,
    "\u0120litigation": 19284,
    "BILITIES": 49516,
    "\u0120realistic": 12653,
    "\u0120OR": 6375,
    "acht": 19725,
    "ifice": 9680,
    "ISH": 18422,
    "evidence": 46817,
    "\u0120anguish": 41210,
    "ONES": 39677,
    "\u0120ingested": 44694,
    "\u0120Intellectual": 42443,
    "\u0120Kens": 29018,
    "addin": 46782,
    "itzer": 10557,
    "\u0120Howe": 38320,
    "global": 20541,
    "Neg": 32863,
    "erer": 11882,
    "\u0120leader": 3554,
    "\u0120taxi": 17536,
    "rites": 23156,
    "spective": 49540,
    "Met": 9171,
    "\u01201974": 16489,
    "\u0120Tanaka": 47825,
    ">,": 22330,
    "izer": 7509,
    "ON": 1340,
    "dragon": 14844,
    "\u0120plunged": 31460,
    "\u0120Ke": 3873,
    "674": 45385,
    "FUN": 42296,
    "These": 4711,
    "dd": 1860,
    "\u0120135": 17501,
    "\u0120gaping": 46529,
    "\u010b": 199,
    "\u0120intestinal": 32031,
    "\u0120fung": 31317,
    "\u0120brunt": 48850,
    "boa": 48614,
    "Use": 11041,
    "\u0120successor": 17270,
    "\u0120quot": 23611,
    "\u0120EST": 17160,
    "\u0120Pond": 41598,
    "ibility": 2247,
    "\u0120Lem": 20607,
    "\u0120Peninsula": 24078,
    "\u0120linem": 22774,
    "969": 38819,
    "\u0120Debug": 31687,
    "\u0120tendencies": 25671,
    "\u0120Particularly": 47674,
    "\u0120Aircraft": 30767,
    "\u0120disbelief": 29894,
    "\u0120Maritime": 45411,
    "iff": 733,
    "Out": 7975,
    "\u0120consider": 2074,
    "\u0120sincerity": 44053,
    "\u0120supreme": 17700,
    "\u0120pay": 1414,
    "\u0120Kam": 12670,
    "\u0120evenings": 37119,
    "\u0120CP": 16932,
    "late": 17660,
    "\u0120transports": 45245,
    "\u0120paralyzed": 36175,
    "aughtered": 32734,
    "\u0120bumped": 38034,
    "\u0120sp": 599,
    "\u0120mods": 13743,
    "\u0120Jaune": 29415,
    "113": 16616,
    "Saharan": 40461,
    "\u0120flair": 37457,
    "\u0120swift": 14622,
    "rock": 10823,
    "\u0120nm": 28642,
    "\u0120Weed": 43912,
    "\u0120virginity": 48533,
    "custom": 23144,
    "\u0120binary": 13934,
    "viron": 2268,
    "ishy": 49785,
    "PIN": 44032,
    "\u0120Way": 6378,
    "\u0120hashing": 49544,
    "_-": 22955,
    "Increases": 28544,
    "197": 24991,
    "\u0120Label": 36052,
    "\u0120Kah": 38798,
    "Know": 23812,
    "\u0120bags": 11668,
    "\"]=>": 23785,
    "\u0120Farm": 11272,
    "\u0120proofs": 39197,
    "Sac": 38318,
    "umbing": 28149,
    "\u0120obst": 9710,
    "Both": 10265,
    "\u0120slack": 30740,
    "\u0120Morning": 14410,
    "atel": 25791,
    "EED": 41841,
    "\u0120mythology": 25871,
    "\u0120Lies": 35337,
    "\u0120Construct": 28407,
    "\u0120cape": 36023,
    "post": 7353,
    "editor": 35352,
    "\u0120chalk": 30860,
    "\u0120Tycoon": 28222,
    "\u0120Dirk": 42761,
    "\u0120Lite": 27395,
    "\u0120reactions": 12737,
    "\u0120Tut": 22792,
    "broad": 36654,
    "Fs": 42388,
    "\u0120loot": 16702,
    "\u0120comedy": 10997,
    "\u0120leveling": 34661,
    "elve": 9954,
    "\u0120robbing": 47162,
    "\u0120annot": 24708,
    "\u0120Census": 20962,
    "\u0120poking": 39048,
    "013": 30273,
    "\u0120Playoff": 41325,
    "igs": 9235,
    "\u0120VA": 13753,
    "\u0120Naturally": 30413,
    "\u0120MA": 8779,
    "alos": 41823,
    "\u0120Gandhi": 22081,
    "\u0120procession": 37968,
    "\u0120Flavor": 26438,
    "\u0120Needless": 39114,
    "CLUS": 28332,
    "\u0120forfeiture": 32075,
    "\u0120clarify": 18282,
    "Always": 30374,
    "aciously": 45289,
    "\u0120chose": 7690,
    "\u0120TOP": 28662,
    "osaurs": 22344,
    "\u0120collector": 22967,
    "\u0120Seas": 32306,
    "\u0120Accounts": 35584,
    "\u0120precinct": 28802,
    "\u0120Northern": 8342,
    "\u0120unchanged": 21588,
    "\u01202600": 47197,
    "ortunately": 4690,
    "\u0120Happy": 14628,
    "\u0120Dawkins": 38922,
    "\u0120enjoyed": 8359,
    "PLIC": 31484,
    "\u0120Mt": 18632,
    "uddy": 21584,
    ")=": 47505,
    "\u0120Guitar": 31550,
    "\u0120Austin": 9533,
    "\u0120criticised": 23894,
    "assisted": 42191,
    "-$": 22799,
    "\u0120despair": 20234,
    "\u0120)": 1267,
    "Girls": 41044,
    "\u0120Nation": 8741,
    "\u00c3\u00a7a": 50041,
    "\u0120Ninja": 14152,
    "\u0120superintendent": 32958,
    "\u0120Hispanic": 16949,
    "\u0120tapes": 23695,
    "\u0120Ward": 12150,
    "\u0120alert": 7995,
    "\u0120TL": 24811,
    "\u0120Rodgers": 19947,
    "gat": 41268,
    "\u0120DK": 32975,
    "\u0120Overt": 46067,
    "UNE": 41884,
    "\u0120diagonal": 40039,
    "mc": 23209,
    "\u0120Parish": 35240,
    "Cath": 39581,
    "\u0120Pent": 9696,
    "secret": 21078,
    "\u0120plummeted": 44282,
    "499": 28324,
    "660": 39885,
    "06": 3312,
    "\u0120cooperate": 21270,
    "\u0120vision": 5761,
    "chem": 15245,
    "\u0120gorilla": 45314,
    "\u0120settle": 12259,
    "\u0120Pol": 2165,
    "\u0120SIM": 23749,
    "\u0120representatives": 10826,
    "\u0120refrain": 25133,
    "\u0120PAGE": 48488,
    "\u0120fingerprints": 34290,
    "\u0120clan": 19065,
    "\u0120nightmare": 17123,
    "\u0120buses": 16893,
    "\u0120Twisted": 40006,
    "\u0120Sheriff": 12874,
    "issa": 13808,
    "\u0120framed": 23665,
    "\u0120prohibited": 12244,
    "\u0120suspense": 43527,
    "\u0120WATCH": 16518,
    "\u0120transparency": 13902,
    "Follow": 7155,
    "\u0120Rih": 44502,
    "ara": 3301,
    "ordon": 9999,
    "\u0120proficiency": 32102,
    "\u012010000": 33028,
    "ussian": 31562,
    "\u0120cleaning": 12724,
    "\u0120Mex": 4413,
    "\u0120anytime": 17949,
    "\u0120Nep": 15310,
    "\u0120Blockchain": 29724,
    "\u0120skin": 4168,
    "\u0120Exxon": 27879,
    "\u0120Extensions": 49751,
    "\u0120Voc": 47208,
    "\u0120circumvent": 33256,
    "\u0120Saunders": 35896,
    "\u0120being": 852,
    "pipe": 34360,
    "\u0120Allah": 11475,
    "\u0120148": 22613,
    "\u0120situational": 45290,
    "\u0120neighbourhoods": 45221,
    "\u0120Car": 1879,
    "\u0120Siberia": 41515,
    "\u0120fraudulent": 24627,
    "\u0120dogma": 40937,
    "\u0120Hockey": 17277,
    "abled": 4510,
    "\u0120ROM": 21224,
    "\u0120styling": 35517,
    "\u0120hauled": 43423,
    "\u0120WD": 48963,
    "izard": 8669,
    "798": 43240,
    "nesota": 8360,
    "\u0120Read": 4149,
    "\u0120recalls": 16865,
    "\u0120Watson": 14959,
    "\u0120employment": 7184,
    "\u0120assign": 8333,
    "\u0120rife": 43273,
    "\u0120reinforce": 19594,
    "Virginia": 41017,
    "SHIP": 49423,
    "build": 11249,
    "\u0120ERA": 18802,
    "\u0120rewrite": 28183,
    "\u0120gatherings": 37134,
    "\u0120disappointing": 17185,
    "\u0120ingrained": 47938,
    "\u0120addressing": 13593,
    "Op": 18257,
    "\u0120ones": 3392,
    "\u0120manufacture": 6161,
    "\u0120minimalist": 44693,
    "algia": 47111,
    "che": 2395,
    "\u0120searched": 16499,
    "\u0120indices": 36525,
    "greSQL": 47701,
    "\u0120Rusty": 47449,
    "\u0120constellation": 38712,
    "\u0120cannabin": 30716,
    "\u0120Electro": 38781,
    "\u0120generals": 26770,
    "\u0120gist": 50057,
    "ifted": 21715,
    "Improved": 35453,
    "\u0120Highway": 14914,
    "\u0120hamstring": 36744,
    "\u0120bystanders": 46652,
    "\u0120pillar": 30042,
    "\u0120freshmen": 45208,
    "isen": 13254,
    "\u0120Myth": 18900,
    "\u0120typ": 2170,
    "\u0120Israeli": 6085,
    "\u0120Harrison": 17281,
    "\u0120Highest": 41864,
    "\u0120analges": 48895,
    "\u0120crumble": 49478,
    "\u0120suspects": 11826,
    "lla": 8466,
    "\u0120290": 26481,
    "\u0120Loki": 31771,
    "\u0120satisfaction": 14676,
    "\u0120Kov": 43326,
    "iron": 1934,
    "\u0120sound": 2128,
    "\u0120Gael": 39652,
    "Quant": 24915,
    "cca": 13227,
    "\u0120Mech": 18202,
    "\u0120dod": 20764,
    "\u0120distraught": 48629,
    "\u0120roses": 42152,
    "\u0120according": 1864,
    "\u0120versa": 25470,
    "200": 2167,
    "rone": 33171,
    "TY": 9936,
    "Requ": 16844,
    "eta": 17167,
    "GOP": 44962,
    "\u0120debugging": 28769,
    "\u0120Bell": 7459,
    "\u0120stored": 8574,
    "\u0120SV": 20546,
    "\u0120batting": 23761,
    "\u0120glim": 16323,
    "\u0120Atom": 33102,
    "\u0120concluded": 8391,
    "\u0120Pentagon": 12651,
    "\u0120contested": 24163,
    "\u0120titles": 8714,
    "GEN": 35353,
    "ipment": 4667,
    "\u0120Cov": 39751,
    "\u00e3\u0123\u012e": 35585,
    "\u0120dignity": 16247,
    "\u0120Millions": 39830,
    "register": 30238,
    "\u0120installations": 26162,
    "type": 4906,
    "\u0120pride": 11293,
    "\u0120Influence": 35948,
    "\u0120Unfortunately": 8989,
    "\u0120capabilities": 9889,
    "\u0120\u00e8\u00a3\u0131": 6438,
    "esp": 9774,
    "\u0120terminal": 12094,
    "\u0120fringe": 26821,
    "Software": 25423,
    "\u0120ostensibly": 31454,
    "seven": 26548,
    "\u0120writer": 6260,
    "\u0120teamwork": 48424,
    "\u0120Mit": 11707,
    "ictions": 9278,
    "alian": 7199,
    "\u0120packing": 24157,
    "ickle": 39423,
    "aretz": 48338,
    "\u0120avocado": 40377,
    "xes": 48169,
    "CBS": 22923,
    "779": 40393,
    "iren": 24080,
    "\u0120TAM": 33112,
    "cci": 35764,
    "anism": 48162,
    "\u0120Individuals": 34884,
    "\u0120Mem": 4942,
    "\u0120leave": 2666,
    "etting": 35463,
    "\u0120urge": 14960,
    "funding": 25032,
    "LE": 2538,
    "\u0120upgraded": 17955,
    "concept": 43169,
    "\u0120Serpent": 30177,
    "\u0120solidarity": 17803,
    "\u0120shutter": 31168,
    "\u0120Principal": 32641,
    "\u0120Yah": 35473,
    "\u0120formal": 8766,
    "port": 634,
    "\u0120feeble": 46299,
    "pox": 42557,
    "\u0120promotional": 18767,
    "\u0120Starr": 37884,
    "\u0120interfaces": 20314,
    "\u0120contraction": 36246,
    "\u0120calibrated": 48050,
    "\u0120Really": 16123,
    "\u0120Vancouver": 10930,
    "kers": 15949,
    "\u0120gir": 37370,
    "ymm": 26621,
    "\u0120neurons": 16890,
    "\u0120underworld": 42494,
    "\u01201917": 24168,
    "Widget": 38300,
    "5000": 27641,
    "\u0120RE": 4526,
    "irth": 3333,
    "\u0120304": 31672,
    "\u0120);": 5619,
    "uristic": 27915,
    "\u0120Harmony": 35088,
    "\u0120ast": 6468,
    "\u0120Dirt": 49124,
    "oslov": 50005,
    "\u0120hereafter": 49912,
    "\u011b": 215,
    "\u0120Pradesh": 25945,
    "\u0120clearer": 22363,
    "\u0120mechanical": 12370,
    "\u0120threaten": 16180,
    "015": 25150,
    "\u0120meet": 1826,
    "\u0120shouted": 17293,
    "\u0120ow": 12334,
    "\u0120Manual": 17969,
    "henko": 30161,
    "\u0120Africans": 29058,
    "\u0120contradicts": 40081,
    "inkle": 19894,
    "graded": 21791,
    "TW": 34551,
    "opard": 15478,
    "\u0120Casual": 43508,
    "\u0120Am": 1703,
    "\u00e9\u013c": 49694,
    "\u0120bounds": 22303,
    "\u0120interacts": 44020,
    "\u0120off": 572,
    "\u0120Scouts": 30456,
    "\u0120advertis": 23789,
    "cats": 24619,
    "\u0120retaliation": 24671,
    "\u0120HIT": 46405,
    "ata": 1045,
    "],\"": 17241,
    "\u0120Lal": 36683,
    "\u0120enforced": 20326,
    "\u0120bottom": 4220,
    "\u0120ordered": 6149,
    "\u0120assisted": 18419,
    "\u0120dollars": 5054,
    "325": 26582,
    "Discover": 44596,
    "\u0120commodities": 24392,
    "clude": 9152,
    "\u0120Fut": 24002,
    "\u0120punched": 25436,
    "\u0120namespace": 25745,
    "\u0120Dickens": 46167,
    "\u0120Adrian": 21462,
    "ording": 1284,
    "AG": 4760,
    "\u0120Susan": 14919,
    "\u0120six": 2237,
    "/*": 15211,
    "\u0120shotguns": 47392,
    "\u0120failing": 9894,
    "102": 15377,
    "\u0120judicial": 13657,
    "arnaev": 42311,
    "\u0120grace": 11542,
    "\u0120preseason": 18913,
    "request": 25927,
    "\u0120Pepsi": 38428,
    "attle": 1999,
    "\u0120Dou": 5728,
    "EH": 42413,
    "\u0120Content": 14041,
    "\u0120Ottawa": 14074,
    "\u0120Chi": 21380,
    "\u0120dinners": 42541,
    "\u0120direction": 4571,
    "\u0120num": 997,
    "\u0120Forge": 24855,
    "\u0120basket": 7988,
    "tted": 28734,
    "=-=-=-=-=-=-=-=-": 46402,
    "\u0120essay": 14268,
    "trans": 7645,
    "\u0120giveaway": 39015,
    "ophysical": 41789,
    "\u0119": 213,
    "\u0120cant": 18548,
    "\u0120heartfelt": 44018,
    "\u0120aforementioned": 20794,
    "\u0120mailing": 21898,
    "\u0120contaminated": 23543,
    "\u0120IRA": 27859,
    "Sur": 14214,
    "gem": 24090,
    "\u0120fix": 4259,
    "\u0120Disable": 31529,
    "rencies": 14038,
    "\u0120Reserve": 12224,
    "\u0120Bed": 15585,
    "\u0120magnets": 37446,
    "\u0120attentive": 45660,
    "\u0120Dynam": 14970,
    "120": 10232,
    "\u0120struggling": 9648,
    "Nine": 37603,
    "ostic": 15132,
    "\u0120199": 1594,
    "\u0120garg": 44671,
    "creation": 38793,
    "yond": 3243,
    "303": 22572,
    "\u0120Hook": 18531,
    "\u0120lighthouse": 46371,
    "\u0120sol": 1540,
    "\u0120reverence": 40380,
    "\u0120hers": 25144,
    "\u0120Abram": 39631,
    "\u0120lantern": 41207,
    "\u0120confines": 39293,
    ")</": 36475,
    "\u0120shirt": 10147,
    "\u0120Saturday": 3909,
    "uberty": 34237,
    "\u0120Kub": 24921,
    "\u0120Ma": 6669,
    "RAM": 24115,
    "\u0120grasp": 13180,
    "\u0120shock": 6380,
    "\u0120Howard": 8442,
    "climate": 42570,
    "ridges": 32124,
    "\u0120Atl": 5234,
    "\u0120erotic": 32739,
    "\u0120GPU": 11362,
    "\u0120Vega": 30310,
    "\u0120honesty": 24345,
    "ESA": 43279,
    "\u0120Capital": 9747,
    "\u0120mercury": 27394,
    "\u0120Hay": 9075,
    "Recent": 26446,
    "nation": 25729,
    "Interview": 39945,
    "\u0120honest": 5508,
    "unia": 39934,
    "\u0120OFF": 18562,
    "\u01201888": 49584,
    "\u0120politic": 31723,
    "Saint": 48615,
    "505": 31654,
    "\u0120tacit": 40787,
    "\u0120warped": 43062,
    "\u0120DEA": 28647,
    "\u0120surf": 9053,
    "adobe": 36752,
    "\u0120perfectly": 7138,
    "593": 49051,
    "\u0120Fixes": 34258,
    "\u0120knees": 14475,
    "\u0120bankrupt": 13158,
    "wagon": 41127,
    "\u00ac": 105,
    "548": 49934,
    "USD": 29072,
    "prom": 16963,
    "\u0120Overview": 28578,
    "\u0120assassins": 44454,
    "\u0120wheelchair": 27181,
    "gment": 5154,
    "\u0120Outlook": 30096,
    "\u0120grim": 18288,
    "\u0120Anon": 49347,
    "Vill": 42074,
    "\u0120offense": 6907,
    "\u0120blinding": 46573,
    "ZE": 21211,
    "\u0120haunting": 36660,
    "\u0120NI": 24947,
    "\u0120Vision": 19009,
    "\u0120originate": 39779,
    "\u0120pel": 16176,
    "\u0120pop": 1461,
    "\u0120MU": 25108,
    "\u0120Bei": 46731,
    "\u0120ls": 43979,
    "ik": 1134,
    "urated": 49293,
    "isp": 8802,
    "\u0120Western": 4885,
    "\u0120flourish": 31147,
    "umar": 44844,
    "\u0120unemployment": 10681,
    "illard": 32681,
    "\u0120Diaz": 26899,
    "\u0120blue": 4171,
    "\u0120Tip": 23095,
    "\u0120Heaven": 11225,
    "\u0120pipes": 19860,
    "\u0120celestial": 33258,
    "\u0120Rhodes": 25656,
    "pl": 489,
    "\u0120password": 9206,
    "\u0120taxis": 45049,
    "acker": 10735,
    "\u0120grips": 31323,
    "024": 40839,
    "\u0120encyclopedia": 45352,
    "\u0120International": 4037,
    "\u0120embark": 21030,
    "\u0120contents": 10154,
    "\u0120assessment": 8922,
    "\u0120orient": 11367,
    "\u0120retailer": 21538,
    "\u0120rag": 34232,
    "\u0120purchasing": 14080,
    "\u0120impat": 28189,
    "\u0120Mol": 17958,
    "\u0120Brazilian": 17036,
    "\u0120assure": 19832,
    "anish": 7115,
    "opers": 20618,
    "\u0120Superior": 22953,
    "\u0120Setting": 25700,
    "reated": 15978,
    "\u0120depended": 33785,
    "\u0120Sai": 25251,
    "\u0120organisers": 43013,
    "\u0120optim": 6436,
    "\u0120Bent": 20421,
    "\u0120repo": 29924,
    "\u0120healthcare": 11409,
    "\u0120Carnage": 44177,
    "Mut": 41603,
    "\u0120requesting": 20623,
    "\u0120Twin": 14968,
    "Hun": 25117,
    "\u0120smartphones": 18151,
    "ior": 1504,
    "\u0120318": 39320,
    "ouses": 11370,
    "\u0120hastily": 37205,
    "SM": 12310,
    "\u0120Goose": 46317,
    "rings": 33173,
    "\u0120..............": 44912,
    "ifter": 18171,
    "\u0120grandfather": 17695,
    ")'": 33047,
    "\u0120codes": 12416,
    "\u0120breeding": 18954,
    "\u0120skew": 43370,
    "\u0120feed": 3745,
    "old": 727,
    "\u0120immune": 10900,
    "\u0120habitable": 49055,
    "\u0120smaller": 4833,
    "Tip": 28434,
    "\u00e5\u0124": 43636,
    "\u0120assembly": 10474,
    "\u0120Oy": 39447,
    "\u0120p": 279,
    "\u0120narrowed": 33214,
    "\u0120loophole": 35723,
    "\u0120Peoples": 41770,
    "\u0120examples": 6096,
    "\u0120quarrel": 41998,
    "\u0120432": 46393,
    "\u0120Editing": 39883,
    "aimon": 49438,
    "aed": 8432,
    "cery": 12757,
    "\u0120tuberculosis": 44222,
    "iddy": 34208,
    "\u0120LH": 49730,
    "\u0120unearthed": 41562,
    "rique": 33865,
    "\u0120hire": 11078,
    "aser": 6005,
    "\u0120esteem": 42213,
    "\u0120classify": 36509,
    "\u0120promoter": 32972,
    "dylib": 31739,
    "\u0120Allied": 28234,
    "\u0120starts": 4940,
    "\u0120Getting": 18067,
    "\u0120gamma": 34236,
    "\u0120Pitch": 33517,
    "\u0120Grail": 41036,
    "\u0120cr": 1067,
    "\u0120Daw": 17552,
    "\u0120LP": 18470,
    "\u0120emission": 25592,
    "Obs": 31310,
    "\u0120calendar": 11845,
    "\u0120Daryl": 44385,
    "\u0120embassy": 18613,
    "mination": 17928,
    "\u0120Butter": 18971,
    "\u0120Mahjong": 37380,
    "lining": 21310,
    "ipal": 8521,
    "\u0120nomination": 11872,
    "encia": 29634,
    "\u0120Day": 3596,
    "\u0120span": 11506,
    "\u0120Mushroom": 36482,
    "GREEN": 43016,
    "\u0120pedoph": 27706,
    "\u00e3\u0125\u012a": 13298,
    "eca": 31047,
    "\u0120Dres": 40576,
    "\u0120outreach": 23424,
    "\u0120STL": 37269,
    "\u0120incidentally": 42258,
    "\u0120turnover": 25079,
    "\u0120waited": 13488,
    "oha": 28083,
    "Nat": 47849,
    "\u0120Christopher": 12803,
    "\u0120massive": 4858,
    "\u0120happened": 3022,
    "\u0120Luthor": 47506,
    "\u0120conspiracy": 10086,
    "\u0120flashback": 41963,
    "\u0120Patch": 17106,
    "\u0120barrage": 33633,
    "\u0120shorter": 12238,
    "\u0120melt": 16867,
    "\u012c": 232,
    "\u01201896": 46723,
    "afort": 24515,
    "asing": 2313,
    "\u00e4\u00b8\u012c": 41468,
    "\u0120Infinity": 22385,
    "\u00cd": 137,
    "spot": 20485,
    "\u0120eyeb": 16067,
    "\u0120Yue": 32854,
    "\u0120CET": 46632,
    "\u0120Aki": 48663,
    "\u0120Consumption": 42158,
    "\u0120hailed": 27052,
    "\u0120sink": 14595,
    "\u0120bonding": 37228,
    "missive": 33532,
    "\u0120swimming": 14899,
    "\u0120dup": 32597,
    "\u0120summer": 3931,
    "\u0120Manifest": 36757,
    "\u0120condo": 32119,
    "\u0120house": 2156,
    "\u0120maid": 25920,
    "\u0120expulsion": 38812,
    "\u0120complicated": 8253,
    "\u0120Abstract": 27741,
    "Na": 26705,
    "\u0120oxy": 10661,
    "vard": 10187,
    "\u0120BBC": 7823,
    "\u0120fantasy": 8842,
    "URRENT": 39237,
    "\u0120fanc": 39980,
    "\u0120information": 1321,
    "ught": 8951,
    "tical": 22869,
    "\u0120copy": 4866,
    "\u0120Katz": 36290,
    "\u0120monitoring": 9904,
    "\u0120Kenyan": 47214,
    "\u0120elections": 7024,
    "\u0120currency": 7395,
    "Spr": 38454,
    "\u0120surviving": 16997,
    "\u0120Discussion": 27766,
    "\u0120OpenGL": 30672,
    "\u0120jazz": 21274,
    "\u0120Fix": 13268,
    "assin": 44961,
    "\u0120residue": 35186,
    "nat": 32353,
    "\u0120airst": 20253,
    "\u0120Alps": 46312,
    "kies": 43724,
    "\u0120tide": 20013,
    "\u0120coincidence": 21083,
    "\u0120lockdown": 47955,
    "\u0120clash": 19122,
    "\u0120victims": 4970,
    "atz": 27906,
    "\u0120Enemies": 24364,
    "\u0120Zuckerberg": 32584,
    "\u0120Kirst": 39700,
    "kn": 15418,
    "\u0120Plat": 32715,
    "\u0120relocation": 35703,
    "\u0120sleeve": 23179,
    "\u0120false": 3991,
    "338": 28460,
    "\u0120disclosures": 29535,
    "\u0120streets": 6483,
    "\u0120104": 14436,
    "SIZE": 33489,
    "Occup": 47658,
    "aunch": 11429,
    "\u0120housed": 23707,
    "andal": 7642,
    "\u0120blessings": 28388,
    "rawled": 49263,
    "\u0120Sie": 48931,
    "\u0120incap": 17505,
    "aways": 23949,
    "\u0120Jacques": 35437,
    "\u0120Dah": 44864,
    "\u0120Alam": 41514,
    "\u0120ASD": 38661,
    "\u0120enlisted": 30166,
    "\u0120stunning": 13393,
    "natal": 33150,
    "\u0120Prague": 37079,
    "\u0120Engels": 42532,
    "iami": 7871,
    "\u0120ambitious": 14742,
    "kamp": 40899,
    "yers": 21200,
    "\u0120proced": 5131,
    "\u0120Wins": 24423,
    "\u0120Skull": 24360,
    "\u0120Weekend": 30537,
    "\u0120quickest": 46264,
    "\u0120Cross": 6372,
    "\u0120rhetorical": 38505,
    "\u0120painfully": 32258,
    "\u0120interestingly": 50226,
    "\u0120convenient": 11282,
    "\u0120tant": 24246,
    "\u0120Wolfe": 37013,
    "Const": 34184,
    "\u0120Weight": 14331,
    "\u0120scheduled": 7530,
    "region": 36996,
    "\u0120synergy": 42193,
    "\u0120release": 2650,
    "\u0120civilization": 14355,
    "&&": 25226,
    "icans": 22398,
    "\u0120orche": 17771,
    "\u0120explan": 6166,
    "\u0120just": 655,
    "\u0120Darius": 47129,
    "\u0120incom": 15501,
    "\u0120hybrids": 45456,
    "\u0120Conver": 35602,
    "\u0120Hik": 39790,
    "\u0120Ps": 33610,
    "\u0120thigh": 19341,
    "\u0120mechanic": 21600,
    "672": 43864,
    "\u0120hom": 3488,
    "Pic": 39507,
    "\u0120stacked": 24167,
    "\u0120Skydragon": 38250,
    "601": 41706,
    "lyn": 6213,
    "\u0120Sutton": 39964,
    "\u0120Mysteries": 28298,
    "\u0120Agreement": 12729,
    "\u0120pairs": 14729,
    "\u0120regularly": 7987,
    "\u0120correlation": 16096,
    "\u0120mustache": 49303,
    "\u0120Sug": 13691,
    "ighty": 14400,
    "HQ": 41275,
    "\u0120neut": 22190,
    "\u0120plight": 29383,
    "\u0120gray": 12768,
    "\u0120Beach": 8511,
    "\u0120412": 42215,
    "ploma": 35728,
    "Cass": 43529,
    "amiya": 38241,
    "\u0120weddings": 37377,
    "trade": 25351,
    "\u0120Get": 3497,
    "\u0120arming": 44306,
    "\u0120Bi": 8436,
    "\u00d7\u0140": 49168,
    "ieved": 39591,
    "\u0120Markus": 46013,
    "\u0120illegally": 15572,
    "broken": 25826,
    "\u0120Damon": 33572,
    "\u0120occas": 7782,
    "\u0120Sahara": 46882,
    "\u0120Kers": 49521,
    "AMA": 25087,
    "\u0120disillusion": 39977,
    "\u0120Erie": 40911,
    "inated": 3898,
    "\u0120Manchester": 9502,
    "\u00e5\u00bd": 37605,
    "\u0120Museum": 9594,
    "\u0120boosted": 29657,
    "\u0120Kier": 39717,
    "phe": 36335,
    "Remove": 27914,
    "\u0120Ul": 16322,
    "\u0120and": 290,
    "\u0120Greater": 18169,
    "vest": 4223,
    "\u0120killings": 17709,
    "\u0120Burma": 40306,
    "\u01202010": 3050,
    "\u0120penetrate": 28302,
    "\u0120Jew": 3370,
    "\u0120ste": 2876,
    "\u0120waters": 10150,
    "\u0120Ross": 9847,
    "\u0120acceler": 8320,
    "\u0120machine": 4572,
    "\u0120STA": 47550,
    "mud": 41650,
    "ii": 4178,
    "\u0120pilgrimage": 36068,
    "quel": 31735,
    "\u0120STORY": 46427,
    "\u0120undermin": 16303,
    "\u0120refres": 17434,
    "lev": 2768,
    "Min": 9452,
    "\u0120arrogant": 28868,
    "Assistant": 48902,
    "Technical": 45638,
    "\u0120esports": 37407,
    "\u0120hurry": 23290,
    "\u0120Trigger": 24593,
    "\u0120392": 48207,
    "Pattern": 47546,
    "\u0120erect": 16417,
    "\u0120spices": 27952,
    "ASON": 36033,
    "Interstitial": 29447,
    "\u0120judging": 22989,
    "\u0120Barbar": 45952,
    "itbart": 17868,
    "\u0120historian": 18026,
    "ping": 13886,
    "Cho": 22164,
    "\u0120Sites": 37034,
    "Gene": 39358,
    "\u0120burning": 9482,
    "performance": 26585,
    "owler": 30014,
    "\u0120Sutherland": 47793,
    "\u0120dent": 18794,
    "\u0120Custom": 8562,
    "\u01201900": 21489,
    "Tonight": 43783,
    "meter": 27231,
    "isitions": 29593,
    "\u0120peril": 25830,
    "\u0120smiled": 13541,
    "\u0120discretionary": 41314,
    "\u0120aux": 27506,
    "ipers": 29288,
    "\u0120prominently": 31015,
    "\u0120violating": 18134,
    "\u0120measurable": 40757,
    "\u0120Log": 5972,
    "\u0120powerful": 3665,
    "leaders": 37553,
    "56": 3980,
    "prot": 11235,
    "\u0120exceedingly": 32436,
    "There": 1858,
    "Roaming": 27352,
    "bits": 9895,
    "\u0120Rescue": 17285,
    "eteenth": 26425,
    "fam": 44769,
    "\u0120manners": 33558,
    "\u0120poss": 1184,
    "\u0120aft": 46088,
    "\u0120Gow": 41396,
    "\u0120shop": 6128,
    "\u0120institutional": 15855,
    "\u0120interacted": 49236,
    "\u0120ignor": 11477,
    "mut": 21973,
    "\u0120tragedies": 42546,
    "Prosecutors": 39401,
    "ensive": 2021,
    "allery": 17022,
    "\u0120forc": 24686,
    "\u0120productivity": 13714,
    "\u0120lately": 16537,
    "\u0120RAW": 33782,
    "168": 14656,
    "POR": 44680,
    "lethal": 46480,
    "\u0120Ake": 45296,
    "itu": 34272,
    "\u0120Origin": 19349,
    "\u0120Shard": 32822,
    "\u0120Stretch": 44489,
    "\u0120conflict": 5358,
    "\u0120inhabited": 30671,
    "Ide": 41452,
    "ombie": 9081,
    "atos": 35492,
    "\u0120Seb": 20639,
    "\u0120bicycle": 17026,
    "pless": 14570,
[...]
